{
  "version": "1.0",
  "truncation": null,
  "padding": {
    "strategy": "BatchLongest",
    "direction": "Right",
    "pad_to_multiple_of": null,
    "pad_id": 2,
    "pad_type_id": 0,
    "pad_token": "<pad>"
  },
  "added_tokens": [
    {
      "id": 0,
      "content": "<annotation>",
      "single_word": false,
      "lstrip": false,
      "rstrip": false,
      "normalized": false,
      "special": true
    },
    {
      "id": 1,
      "content": "</annotation>",
      "single_word": false,
      "lstrip": false,
      "rstrip": false,
      "normalized": false,
      "special": true
    },
    {
      "id": 2,
      "content": "<pad>",
      "single_word": false,
      "lstrip": false,
      "rstrip": false,
      "normalized": false,
      "special": true
    },
    {
      "id": 3,
      "content": "<unk>",
      "single_word": false,
      "lstrip": false,
      "rstrip": false,
      "normalized": false,
      "special": true
    }
  ],
  "normalizer": {
    "type": "Sequence",
    "normalizers": [
      {
        "type": "NFD"
      },
      {
        "type": "Lowercase"
      },
      {
        "type": "StripAccents"
      }
    ]
  },
  "pre_tokenizer": {
    "type": "Whitespace"
  },
  "post_processor": {
    "type": "TemplateProcessing",
    "single": [
      {
        "SpecialToken": {
          "id": "<annotation>",
          "type_id": 0
        }
      },
      {
        "Sequence": {
          "id": "A",
          "type_id": 0
        }
      },
      {
        "SpecialToken": {
          "id": "</annotation>",
          "type_id": 0
        }
      }
    ],
    "pair": [
      {
        "Sequence": {
          "id": "A",
          "type_id": 0
        }
      },
      {
        "Sequence": {
          "id": "B",
          "type_id": 1
        }
      }
    ],
    "special_tokens": {
      "</annotation>": {
        "id": "</annotation>",
        "ids": [
          1
        ],
        "tokens": [
          "</annotation>"
        ]
      },
      "<annotation>": {
        "id": "<annotation>",
        "ids": [
          0
        ],
        "tokens": [
          "<annotation>"
        ]
      }
    }
  },
  "decoder": null,
  "model": {
    "type": "BPE",
    "dropout": null,
    "unk_token": "<unk>",
    "continuing_subword_prefix": null,
    "end_of_word_suffix": null,
    "fuse_unk": false,
    "byte_fallback": false,
    "vocab": {
      "<annotation>": 0,
      "</annotation>": 1,
      "<pad>": 2,
      "<unk>": 3,
      "#": 4,
      "'": 5,
      "(": 6,
      ")": 7,
      "+": 8,
      ",": 9,
      "-": 10,
      ".": 11,
      "/": 12,
      "0": 13,
      "1": 14,
      "2": 15,
      "3": 16,
      "4": 17,
      "5": 18,
      "6": 19,
      "7": 20,
      "8": 21,
      "9": 22,
      ":": 23,
      "=": 24,
      ">": 25,
      "[": 26,
      "]": 27,
      "_": 28,
      "a": 29,
      "b": 30,
      "c": 31,
      "d": 32,
      "e": 33,
      "f": 34,
      "g": 35,
      "h": 36,
      "i": 37,
      "j": 38,
      "k": 39,
      "l": 40,
      "m": 41,
      "n": 42,
      "o": 43,
      "p": 44,
      "q": 45,
      "r": 46,
      "s": 47,
      "t": 48,
      "u": 49,
      "v": 50,
      "w": 51,
      "x": 52,
      "y": 53,
      "z": 54,
      "io": 55,
      "ce": 56,
      "ro": 57,
      "ic": 58,
      "al": 59,
      "pro": 60,
      "ss": 61,
      "ion": 62,
      "at": 63,
      "cess": 64,
      "process": 65,
      "in": 66,
      "lo": 67,
      "ul": 68,
      "bio": 69,
      "ical": 70,
      "log": 71,
      "logical": 72,
      "biological": 73,
      "_process": 74,
      "biological_process": 75,
      "ct": 76,
      "ar": 77,
      "re": 78,
      "ol": 79,
      "it": 80,
      "ation": 81,
      "iv": 82,
      "en": 83,
      "ular": 84,
      "an": 85,
      "ular_": 86,
      "se": 87,
      "po": 88,
      "act": 89,
      "ec": 90,
      "of": 91,
      "un": 92,
      "ction": 93,
      "co": 94,
      "mol": 95,
      "unction": 96,
      "molec": 97,
      "function": 98,
      "ular_function": 99,
      "molecular_function": 100,
      "er": 101,
      "activ": 102,
      "ity": 103,
      "reg": 104,
      "ulation": 105,
      "activity": 106,
      "ll": 107,
      "regulation": 108,
      "tr": 109,
      "ase": 110,
      "cell": 111,
      "ph": 112,
      "me": 113,
      "or": 114,
      "le": 115,
      "ent": 116,
      "de": 117,
      "yl": 118,
      "th": 119,
      "com": 120,
      "ive": 121,
      "ing": 122,
      "tran": 123,
      "ne": 124,
      "trans": 125,
      "os": 126,
      "pon": 127,
      "ate": 128,
      "te": 129,
      "to": 130,
      "id": 131,
      "ine": 132,
      "is": 133,
      "ta": 134,
      "tic": 135,
      "sy": 136,
      "compon": 137,
      "component": 138,
      "ular_component": 139,
      "cellular_component": 140,
      "ch": 141,
      "ve": 142,
      "di": 143,
      "pt": 144,
      "na": 145,
      "pos": 146,
      "am": 147,
      "gen": 148,
      "mb": 149,
      "on": 150,
      "olic": 151,
      "ter": 152,
      "itive": 153,
      "gl": 154,
      "ative": 155,
      "positive": 156,
      "bolic": 157,
      "hy": 158,
      "gative": 159,
      "negative": 160,
      "ac": 161,
      "ig": 162,
      "syn": 163,
      "por": 164,
      "synth": 165,
      "cy": 166,
      "hyd": 167,
      "as": 168,
      "ple": 169,
      "ti": 170,
      "fer": 171,
      "ran": 172,
      "res": 173,
      "hydro": 174,
      "cle": 175,
      "ind": 176,
      "phos": 177,
      "phosph": 178,
      "comple": 179,
      "ox": 180,
      "prote": 181,
      "ment": 182,
      "us": 183,
      "complex": 184,
      "protein": 185,
      "es": 186,
      "pe": 187,
      "ri": 188,
      "etic": 189,
      "biosynth": 190,
      "li": 191,
      "memb": 192,
      "membran": 193,
      "membrane": 194,
      "respon": 195,
      "biosynthetic": 196,
      "response": 197,
      "transpor": 198,
      "mo": 199,
      "transfer": 200,
      "cept": 201,
      "um": 202,
      "transferase": 203,
      "inding": 204,
      "binding": 205,
      "ceptor": 206,
      "end": 207,
      "meta": 208,
      "nal": 209,
      "glu": 210,
      "receptor": 211,
      "metabolic": 212,
      "pl": 213,
      "ide": 214,
      "cat": 215,
      "meth": 216,
      "vol": 217,
      "sig": 218,
      "signal": 219,
      "ly": 220,
      "ur": 221,
      "velo": 222,
      "cata": 223,
      "ath": 224,
      "yltransferase": 225,
      "invol": 226,
      "ved": 227,
      "involved": 228,
      "catabolic": 229,
      "du": 230,
      "pment": 231,
      "velopment": 232,
      "development": 233,
      "he": 234,
      "ucle": 235,
      "ad": 236,
      "signaling": 237,
      "ay": 238,
      "be": 239,
      "iz": 240,
      "transport": 241,
      "genase": 242,
      "ated": 243,
      "ty": 244,
      "path": 245,
      "ization": 246,
      "way": 247,
      "rna": 248,
      "pathway": 249,
      "ace": 250,
      "fe": 251,
      "for": 252,
      "ass": 253,
      "ren": 254,
      "amin": 255,
      "pol": 256,
      "ub": 257,
      "cellular": 258,
      "mit": 259,
      "ma": 260,
      "pho": 261,
      "acid": 262,
      "esis": 263,
      "con": 264,
      "dif": 265,
      "form": 266,
      "sp": 267,
      "ome": 268,
      "pha": 269,
      "im": 270,
      "kin": 271,
      "xy": 272,
      "car": 273,
      "ste": 274,
      "ron": 275,
      "nucle": 276,
      "gly": 277,
      "vi": 278,
      "gan": 279,
      "emb": 280,
      "mal": 281,
      "plas": 282,
      "mat": 283,
      "phosphate": 284,
      "genesis": 285,
      "cal": 286,
      "acet": 287,
      "feren": 288,
      "mic": 289,
      "organ": 290,
      "ferenti": 291,
      "differenti": 292,
      "differentiation": 293,
      "beta": 294,
      "pept": 295,
      "ge": 296,
      "ex": 297,
      "gluco": 298,
      "oxy": 299,
      "methyl": 300,
      "st": 301,
      "transmembrane": 302,
      "mer": 303,
      "mor": 304,
      "mito": 305,
      "dna": 306,
      "assemb": 307,
      "assembly": 308,
      "morpho": 309,
      "morphogenesis": 310,
      "dehydro": 311,
      "by": 312,
      "medi": 313,
      "od": 314,
      "ci": 315,
      "alpha": 316,
      "neu": 317,
      "mon": 318,
      "formation": 319,
      "qu": 320,
      "ication": 321,
      "ret": 322,
      "duct": 323,
      "poly": 324,
      "ke": 325,
      "cl": 326,
      "hydroxy": 327,
      "ib": 328,
      "dehydrogenase": 329,
      "il": 330,
      "type": 331,
      "inter": 332,
      "mus": 333,
      "ial": 334,
      "nap": 335,
      "transporter": 336,
      "amino": 337,
      "duction": 338,
      "and": 339,
      "endo": 340,
      "tra": 341,
      "one": 342,
      "per": 343,
      "gro": 344,
      "synap": 345,
      "reduct": 346,
      "actor": 347,
      "ule": 348,
      "idyl": 349,
      "synthase": 350,
      "ost": 351,
      "acetyl": 352,
      ")-": 353,
      "muscle": 354,
      "idase": 355,
      "ulf": 356,
      "mediated": 357,
      "reductase": 358,
      "factor": 359,
      "glucos": 360,
      "ene": 361,
      "host": 362,
      "phosphat": 363,
      "kinase": 364,
      "ii": 365,
      "rib": 366,
      "ep": 367,
      "if": 368,
      "rom": 369,
      "ance": 370,
      "py": 371,
      "pre": 372,
      "lig": 373,
      "ose": 374,
      "par": 375,
      "dep": 376,
      "his": 377,
      "amine": 378,
      "mono": 379,
      "cyte": 380,
      "grow": 381,
      "ap": 382,
      "ens": 383,
      "sic": 384,
      "osome": 385,
      "ary": 386,
      "depend": 387,
      "growth": 388,
      "dependent": 389,
      "leu": 390,
      "do": 391,
      "sulf": 392,
      "ylase": 393,
      "via": 394,
      "bl": 395,
      "min": 396,
      "ond": 397,
      "my": 398,
      "'-": 399,
      "ory": 400,
      "sec": 401,
      "spec": 402,
      "local": 403,
      "localization": 404,
      "nad": 405,
      "synaptic": 406,
      "coa": 407,
      "che": 408,
      "secret": 409,
      "gal": 410,
      "chond": 411,
      "ab": 412,
      "pto": 413,
      "production": 414,
      "cor": 415,
      "tos": 416,
      "idine": 417,
      "su": 418,
      "anti": 419,
      "proli": 420,
      "prolifer": 421,
      "proliferation": 422,
      "cri": 423,
      "transcri": 424,
      "mes": 425,
      "ption": 426,
      "rol": 427,
      "methyltransferase": 428,
      "mul": 429,
      "ylation": 430,
      "cyto": 431,
      "la": 432,
      "ano": 433,
      "ric": 434,
      "sis": 435,
      "carb": 436,
      "specif": 437,
      "dis": 438,
      "tub": 439,
      "port": 440,
      "nit": 441,
      "ra": 442,
      "ration": 443,
      "secretion": 444,
      "apo": 445,
      "tam": 446,
      "lial": 447,
      "vir": 448,
      "ast": 449,
      "merase": 450,
      "int": 451,
      "ane": 452,
      "ut": 453,
      "phospho": 454,
      "enz": 455,
      "organization": 456,
      "so": 457,
      "mitochond": 458,
      "galact": 459,
      "und": 460,
      "phen": 461,
      "mun": 462,
      "sti": 463,
      "the": 464,
      "aden": 465,
      "mig": 466,
      "migration": 467,
      "chan": 468,
      "cytos": 469,
      "ure": 470,
      "tri": 471,
      "ton": 472,
      "vesic": 473,
      "peptide": 474,
      "ax": 475,
      "from": 476,
      "vesicle": 477,
      "onucle": 478,
      "tro": 479,
      "iso": 480,
      "ptotic": 481,
      "rin": 482,
      "tone": 483,
      "ole": 484,
      "transcription": 485,
      "diac": 486,
      "apoptotic": 487,
      "rial": 488,
      "neuro": 489,
      "ru": 490,
      "stem": 491,
      "acro": 492,
      "micro": 493,
      "dio": 494,
      "glyce": 495,
      "peptidyl": 496,
      "can": 497,
      "itol": 498,
      "immun": 499,
      "oxid": 500,
      "man": 501,
      "itin": 502,
      "rine": 503,
      "mitotic": 504,
      "stimul": 505,
      "lase": 506,
      "sine": 507,
      "interleu": 508,
      "interleukin": 509,
      "plasma": 510,
      "ating": 511,
      "glutam": 512,
      "tubule": 513,
      "ud": 514,
      "histone": 515,
      "ium": 516,
      "ior": 517,
      "nel": 518,
      "termin": 519,
      "hydrolase": 520,
      "calci": 521,
      "channel": 522,
      "lin": 523,
      "action": 524,
      "calcium": 525,
      "cin": 526,
      "gu": 527,
      "ho": 528,
      "phosphatase": 529,
      "tal": 530,
      "cen": 531,
      "ca": 532,
      "inos": 533,
      "kine": 534,
      "ir": 535,
      "plasmic": 536,
      "ite": 537,
      "nuclear": 538,
      "chemo": 539,
      "ssion": 540,
      "trna": 541,
      "ithe": 542,
      "cyste": 543,
      "lon": 544,
      "activation": 545,
      "fate": 546,
      "nucleo": 547,
      "age": 548,
      "mitochondrial": 549,
      "epithe": 550,
      "hor": 551,
      "chro": 552,
      "erm": 553,
      "ural": 554,
      "hes": 555,
      "ligase": 556,
      "deoxy": 557,
      "chol": 558,
      "oxygenase": 559,
      "no": 560,
      "chlo": 561,
      "iqu": 562,
      "processing": 563,
      "tide": 564,
      "mone": 565,
      "import": 566,
      "cardiac": 567,
      "ubiqu": 568,
      "pid": 569,
      "rrna": 570,
      "tric": 571,
      "polar": 572,
      "tol": 573,
      "stimulus": 574,
      "bod": 575,
      "ner": 576,
      "body": 577,
      "meio": 578,
      "ven": 579,
      "phric": 580,
      "ism": 581,
      "ther": 582,
      "gran": 583,
      "hydrox": 584,
      "sal": 585,
      "sub": 586,
      "neuron": 587,
      "ribonucle": 588,
      "line": 589,
      "polymerase": 590,
      "vas": 591,
      "glyco": 592,
      "tracellular": 593,
      "phosphor": 594,
      "inositol": 595,
      "av": 596,
      "eral": 597,
      "oside": 598,
      "specification": 599,
      "ition": 600,
      "blast": 601,
      "antigen": 602,
      "oid": 603,
      "tero": 604,
      "cycl": 605,
      "benz": 606,
      "rate": 607,
      "into": 608,
      "hesion": 609,
      "cysteine": 610,
      "ubiquitin": 611,
      "dium": 612,
      "acyl": 613,
      "pa": 614,
      "mrna": 615,
      "oth": 616,
      "enance": 617,
      "maint": 618,
      "maintenance": 619,
      "col": 620,
      "cha": 621,
      "porter": 622,
      "dec": 623,
      "all": 624,
      "atp": 625,
      "phy": 626,
      "hormone": 627,
      "cu": 628,
      "lipo": 629,
      "kele": 630,
      "monooxygenase": 631,
      "post": 632,
      "serine": 633,
      "fil": 634,
      "str": 635,
      "epithelial": 636,
      "inh": 637,
      "indu": 638,
      "rim": 639,
      "long": 640,
      "inal": 641,
      "lation": 642,
      "cycle": 643,
      "viral": 644,
      "immune": 645,
      "ator": 646,
      "anine": 647,
      "inte": 648,
      "repl": 649,
      "actin": 650,
      "arb": 651,
      "fl": 652,
      "fol": 653,
      "inhib": 654,
      "sym": 655,
      "pero": 656,
      "glucose": 657,
      "wit": 658,
      "contr": 659,
      "prop": 660,
      "osyl": 661,
      "gland": 662,
      "glutamate": 663,
      "fib": 664,
      "system": 665,
      "fat": 666,
      "tar": 667,
      "erg": 668,
      "xygenase": 669,
      "mann": 670,
      "cine": 671,
      "glo": 672,
      "pound": 673,
      "compound": 674,
      "tin": 675,
      "iont": 676,
      "symb": 677,
      "microtubule": 678,
      "oxido": 679,
      "symbiont": 680,
      "ag": 681,
      "val": 682,
      "cou": 683,
      "translation": 684,
      "phosphatidyl": 685,
      "cis": 686,
      "pat": 687,
      "ulin": 688,
      "ining": 689,
      "spind": 690,
      "organism": 691,
      "blo": 692,
      "mi": 693,
      "spindle": 694,
      "ous": 695,
      "ocyte": 696,
      "smo": 697,
      "pore": 698,
      "oxo": 699,
      "oxidoreductase": 700,
      "stre": 701,
      "meiotic": 702,
      "oxyl": 703,
      "hydroxylase": 704,
      "clo": 705,
      "der": 706,
      "ulo": 707,
      "blood": 708,
      "chloro": 709,
      "sens": 710,
      "hex": 711,
      "glucosyltransferase": 712,
      "nucleotide": 713,
      "smooth": 714,
      "replication": 715,
      "esta": 716,
      "adhesion": 717,
      "axon": 718,
      "chromat": 719,
      "ram": 720,
      "xis": 721,
      "ish": 722,
      "ry": 723,
      "taining": 724,
      "ed": 725,
      "init": 726,
      "ester": 727,
      "cd": 728,
      "lat": 729,
      "ament": 730,
      "containing": 731,
      "osyltransferase": 732,
      "blish": 733,
      "glycerol": 734,
      "establish": 735,
      "ting": 736,
      "retic": 737,
      "osine": 738,
      "tetra": 739,
      "dioxygenase": 740,
      "filament": 741,
      "establishment": 742,
      "art": 743,
      "del": 744,
      "stran": 745,
      "chy": 746,
      "phenyl": 747,
      "cap": 748,
      "onic": 749,
      "regul": 750,
      "char": 751,
      "-(": 752,
      "tral": 753,
      "ht": 754,
      "ill": 755,
      "ino": 756,
      "endothe": 757,
      "anth": 758,
      "usion": 759,
      "don": 760,
      "wall": 761,
      "terior": 762,
      "au": 763,
      "met": 764,
      "across": 765,
      "reticul": 766,
      "iron": 767,
      "anol": 768,
      "oxidase": 769,
      "phag": 770,
      "ak": 771,
      "base": 772,
      "ssu": 773,
      "phase": 774,
      "udp": 775,
      "mod": 776,
      "termination": 777,
      "gi": 778,
      "iation": 779,
      "acchar": 780,
      "pled": 781,
      "forming": 782,
      "inhibit": 783,
      "coupled": 784,
      "reticulum": 785,
      "lysine": 786,
      "stress": 787,
      "cation": 788,
      "pent": 789,
      "chain": 790,
      "cular": 791,
      "dend": 792,
      "ver": 793,
      "heart": 794,
      "proton": 795,
      "try": 796,
      "ticle": 797,
      "commit": 798,
      "telo": 799,
      "lipid": 800,
      "plast": 801,
      "commitment": 802,
      "atory": 803,
      "nucleus": 804,
      "stru": 805,
      "accharide": 806,
      "gol": 807,
      "pur": 808,
      "metane": 809,
      "apt": 810,
      "up": 811,
      "trin": 812,
      "embry": 813,
      "specific": 814,
      "fatty": 815,
      "dendr": 816,
      "methylation": 817,
      "thio": 818,
      "plate": 819,
      "golgi": 820,
      "enchy": 821,
      "integ": 822,
      "contraction": 823,
      "endothelial": 824,
      "acu": 825,
      "lium": 826,
      "class": 827,
      "struct": 828,
      "eth": 829,
      "gam": 830,
      "mesenchy": 831,
      "ang": 832,
      "uration": 833,
      "sodium": 834,
      "alk": 835,
      "acter": 836,
      "isphosphate": 837,
      "granule": 838,
      "glycos": 839,
      "initiation": 840,
      "fusion": 841,
      "omal": 842,
      "ense": 843,
      "az": 844,
      "yme": 845,
      "endoplasmic": 846,
      "choline": 847,
      "ger": 848,
      "oli": 849,
      "pot": 850,
      "dehy": 851,
      "virus": 852,
      "dehyde": 853,
      "op": 854,
      "ot": 855,
      "activated": 856,
      "keletal": 857,
      "with": 858,
      "anyl": 859,
      "ential": 860,
      "maturation": 861,
      "ug": 862,
      "tern": 863,
      "adapt": 864,
      "gamma": 865,
      "atase": 866,
      "ermal": 867,
      "transduction": 868,
      "aspar": 869,
      "oxylase": 870,
      "tyro": 871,
      "ruv": 872,
      "bacter": 873,
      "acting": 874,
      "bi": 875,
      "sta": 876,
      "taxis": 877,
      "pyruv": 878,
      "pair": 879,
      "lateral": 880,
      "bin": 881,
      "ero": 882,
      "gated": 883,
      "h3": 884,
      "dete": 885,
      "macro": 886,
      "detection": 887,
      "sn": 888,
      "cyclo": 889,
      "quin": 890,
      "hol": 891,
      "diphosphate": 892,
      "lyase": 893,
      "male": 894,
      "another": 895,
      "metanephric": 896,
      "mesenchymal": 897,
      "pi": 898,
      "vacu": 899,
      "benzo": 900,
      "osomal": 901,
      "sulfur": 902,
      "homo": 903,
      "embryonic": 904,
      "home": 905,
      "intracellular": 906,
      "lect": 907,
      "elong": 908,
      "ring": 909,
      "suc": 910,
      "potential": 911,
      "skeletal": 912,
      "enzyme": 913,
      "terminal": 914,
      "decarb": 915,
      "div": 916,
      "non": 917,
      "low": 918,
      "integrin": 919,
      "oci": 920,
      "tidine": 921,
      "ived": 922,
      "chrom": 923,
      "acetyltransferase": 924,
      "peptidase": 925,
      "derived": 926,
      "pyruvate": 927,
      "hydr": 928,
      "like": 929,
      "synapse": 930,
      "lum": 931,
      "sor": 932,
      "oxygen": 933,
      "chemotaxis": 934,
      "bu": 935,
      "junction": 936,
      "lact": 937,
      "ionine": 938,
      "cytokine": 939,
      "tyrosine": 940,
      "alanine": 941,
      "arg": 942,
      "entation": 943,
      "modif": 944,
      "nitro": 945,
      "ant": 946,
      "amp": 947,
      "pyr": 948,
      "nerve": 949,
      "strand": 950,
      "lic": 951,
      "thre": 952,
      "transition": 953,
      "induction": 954,
      "fla": 955,
      "mp": 956,
      "ral": 957,
      "eno": 958,
      "osin": 959,
      "postsynaptic": 960,
      "symporter": 961,
      "xin": 962,
      "ching": 963,
      "main": 964,
      "adenyl": 965,
      "elongation": 966,
      "hydratase": 967,
      "lumen": 968,
      "roid": 969,
      "tissu": 970,
      "pyrim": 971,
      "cytosis": 972,
      "ia": 973,
      "acetate": 974,
      "sulfate": 975,
      "hav": 976,
      "erin": 977,
      "onate": 978,
      "moti": 979,
      "behav": 980,
      "pression": 981,
      "behavior": 982,
      "ha": 983,
      "ato": 984,
      "let": 985,
      "cond": 986,
      "tissue": 987,
      "rocyte": 988,
      "repair": 989,
      "determination": 990,
      "link": 991,
      "pattern": 992,
      "modulation": 993,
      "bran": 994,
      "je": 995,
      "pase": 996,
      "pres": 997,
      "pota": 998,
      "osta": 999,
      "aminase": 1000,
      "troph": 1001,
      "bud": 1002,
      "red": 1003,
      "transmi": 1004,
      "rix": 1005,
      "domain": 1006,
      "rain": 1007,
      "purine": 1008,
      "ostasis": 1009,
      "transmission": 1010,
      "sperm": 1011,
      "myosin": 1012,
      "cit": 1013,
      "ssium": 1014,
      "inine": 1015,
      "matrix": 1016,
      "press": 1017,
      "lipoprotein": 1018,
      "buty": 1019,
      "potassium": 1020,
      "bas": 1021,
      "xide": 1022,
      "olig": 1023,
      "itic": 1024,
      "ision": 1025,
      "endosome": 1026,
      "cytoplasmic": 1027,
      "chromosome": 1028,
      "tens": 1029,
      "uter": 1030,
      "eck": 1031,
      "export": 1032,
      "deoxyribonucle": 1033,
      "polarity": 1034,
      "division": 1035,
      "ded": 1036,
      "dihydro": 1037,
      "homeostasis": 1038,
      "decarboxylase": 1039,
      "modification": 1040,
      "threon": 1041,
      "pyrimidine": 1042,
      "spore": 1043,
      "thy": 1044,
      "neural": 1045,
      "particle": 1046,
      "disassembly": 1047,
      "brain": 1048,
      "pal": 1049,
      "infl": 1050,
      "exo": 1051,
      "extracellular": 1052,
      "mesone": 1053,
      "tor": 1054,
      "sept": 1055,
      "des": 1056,
      "phosphorylation": 1057,
      "ergic": 1058,
      "trinsic": 1059,
      "sequ": 1060,
      "chromatin": 1061,
      "12": 1062,
      "af": 1063,
      "side": 1064,
      "core": 1065,
      "uster": 1066,
      "glycine": 1067,
      "cluster": 1068,
      "glucoside": 1069,
      "chemokine": 1070,
      "vascular": 1071,
      "dendritic": 1072,
      "vacuole": 1073,
      "fin": 1074,
      "wn": 1075,
      "phospholi": 1076,
      "methionine": 1077,
      "isomerase": 1078,
      "curon": 1079,
      "presentation": 1080,
      "eration": 1081,
      "glucuron": 1082,
      "associ": 1083,
      "inflam": 1084,
      "aldehyde": 1085,
      "ence": 1086,
      "glucan": 1087,
      "odermal": 1088,
      "light": 1089,
      "hc": 1090,
      "ytic": 1091,
      "uble": 1092,
      "fru": 1093,
      "lar": 1094,
      "iii": 1095,
      "leuk": 1096,
      "donor": 1097,
      "ube": 1098,
      "rele": 1099,
      "recom": 1100,
      "glutar": 1101,
      "recombin": 1102,
      "bic": 1103,
      "arab": 1104,
      "photo": 1105,
      "glycan": 1106,
      "10": 1107,
      "hal": 1108,
      "pan": 1109,
      "amide": 1110,
      "hetero": 1111,
      "adp": 1112,
      "nucleoside": 1113,
      "nadp": 1114,
      "carbon": 1115,
      "disc": 1116,
      "+)": 1117,
      "el": 1118,
      "rh": 1119,
      "ery": 1120,
      "acetylation": 1121,
      "ye": 1122,
      "point": 1123,
      "acetylglucos": 1124,
      "inhibitor": 1125,
      "succin": 1126,
      "arginine": 1127,
      "mhc": 1128,
      "ore": 1129,
      "vit": 1130,
      "neph": 1131,
      "histidine": 1132,
      "fibro": 1133,
      "threonine": 1134,
      "bo": 1135,
      "cur": 1136,
      "dp": 1137,
      "ione": 1138,
      "terol": 1139,
      "ido": 1140,
      "chor": 1141,
      "dihydroxy": 1142,
      "sup": 1143,
      "associated": 1144,
      "cre": 1145,
      "eye": 1146,
      "outer": 1147,
      "idin": 1148,
      "merization": 1149,
      "sulfo": 1150,
      "toll": 1151,
      "translational": 1152,
      "sensory": 1153,
      "11": 1154,
      "but": 1155,
      "kill": 1156,
      "site": 1157,
      "ald": 1158,
      "anterior": 1159,
      "active": 1160,
      "mere": 1161,
      "ensity": 1162,
      "prim": 1163,
      "mel": 1164,
      "amy": 1165,
      "pole": 1166,
      "auto": 1167,
      "structural": 1168,
      "gra": 1169,
      "cir": 1170,
      "double": 1171,
      "glomer": 1172,
      "17": 1173,
      "cere": 1174,
      "arter": 1175,
      "ung": 1176,
      "oxide": 1177,
      "liz": 1178,
      "lys": 1179,
      "imer": 1180,
      "phosphatidylinositol": 1181,
      "mesonephric": 1182,
      "cro": 1183,
      "dor": 1184,
      "ced": 1185,
      "inol": 1186,
      "ception": 1187,
      "antiporter": 1188,
      "wnt": 1189,
      "tion": 1190,
      "igh": 1191,
      "ride": 1192,
      "lym": 1193,
      "lagen": 1194,
      "collagen": 1195,
      "bre": 1196,
      "ile": 1197,
      "check": 1198,
      "dial": 1199,
      "glial": 1200,
      "adaptor": 1201,
      "atomic": 1202,
      "checkpoint": 1203,
      "nic": 1204,
      "tube": 1205,
      "atur": 1206,
      "ana": 1207,
      "cyan": 1208,
      "phage": 1209,
      "ligand": 1210,
      "monoatomic": 1211,
      "carboxyl": 1212,
      "fruct": 1213,
      "tem": 1214,
      "mag": 1215,
      "peri": 1216,
      "cyclase": 1217,
      "quinone": 1218,
      "18": 1219,
      "density": 1220,
      "sing": 1221,
      "tage": 1222,
      "acyltransferase": 1223,
      "ading": 1224,
      "cortic": 1225,
      "polarization": 1226,
      "flu": 1227,
      "bacterial": 1228,
      "recombination": 1229,
      "germ": 1230,
      "jug": 1231,
      "proline": 1232,
      "atic": 1233,
      "voltage": 1234,
      "meric": 1235,
      "group": 1236,
      "adenosine": 1237,
      "targe": 1238,
      "ulose": 1239,
      "cas": 1240,
      "sel": 1241,
      "ser": 1242,
      "unit": 1243,
      "def": 1244,
      "acceptor": 1245,
      "rier": 1246,
      "polys": 1247,
      "phosphotransferase": 1248,
      "suppression": 1249,
      "elect": 1250,
      "inyl": 1251,
      "ulting": 1252,
      "renal": 1253,
      "second": 1254,
      "thro": 1255,
      "resulting": 1256,
      "atpase": 1257,
      "alco": 1258,
      "region": 1259,
      "tox": 1260,
      "star": 1261,
      "choles": 1262,
      "follic": 1263,
      "glob": 1264,
      "macrophage": 1265,
      "jection": 1266,
      "h2": 1267,
      "transmit": 1268,
      "tex": 1269,
      "matic": 1270,
      "single": 1271,
      "oct": 1272,
      "pin": 1273,
      "uron": 1274,
      "loid": 1275,
      "steroid": 1276,
      "matory": 1277,
      "cortex": 1278,
      "tetrahydro": 1279,
      "delta": 1280,
      "caps": 1281,
      "angio": 1282,
      "glutarate": 1283,
      "fibroblast": 1284,
      "transmitter": 1285,
      "et": 1286,
      "ft": 1287,
      "pterin": 1288,
      "organic": 1289,
      "ification": 1290,
      "anolamine": 1291,
      "inflammatory": 1292,
      "ceram": 1293,
      "activating": 1294,
      "oxal": 1295,
      "conjug": 1296,
      "vitamin": 1297,
      "aro": 1298,
      "dic": 1299,
      "ding": 1300,
      "sph": 1301,
      "inner": 1302,
      "activator": 1303,
      "gene": 1304,
      "asome": 1305,
      "mye": 1306,
      "neurotransmitter": 1307,
      "oxidation": 1308,
      "ventric": 1309,
      "ubiquitination": 1310,
      "keleton": 1311,
      "aspart": 1312,
      "grade": 1313,
      "lization": 1314,
      "polysaccharide": 1315,
      "fu": 1316,
      "rion": 1317,
      "cop": 1318,
      "carboxy": 1319,
      "galactos": 1320,
      "immuno": 1321,
      "16": 1322,
      "20": 1323,
      "sin": 1324,
      "remo": 1325,
      "ist": 1326,
      "posterior": 1327,
      "cyst": 1328,
      "myo": 1329,
      "mitochondrion": 1330,
      "cade": 1331,
      "subunit": 1332,
      "platelet": 1333,
      "nephron": 1334,
      "cascade": 1335,
      "high": 1336,
      "om": 1337,
      "prog": 1338,
      "projection": 1339,
      "atin": 1340,
      "ked": 1341,
      "cytoskeleton": 1342,
      "cyclic": 1343,
      "telomere": 1344,
      "dorsal": 1345,
      "defense": 1346,
      "go": 1347,
      "pig": 1348,
      "indole": 1349,
      "pigment": 1350,
      "15": 1351,
      "cul": 1352,
      "dy": 1353,
      "nat": 1354,
      "trio": 1355,
      "peroxide": 1356,
      "regulatory": 1357,
      "rham": 1358,
      "alcohol": 1359,
      "bisphosphate": 1360,
      "ell": 1361,
      "mam": 1362,
      "rot": 1363,
      "dimethyl": 1364,
      "retro": 1365,
      "guanine": 1366,
      "esterase": 1367,
      "donors": 1368,
      "globulin": 1369,
      "gas": 1370,
      "lung": 1371,
      "oyl": 1372,
      "moly": 1373,
      "phrine": 1374,
      "dehydratase": 1375,
      "inephrine": 1376,
      "hyper": 1377,
      "motor": 1378,
      "umor": 1379,
      "plant": 1380,
      "hel": 1381,
      "linked": 1382,
      "induced": 1383,
      "geranyl": 1384,
      "flav": 1385,
      "pen": 1386,
      "perception": 1387,
      "diacyl": 1388,
      "terone": 1389,
      "phagy": 1390,
      "ethyl": 1391,
      "mical": 1392,
      "otide": 1393,
      "incor": 1394,
      "seg": 1395,
      "oxin": 1396,
      "glut": 1397,
      "uridine": 1398,
      "feron": 1399,
      "interferon": 1400,
      "presynaptic": 1401,
      "pressure": 1402,
      "desatur": 1403,
      "primary": 1404,
      "cross": 1405,
      "cholesterol": 1406,
      "ceramide": 1407,
      "desaturase": 1408,
      "nu": 1409,
      "tw": 1410,
      "tur": 1411,
      "organell": 1412,
      "leukocyte": 1413,
      "arabin": 1414,
      "secondary": 1415,
      "sphing": 1416,
      "immunoglobulin": 1417,
      "molyb": 1418,
      "glutath": 1419,
      "bis": 1420,
      "molecular": 1421,
      "phth": 1422,
      "death": 1423,
      "syste": 1424,
      "ammon": 1425,
      "poration": 1426,
      "sister": 1427,
      "incorporation": 1428,
      "systemic": 1429,
      "cr": 1430,
      "cing": 1431,
      "cus": 1432,
      "gt": 1433,
      "prosta": 1434,
      "eneration": 1435,
      "erance": 1436,
      "regeneration": 1437,
      "transaminase": 1438,
      "ight": 1439,
      "malto": 1440,
      "stit": 1441,
      "intermedi": 1442,
      "glutamine": 1443,
      "chrome": 1444,
      "tolerance": 1445,
      "fiber": 1446,
      "chromatid": 1447,
      "regulator": 1448,
      "azole": 1449,
      "lay": 1450,
      "sion": 1451,
      "ros": 1452,
      "demethyl": 1453,
      "deacetyl": 1454,
      "polymerization": 1455,
      "based": 1456,
      "follicle": 1457,
      "br": 1458,
      "atta": 1459,
      "location": 1460,
      "hypo": 1461,
      "liary": 1462,
      "plasm": 1463,
      "dop": 1464,
      "ptoph": 1465,
      "anoate": 1466,
      "diol": 1467,
      "guid": 1468,
      "ventral": 1469,
      "glandin": 1470,
      "tryptoph": 1471,
      "branching": 1472,
      "aspartate": 1473,
      "prostaglandin": 1474,
      "roton": 1475,
      "ami": 1476,
      "hydrogen": 1477,
      "beta1": 1478,
      "gell": 1479,
      "endopeptidase": 1480,
      "nadph": 1481,
      "phenol": 1482,
      "chloroplast": 1483,
      "release": 1484,
      "break": 1485,
      "guidance": 1486,
      "bone": 1487,
      "rene": 1488,
      "transporting": 1489,
      "imal": 1490,
      "sterol": 1491,
      "mato": 1492,
      "extens": 1493,
      "ribose": 1494,
      "abc": 1495,
      "sulfotransferase": 1496,
      "killer": 1497,
      "glomerular": 1498,
      "intermediate": 1499,
      "gdp": 1500,
      "codon": 1501,
      "molecule": 1502,
      "metal": 1503,
      "cleav": 1504,
      "glycol": 1505,
      "symme": 1506,
      "propion": 1507,
      "erobic": 1508,
      "fructose": 1509,
      "diacylglycerol": 1510,
      "glutathione": 1511,
      "extension": 1512,
      "xyl": 1513,
      "promo": 1514,
      "enven": 1515,
      "tip": 1516,
      "complement": 1517,
      "epithelium": 1518,
      "meiosis": 1519,
      "arterial": 1520,
      "targeting": 1521,
      "omation": 1522,
      "natural": 1523,
      "mamm": 1524,
      "envenomation": 1525,
      "bar": 1526,
      "camp": 1527,
      "dam": 1528,
      "mu": 1529,
      "smal": 1530,
      "vation": 1531,
      "biotic": 1532,
      "ech": 1533,
      "mating": 1534,
      "cytochrome": 1535,
      "adenine": 1536,
      "axis": 1537,
      "stimulating": 1538,
      "central": 1539,
      "structure": 1540,
      "hair": 1541,
      "basal": 1542,
      "photoreceptor": 1543,
      "lympho": 1544,
      "small": 1545,
      "',": 1546,
      "din": 1547,
      "lity": 1548,
      "mut": 1549,
      "some": 1550,
      "zone": 1551,
      "ssel": 1552,
      "arance": 1553,
      "rect": 1554,
      "seroton": 1555,
      "llar": 1556,
      "tetr": 1557,
      "vessel": 1558,
      "clearance": 1559,
      "heme": 1560,
      "galactosyl": 1561,
      "guan": 1562,
      "mannose": 1563,
      "oxoglutarate": 1564,
      "h3k": 1565,
      "benzoate": 1566,
      "nitrogen": 1567,
      "linking": 1568,
      "septum": 1569,
      "tryptophan": 1570,
      "damage": 1571,
      "-)-": 1572,
      "fami": 1573,
      "lu": 1574,
      "pic": 1575,
      "yle": 1576,
      "reco": 1577,
      "xylo": 1578,
      "neutroph": 1579,
      "keto": 1580,
      "somatic": 1581,
      "galactose": 1582,
      "cytosolic": 1583,
      "onuclease": 1584,
      "centro": 1585,
      "adenylate": 1586,
      "pancre": 1587,
      "heterochromatin": 1588,
      "ventricular": 1589,
      "mammary": 1590,
      "family": 1591,
      "ear": 1592,
      "fi": 1593,
      "gnit": 1594,
      "mid": 1595,
      "sur": 1596,
      "sil": 1597,
      "oly": 1598,
      "regation": 1599,
      "chment": 1600,
      "female": 1601,
      "cord": 1602,
      "cort": 1603,
      "periph": 1604,
      "helper": 1605,
      "organelle": 1606,
      "deacetylase": 1607,
      "neutrophil": 1608,
      "gnition": 1609,
      "rho": 1610,
      "si": 1611,
      "tumor": 1612,
      "xanth": 1613,
      "rell": 1614,
      "thi": 1615,
      "ronic": 1616,
      "phyll": 1617,
      "sequence": 1618,
      "acetylglucosamin": 1619,
      "attachment": 1620,
      "recognition": 1621,
      "dense": 1622,
      "gib": 1623,
      "imag": 1624,
      "biogenesis": 1625,
      "coenzyme": 1626,
      "onical": 1627,
      "berell": 1628,
      "phore": 1629,
      "extrinsic": 1630,
      "acetylcholine": 1631,
      "phosphatid": 1632,
      "mesodermal": 1633,
      "glycero": 1634,
      "canonical": 1635,
      "agg": 1636,
      "plastid": 1637,
      "rhamn": 1638,
      "cleavage": 1639,
      "gibberell": 1640,
      "imaginal": 1641,
      "13": 1642,
      "bol": 1643,
      "ect": 1644,
      "ian": 1645,
      "iol": 1646,
      "envelo": 1647,
      "entry": 1648,
      "actile": 1649,
      "take": 1650,
      "renyl": 1651,
      "epid": 1652,
      "precur": 1653,
      "contractile": 1654,
      "remodel": 1655,
      "layer": 1656,
      "promoter": 1657,
      "envelope": 1658,
      "precursor": 1659,
      "adi": 1660,
      "cam": 1661,
      "pse": 1662,
      "sto": 1663,
      "ual": 1664,
      "udo": 1665,
      "intrinsic": 1666,
      "olar": 1667,
      "tract": 1668,
      "chitin": 1669,
      "rest": 1670,
      "lice": 1671,
      "spinal": 1672,
      "methylthio": 1673,
      "ribosomal": 1674,
      "pyro": 1675,
      "part": 1676,
      "node": 1677,
      "substr": 1678,
      "phyto": 1679,
      "propyl": 1680,
      "uptake": 1681,
      "pyrid": 1682,
      "motif": 1683,
      "phospholipase": 1684,
      "remodeling": 1685,
      "bund": 1686,
      "epo": 1687,
      "gmp": 1688,
      "vage": 1689,
      "independent": 1690,
      "loro": 1691,
      "ctin": 1692,
      "olase": 1693,
      "entity": 1694,
      "cytic": 1695,
      "athrin": 1696,
      "photos": 1697,
      "clathrin": 1698,
      "chloride": 1699,
      "salvage": 1700,
      "ribonucleoside": 1701,
      "intest": 1702,
      "flagell": 1703,
      "phospholipid": 1704,
      "nico": 1705,
      "toxic": 1706,
      "retrograde": 1707,
      "serotonin": 1708,
      "substrate": 1709,
      "bundle": 1710,
      "photosy": 1711,
      "dur": 1712,
      "gg": 1713,
      "mast": 1714,
      "cel": 1715,
      "sex": 1716,
      "med": 1717,
      "transforming": 1718,
      "osaccharide": 1719,
      "gluta": 1720,
      "omere": 1721,
      "glucosidase": 1722,
      "apical": 1723,
      "glycoprotein": 1724,
      "eryth": 1725,
      "starvation": 1726,
      "during": 1727,
      "ls": 1728,
      "sc": 1729,
      "swit": 1730,
      "phil": 1731,
      "methane": 1732,
      "hepat": 1733,
      "abs": 1734,
      "lage": 1735,
      "tolu": 1736,
      "stranded": 1737,
      "aldolase": 1738,
      "copper": 1739,
      "pancreatic": 1740,
      "switching": 1741,
      "->": 1742,
      "14": 1743,
      "24": 1744,
      "ef": 1745,
      "fun": 1746,
      "ip": 1747,
      "synthesis": 1748,
      "catal": 1749,
      "conate": 1750,
      "constit": 1751,
      "kinin": 1752,
      "chemical": 1753,
      "multi": 1754,
      "phosphodi": 1755,
      "carot": 1756,
      "vaso": 1757,
      "cd4": 1758,
      "snrna": 1759,
      "cerebe": 1760,
      "-[": 1761,
      "bb": 1762,
      "eu": 1763,
      "fo": 1764,
      "pul": 1765,
      "pta": 1766,
      "wo": 1767,
      "ard": 1768,
      "enol": 1769,
      "enyl": 1770,
      "tration": 1771,
      "hepta": 1772,
      "splice": 1773,
      "extra": 1774,
      "cilium": 1775,
      "app": 1776,
      "cytotoxic": 1777,
      "cuticle": 1778,
      "halo": 1779,
      "conjugation": 1780,
      "fuco": 1781,
      "cello": 1782,
      "bation": 1783,
      "bil": 1784,
      "flo": 1785,
      "ga": 1786,
      "hloro": 1787,
      "pir": 1788,
      "ster": 1789,
      "atrial": 1790,
      "ins": 1791,
      "uni": 1792,
      "cohesion": 1793,
      "identity": 1794,
      "respir": 1795,
      "adren": 1796,
      "nadh": 1797,
      "radial": 1798,
      "tamine": 1799,
      "adenosyl": 1800,
      "cytosine": 1801,
      "ureter": 1802,
      "butyrate": 1803,
      "turbation": 1804,
      "pseudo": 1805,
      "toluene": 1806,
      "''-": 1807,
      "far": 1808,
      "hine": 1809,
      "xidase": 1810,
      "anchor": 1811,
      "leve": 1812,
      "deaminase": 1813,
      "acylation": 1814,
      "gangl": 1815,
      "perturbation": 1816,
      "mycin": 1817,
      "nithine": 1818,
      "arboxyl": 1819,
      "chlorophyll": 1820,
      "dendrite": 1821,
      "cyclohex": 1822,
      "cytokinesis": 1823,
      "motility": 1824,
      "deoxyribonuclease": 1825,
      "electron": 1826,
      "segment": 1827,
      "guanosine": 1828,
      "intestinal": 1829,
      "(+": 1830,
      "h4": 1831,
      "tive": 1832,
      "zin": 1833,
      "proto": 1834,
      "ater": 1835,
      "ivary": 1836,
      "ofla": 1837,
      "nes": 1838,
      "hydrate": 1839,
      "plan": 1840,
      "carrier": 1841,
      "malate": 1842,
      "acetylgalactos": 1843,
      "distal": 1844,
      "triphosphate": 1845,
      "neurotroph": 1846,
      "cysteinyl": 1847,
      "nucleobase": 1848,
      "citrate": 1849,
      "larval": 1850,
      "dopamine": 1851,
      "gibberellin": 1852,
      "nicotin": 1853,
      "phosphodiesterase": 1854,
      "(+)-": 1855,
      "late": 1856,
      "lsu": 1857,
      "mech": 1858,
      "sen": 1859,
      "loading": 1860,
      "ara": 1861,
      "phal": 1862,
      "thyl": 1863,
      "osidase": 1864,
      "vement": 1865,
      "synthet": 1866,
      "oderm": 1867,
      "ciliary": 1868,
      "epimer": 1869,
      "trimethyl": 1870,
      "tropin": 1871,
      "guanyl": 1872,
      "telomeric": 1873,
      "spermidine": 1874,
      "oligo": 1875,
      "affin": 1876,
      "succinate": 1877,
      "program": 1878,
      "catalytic": 1879,
      "insulin": 1880,
      "synthetase": 1881,
      "epimerase": 1882,
      "affinity": 1883,
      "ck": 1884,
      "fore": 1885,
      "ov": 1886,
      "uent": 1887,
      "vin": 1888,
      "vous": 1889,
      "ximal": 1890,
      "prost": 1891,
      "proximal": 1892,
      "anion": 1893,
      "ornithine": 1894,
      "thanolamine": 1895,
      "osterone": 1896,
      "naphth": 1897,
      "movement": 1898,
      "mediator": 1899,
      "endocytosis": 1900,
      "ulfide": 1901,
      "galactosyltransferase": 1902,
      "neuronal": 1903,
      "nervous": 1904,
      "ugh": 1905,
      "linkage": 1906,
      "clustering": 1907,
      "flagellum": 1908,
      "fungal": 1909,
      "constituent": 1910,
      "respiratory": 1911,
      "asymme": 1912,
      "cad": 1913,
      "ies": 1914,
      "inser": 1915,
      "ann": 1916,
      "acto": 1917,
      "genit": 1918,
      "proteasome": 1919,
      "map": 1920,
      "retinal": 1921,
      "factory": 1922,
      "peroxis": 1923,
      "inhibitory": 1924,
      "myeloid": 1925,
      "cerebellar": 1926,
      "levels": 1927,
      "zinc": 1928,
      "peroxisome": 1929,
      "25": 1930,
      "np": 1931,
      "sh": 1932,
      "sar": 1933,
      "olin": 1934,
      "echol": 1935,
      "colon": 1936,
      "cells": 1937,
      "phero": 1938,
      "catechol": 1939,
      "aminoacylation": 1940,
      "transcript": 1941,
      "carbo": 1942,
      "granulo": 1943,
      "redoxin": 1944,
      "adrenergic": 1945,
      "planar": 1946,
      "insertion": 1947,
      "actomyosin": 1948,
      "pheromone": 1949,
      "crest": 1950,
      "face": 1951,
      "kid": 1952,
      "pulation": 1953,
      "podium": 1954,
      "population": 1955,
      "ney": 1956,
      "diphosphatase": 1957,
      "nitric": 1958,
      "subst": 1959,
      "phosphorib": 1960,
      "phosphorylase": 1961,
      "folate": 1962,
      "lactate": 1963,
      "oligosaccharide": 1964,
      "acetylglucosamine": 1965,
      "cereb": 1966,
      "carbohydrate": 1967,
      "kidney": 1968,
      "lamin": 1969,
      "oocyte": 1970,
      "ryl": 1971,
      "spro": 1972,
      "spor": 1973,
      "she": 1974,
      "ward": 1975,
      "root": 1976,
      "ecdy": 1977,
      "trimer": 1978,
      "ork": 1979,
      "diene": 1980,
      "mbomere": 1981,
      "malon": 1982,
      "internal": 1983,
      "species": 1984,
      "secretory": 1985,
      "kineto": 1986,
      "deoxyribonucleoside": 1987,
      "carboxylate": 1988,
      "gtp": 1989,
      "rhombomere": 1990,
      "programmed": 1991,
      "sprout": 1992,
      "ju": 1993,
      "n6": 1994,
      "right": 1995,
      "sha": 1996,
      "uran": 1997,
      "inase": 1998,
      "ulus": 1999,
      "phros": 2000,
      "left": 2001,
      "dex": 2002,
      "netw": 2003,
      "aminotransferase": 2004,
      "parat": 2005,
      "chapero": 2006,
      "phosphatidylcholine": 2007,
      "cd8": 2008,
      "alkyl": 2009,
      "palmito": 2010,
      "cyanidin": 2011,
      "lymphocyte": 2012,
      "mutase": 2013,
      "surface": 2014,
      "epidermal": 2015,
      "mechan": 2016,
      "substance": 2017,
      "sprouting": 2018,
      "network": 2019,
      "chaperone": 2020,
      "cum": 2021,
      "den": 2022,
      "fum": 2023,
      "gon": 2024,
      "out": 2025,
      "spl": 2026,
      "siz": 2027,
      "stri": 2028,
      "uro": 2029,
      "aling": 2030,
      "arate": 2031,
      "chore": 2032,
      "generation": 2033,
      "tilage": 2034,
      "conver": 2035,
      "imid": 2036,
      "cartilage": 2037,
      "monophosphate": 2038,
      "mirna": 2039,
      "phenylalanine": 2040,
      "phago": 2041,
      "olipid": 2042,
      "anaerobic": 2043,
      "capsid": 2044,
      "peripheral": 2045,
      "kinetochore": 2046,
      "size": 2047,
      "21": 2048,
      "dolic": 2049,
      "flow": 2050,
      "g1": 2051,
      "mis": 2052,
      "shor": 2053,
      "tre": 2054,
      "water": 2055,
      "icos": 2056,
      "rep": 2057,
      "ivity": 2058,
      "anin": 2059,
      "taste": 2060,
      "direct": 2061,
      "andro": 2062,
      "endocar": 2063,
      "glucosyl": 2064,
      "galacturon": 2065,
      "triene": 2066,
      "oxidative": 2067,
      "cence": 2068,
      "ribonuclease": 2069,
      "phagosome": 2070,
      "asparag": 2071,
      "exocytosis": 2072,
      "releas": 2073,
      "bound": 2074,
      "ammonia": 2075,
      "barrier": 2076,
      "cortical": 2077,
      "short": 2078,
      "kary": 2079,
      "len": 2080,
      "race": 2081,
      "ze": 2082,
      "cetin": 2083,
      "icing": 2084,
      "biose": 2085,
      "repe": 2086,
      "cone": 2087,
      "depolarization": 2088,
      "commun": 2089,
      "ospore": 2090,
      "ted": 2091,
      "formyl": 2092,
      "cardio": 2093,
      "exchan": 2094,
      "meris": 2095,
      "hydroxymethyl": 2096,
      "mineral": 2097,
      "carbam": 2098,
      "adenylation": 2099,
      "cytosol": 2100,
      "axial": 2101,
      "salivary": 2102,
      "cyclin": 2103,
      "inhibition": 2104,
      "valve": 2105,
      "filamentous": 2106,
      "akoid": 2107,
      "tensin": 2108,
      "septin": 2109,
      "lysosome": 2110,
      "anaphase": 2111,
      "corticoid": 2112,
      "thylakoid": 2113,
      "splicing": 2114,
      "releasing": 2115,
      "communication": 2116,
      "ele": 2117,
      "egg": 2118,
      "nec": 2119,
      "repolarization": 2120,
      "oline": 2121,
      "seed": 2122,
      "coum": 2123,
      "cellulose": 2124,
      "genous": 2125,
      "using": 2126,
      "hepar": 2127,
      "bed": 2128,
      "concen": 2129,
      "beta3": 2130,
      "peptido": 2131,
      "leucine": 2132,
      "caf": 2133,
      "norep": 2134,
      "cycling": 2135,
      "cision": 2136,
      "estering": 2137,
      "very": 2138,
      "sequestering": 2139,
      "seleno": 2140,
      "penoid": 2141,
      "acetylglucosaminyltransferase": 2142,
      "cytotoxicity": 2143,
      "colony": 2144,
      "cerebral": 2145,
      "directed": 2146,
      "necro": 2147,
      "peptidoglycan": 2148,
      "norepinephrine": 2149,
      "dt": 2150,
      "ka": 2151,
      "ming": 2152,
      "ogen": 2153,
      "ature": 2154,
      "recycling": 2155,
      "separ": 2156,
      "poi": 2157,
      "dian": 2158,
      "limb": 2159,
      "plated": 2160,
      "cont": 2161,
      "epinephrine": 2162,
      "histamine": 2163,
      "chondrocyte": 2164,
      "phenanth": 2165,
      "center": 2166,
      "triction": 2167,
      "benzene": 2168,
      "mannosyltransferase": 2169,
      "ethanolamine": 2170,
      "pyrro": 2171,
      "lysosomal": 2172,
      "templated": 2173,
      "ylethanolamine": 2174,
      "olysis": 2175,
      "thiamine": 2176,
      "aggregation": 2177,
      "ganglion": 2178,
      "forebrain": 2179,
      "racem": 2180,
      "meristem": 2181,
      "27": 2182,
      "hion": 2183,
      "otriene": 2184,
      "vo": 2185,
      "wing": 2186,
      "encing": 2187,
      "sele": 2188,
      "tether": 2189,
      "amidase": 2190,
      "tilization": 2191,
      "gluconate": 2192,
      "hemo": 2193,
      "omega": 2194,
      "kinje": 2195,
      "quer": 2196,
      "hydroxyphenyl": 2197,
      "interneuron": 2198,
      "super": 2199,
      "anoyl": 2200,
      "disru": 2201,
      "immunity": 2202,
      "cadian": 2203,
      "not": 2204,
      "mannosyl": 2205,
      "purkinje": 2206,
      "adaptation": 2207,
      "bile": 2208,
      "leukotriene": 2209,
      "amyloid": 2210,
      "autophagy": 2211,
      "circadian": 2212,
      "through": 2213,
      "myelin": 2214,
      "myoblast": 2215,
      "propionate": 2216,
      "silencing": 2217,
      "unicellular": 2218,
      "trehal": 2219,
      "endocardial": 2220,
      "selection": 2221,
      "disruption": 2222,
      "8s": 2223,
      "inorganic": 2224,
      "loop": 2225,
      "ofuran": 2226,
      "era": 2227,
      "depolymerization": 2228,
      "tail": 2229,
      "genome": 2230,
      "acy": 2231,
      "acil": 2232,
      "excision": 2233,
      "aprenyl": 2234,
      "absor": 2235,
      "mesang": 2236,
      "disulfide": 2237,
      "glutamyl": 2238,
      "salic": 2239,
      "alkal": 2240,
      "glycosyl": 2241,
      "homolog": 2242,
      "branch": 2243,
      "pressor": 2244,
      "cushion": 2245,
      "early": 2246,
      "camera": 2247,
      "erythrocyte": 2248,
      "ureteric": 2249,
      "separation": 2250,
      "absorption": 2251,
      "23": 2252,
      "box": 2253,
      "c2": 2254,
      "cof": 2255,
      "crna": 2256,
      "ncrna": 2257,
      "sa": 2258,
      "sial": 2259,
      "intra": 2260,
      "cob": 2261,
      "metaphase": 2262,
      "catabol": 2263,
      "spine": 2264,
      "trache": 2265,
      "perme": 2266,
      "ribosome": 2267,
      "carboxylase": 2268,
      "glycerate": 2269,
      "glyceride": 2270,
      "cinna": 2271,
      "hesin": 2272,
      "vasation": 2273,
      "auxin": 2274,
      "dichloro": 2275,
      "pigmentation": 2276,
      "hypersens": 2277,
      "molybden": 2278,
      "extravasation": 2279,
      "conversion": 2280,
      "homologous": 2281,
      "molybdenum": 2282,
      "-)": 2283,
      "ber": 2284,
      "f4": 2285,
      "jo": 2286,
      "ker": 2287,
      "otic": 2288,
      "oglycan": 2289,
      "p5": 2290,
      "sle": 2291,
      "zy": 2292,
      "rose": 2293,
      "ctor": 2294,
      "olfactory": 2295,
      "ith": 2296,
      "erbb": 2297,
      "dig": 2298,
      "diamino": 2299,
      "cytidine": 2300,
      "ferric": 2301,
      "proteoglycan": 2302,
      "ril": 2303,
      "head": 2304,
      "izing": 2305,
      "exin": 2306,
      "sure": 2307,
      "transcribed": 2308,
      "mesoderm": 2309,
      "triglyceride": 2310,
      "lipopolysaccharide": 2311,
      "ergy": 2312,
      "coupl": 2313,
      "closure": 2314,
      "cdp": 2315,
      "illin": 2316,
      "open": 2317,
      "bacterium": 2318,
      "bilization": 2319,
      "large": 2320,
      "succinyl": 2321,
      "killing": 2322,
      "angiotensin": 2323,
      "triose": 2324,
      "flavon": 2325,
      "arabinose": 2326,
      "molybdo": 2327,
      "wound": 2328,
      "prostate": 2329,
      "repeat": 2330,
      "element": 2331,
      "concentration": 2332,
      "trehalose": 2333,
      "(-)-": 2334,
      "da": 2335,
      "jas": 2336,
      "rnp": 2337,
      "rod": 2338,
      "row": 2339,
      "ulating": 2340,
      "cohesin": 2341,
      "degran": 2342,
      "osis": 2343,
      "ack": 2344,
      "uracil": 2345,
      "amination": 2346,
      "carnit": 2347,
      "mature": 2348,
      "glucosamine": 2349,
      "monocyte": 2350,
      "tubulin": 2351,
      "nitri": 2352,
      "ution": 2353,
      "neuroblast": 2354,
      "folding": 2355,
      "peroxidase": 2356,
      "propane": 2357,
      "glycosylase": 2358,
      "benzoyl": 2359,
      "istronic": 2360,
      "demethylase": 2361,
      "metallo": 2362,
      "xylos": 2363,
      "mapk": 2364,
      "shape": 2365,
      "boundary": 2366,
      "mesangial": 2367,
      "salicyl": 2368,
      "permeab": 2369,
      "sleep": 2370,
      "molybdopterin": 2371,
      "degranulation": 2372,
      "gf": 2373,
      "gulation": 2374,
      "hind": 2375,
      "mn": 2376,
      "nf": 2377,
      "rical": 2378,
      "rad": 2379,
      "rocar": 2380,
      "product": 2381,
      "biofil": 2382,
      "olact": 2383,
      "itivity": 2384,
      "detox": 2385,
      "compart": 2386,
      "oste": 2387,
      "onin": 2388,
      "ige": 2389,
      "asco": 2390,
      "pectin": 2391,
      "helic": 2392,
      "aceto": 2393,
      "conv": 2394,
      "muscular": 2395,
      "ribosyltransferase": 2396,
      "apparat": 2397,
      "sulfide": 2398,
      "nadec": 2399,
      "coagulation": 2400,
      "axone": 2401,
      "nonadec": 2402,
      "hydroxyl": 2403,
      "teroid": 2404,
      "folded": 2405,
      "antho": 2406,
      "glycosylation": 2407,
      "sucrose": 2408,
      "enoate": 2409,
      "thyroid": 2410,
      "glomerulus": 2411,
      "inolate": 2412,
      "electrical": 2413,
      "tetrahydrofolate": 2414,
      "ethylene": 2415,
      "halogenase": 2416,
      "farnes": 2417,
      "neurotrophic": 2418,
      "arach": 2419,
      "sarco": 2420,
      "dextrin": 2421,
      "tethering": 2422,
      "cofactor": 2423,
      "cobal": 2424,
      "carnitine": 2425,
      "rocarp": 2426,
      "biofilm": 2427,
      "detoxification": 2428,
      "compartment": 2429,
      "osteo": 2430,
      "helicase": 2431,
      "apparatus": 2432,
      "kapp": 2433,
      "nth": 2434,
      "ping": 2435,
      "sl": 2436,
      "alexin": 2437,
      "iter": 2438,
      "anal": 2439,
      "leading": 2440,
      "position": 2441,
      "mentation": 2442,
      "pla": 2443,
      "methano": 2444,
      "alphav": 2445,
      "retino": 2446,
      "chondro": 2447,
      "trient": 2448,
      "neuromuscular": 2449,
      "canal": 2450,
      "guide": 2451,
      "cister": 2452,
      "organisms": 2453,
      "telomerase": 2454,
      "ethanol": 2455,
      "geran": 2456,
      "bipolar": 2457,
      "nutrient": 2458,
      "hepatocyte": 2459,
      "granulocyte": 2460,
      "heparan": 2461,
      "quercetin": 2462,
      "ascospore": 2463,
      "arachid": 2464,
      "kappab": 2465,
      "retinoic": 2466,
      "aor": 2467,
      "bond": 2468,
      "bactin": 2469,
      "eos": 2470,
      "hyl": 2471,
      "nate": 2472,
      "pene": 2473,
      "sate": 2474,
      "locom": 2475,
      "ult": 2476,
      "olytic": 2477,
      "enin": 2478,
      "llite": 2479,
      "trisphosphate": 2480,
      "leaf": 2481,
      "dehalogenase": 2482,
      "isto": 2483,
      "ong": 2484,
      "plex": 2485,
      "estro": 2486,
      "biosynthesis": 2487,
      "methoxy": 2488,
      "adec": 2489,
      "pollen": 2490,
      "space": 2491,
      "ensation": 2492,
      "mination": 2493,
      "onucleolytic": 2494,
      "isopropyl": 2495,
      "transcriptional": 2496,
      "neurotransmission": 2497,
      "centrio": 2498,
      "glycogen": 2499,
      "ergent": 2500,
      "mannan": 2501,
      "aga": 2502,
      "hexa": 2503,
      "inophil": 2504,
      "modulating": 2505,
      "stabilization": 2506,
      "vacuolar": 2507,
      "adenylyltransferase": 2508,
      "budding": 2509,
      "butyric": 2510,
      "thym": 2511,
      "starch": 2512,
      "angiogenesis": 2513,
      "gastr": 2514,
      "photosynth": 2515,
      "dolichyl": 2516,
      "asparagine": 2517,
      "exchange": 2518,
      "hypersensitivity": 2519,
      "coupling": 2520,
      "convergent": 2521,
      "eosinophil": 2522,
      "satellite": 2523,
      "locomot": 2524,
      "19": 2525,
      "5s": 2526,
      "ether": 2527,
      "g2": 2528,
      "mur": 2529,
      "pr": 2530,
      "pren": 2531,
      "sw": 2532,
      "spo": 2533,
      "xation": 2534,
      "along": 2535,
      "innate": 2536,
      "coat": 2537,
      "lear": 2538,
      "dephosphorylation": 2539,
      "toxin": 2540,
      "urine": 2541,
      "glucocorticoid": 2542,
      "stro": 2543,
      "stat": 2544,
      "neurom": 2545,
      "endocytic": 2546,
      "glucosinolate": 2547,
      "ened": 2548,
      "ribonucleotide": 2549,
      "macromolecule": 2550,
      "melano": 2551,
      "maltose": 2552,
      "glycolytic": 2553,
      "rhamnose": 2554,
      "ectodermal": 2555,
      "multicellular": 2556,
      "sterase": 2557,
      "asymmetric": 2558,
      "imidazole": 2559,
      "f420": 2560,
      "diges": 2561,
      "jasmon": 2562,
      "gastrulation": 2563,
      "neuromast": 2564,
      "]-": 2565,
      "bul": 2566,
      "fur": 2567,
      "gar": 2568,
      "gab": 2569,
      "gut": 2570,
      "gram": 2571,
      "kisphosphate": 2572,
      "masome": 2573,
      "put": 2574,
      "tid": 2575,
      "zo": 2576,
      "inone": 2577,
      "biotin": 2578,
      "arsen": 2579,
      "phor": 2580,
      "deubiquitination": 2581,
      "nemato": 2582,
      "acqu": 2583,
      "cyano": 2584,
      "resist": 2585,
      "proteolysis": 2586,
      "heat": 2587,
      "conne": 2588,
      "imil": 2589,
      "excit": 2590,
      "idylyltransferase": 2591,
      "ched": 2592,
      "lame": 2593,
      "trophy": 2594,
      "neuropeptide": 2595,
      "manno": 2596,
      "lineage": 2597,
      "valine": 2598,
      "axonal": 2599,
      "penta": 2600,
      "aspartic": 2601,
      "snrnp": 2602,
      "inflammasome": 2603,
      "circul": 2604,
      "fluid": 2605,
      "hypertrophy": 2606,
      "gaba": 2607,
      "),": 2608,
      "fad": 2609,
      "pino": 2610,
      "sol": 2611,
      "sac": 2612,
      "striction": 2613,
      "tf": 2614,
      "alanyl": 2615,
      "prone": 2616,
      "aryl": 2617,
      "arian": 2618,
      "reproduct": 2619,
      "antero": 2620,
      "ofib": 2621,
      "code": 2622,
      "coated": 2623,
      "memor": 2624,
      "translocation": 2625,
      "volu": 2626,
      "acetic": 2627,
      "fork": 2628,
      "force": 2629,
      "constriction": 2630,
      "betaine": 2631,
      "methylene": 2632,
      "medial": 2633,
      "polyadenylation": 2634,
      "aminobutyric": 2635,
      "rag": 2636,
      "urea": 2637,
      "novo": 2638,
      "ubiquinone": 2639,
      "cisic": 2640,
      "edge": 2641,
      "akisphosphate": 2642,
      "glycoside": 2643,
      "snor": 2644,
      "quinoline": 2645,
      "patterning": 2646,
      "erythro": 2647,
      "lymph": 2648,
      "selen": 2649,
      "sphingolipid": 2650,
      "ammonium": 2651,
      "gtpase": 2652,
      "lute": 2653,
      "pyridoxal": 2654,
      "photosystem": 2655,
      "abscisic": 2656,
      "fucos": 2657,
      "acetylgalactosamin": 2658,
      "ovarian": 2659,
      "striated": 2660,
      "pyrrole": 2661,
      "alkaloid": 2662,
      "axonemal": 2663,
      "chondroitin": 2664,
      "bonds": 2665,
      "muram": 2666,
      "nematode": 2667,
      "resistance": 2668,
      "reproductive": 2669,
      "anterograde": 2670,
      "memory": 2671,
      "3beta": 2672,
      "gap": 2673,
      "herin": 2674,
      "oprotein": 2675,
      "okinase": 2676,
      "rp": 2677,
      "van": 2678,
      "vis": 2679,
      "redu": 2680,
      "osens": 2681,
      "teic": 2682,
      "ascor": 2683,
      "rescine": 2684,
      "lyso": 2685,
      "developmental": 2686,
      "typic": 2687,
      "stor": 2688,
      "epi": 2689,
      "pyran": 2690,
      "aryn": 2691,
      "minal": 2692,
      "myr": 2693,
      "myofib": 2694,
      "sumo": 2695,
      "anoid": 2696,
      "sorocarp": 2697,
      "regulating": 2698,
      "pentenyl": 2699,
      "pimel": 2700,
      "homoserine": 2701,
      "enoyl": 2702,
      "flux": 2703,
      "centrosome": 2704,
      "phytoalexin": 2705,
      "scf": 2706,
      "carotene": 2707,
      "spliceosome": 2708,
      "phenanthrene": 2709,
      "tracheal": 2710,
      "p53": 2711,
      "cisterna": 2712,
      "putrescine": 2713,
      ")+": 2714,
      "aerobic": 2715,
      "bp": 2716,
      "c4": 2717,
      "ccr": 2718,
      "ffin": 2719,
      "gent": 2720,
      "neck": 2721,
      "oo": 2722,
      "ue": 2723,
      "wa": 2724,
      "zing": 2725,
      "ula": 2726,
      "rela": 2727,
      "reactive": 2728,
      "osmo": 2729,
      "taxin": 2730,
      "syntaxin": 2731,
      "hydroly": 2732,
      "place": 2733,
      "hed": 2734,
      "adult": 2735,
      "formate": 2736,
      "mater": 2737,
      "exit": 2738,
      "kel": 2739,
      "lign": 2740,
      "superoxide": 2741,
      "sugar": 2742,
      "raft": 2743,
      "phosphoryl": 2744,
      "phosphatidylserine": 2745,
      "deriv": 2746,
      "inhibiting": 2747,
      "within": 2748,
      "sorb": 2749,
      "pyridine": 2750,
      "butyryl": 2751,
      "glucuronate": 2752,
      "amylo": 2753,
      "autophagosome": 2754,
      "carboxylic": 2755,
      "target": 2756,
      "thromb": 2757,
      "xylulose": 2758,
      "galactosyldiacylglycerol": 2759,
      "xylose": 2760,
      "xanthine": 2761,
      "phosphatidylethanolamine": 2762,
      "eukary": 2763,
      "arboxylic": 2764,
      "arboxylate": 2765,
      "cadherin": 2766,
      "phosphoribosyl": 2767,
      "internalization": 2768,
      "caffe": 2769,
      "racemase": 2770,
      "connect": 2771,
      "tfii": 2772,
      "storage": 2773,
      "relaxation": 2774,
      "eukaryotic": 2775,
      "22": 2776,
      "bor": 2777,
      "her": 2778,
      "pil": 2779,
      "sm": 2780,
      "sch": 2781,
      "rone": 2782,
      "alate": 2783,
      "alene": 2784,
      "rel": 2785,
      "reduction": 2786,
      "llate": 2787,
      "pharyn": 2788,
      "osamine": 2789,
      "dia": 2790,
      "esterone": 2791,
      "endodermal": 2792,
      "endonuclease": 2793,
      "hept": 2794,
      "healing": 2795,
      "imate": 2796,
      "stellate": 2797,
      "glyoxal": 2798,
      "plastic": 2799,
      "matal": 2800,
      "ility": 2801,
      "interaction": 2802,
      "ligation": 2803,
      "sicular": 2804,
      "dock": 2805,
      "multive": 2806,
      "cytoplasm": 2807,
      "tropic": 2808,
      "hoic": 2809,
      "chromo": 2810,
      "vascul": 2811,
      "sensor": 2812,
      "embryo": 2813,
      "azine": 2814,
      "adaptive": 2815,
      "nickel": 2816,
      "cortico": 2817,
      "octop": 2818,
      "progesterone": 2819,
      "gastric": 2820,
      "segregation": 2821,
      "muco": 2822,
      "pyridox": 2823,
      "efflux": 2824,
      "floral": 2825,
      "genital": 2826,
      "laminin": 2827,
      "cardioblast": 2828,
      "mineralization": 2829,
      "selenocysteine": 2830,
      "necrosis": 2831,
      "notch": 2832,
      "centriole": 2833,
      "teichoic": 2834,
      "multivesicular": 2835,
      "vasculature": 2836,
      "4alpha": 2837,
      "cmp": 2838,
      "em": 2839,
      "k4": 2840,
      "mial": 2841,
      "n1": 2842,
      "nor": 2843,
      "pri": 2844,
      "riv": 2845,
      "progenit": 2846,
      "inj": 2847,
      "iting": 2848,
      "ening": 2849,
      "semial": 2850,
      "unfolded": 2851,
      "neur": 2852,
      "isol": 2853,
      "isole": 2854,
      "ptosis": 2855,
      "term": 2856,
      "ternal": 2857,
      "ferredoxin": 2858,
      "fermentation": 2859,
      "resinol": 2860,
      "fector": 2861,
      "acetaldehyde": 2862,
      "expression": 2863,
      "external": 2864,
      "sting": 2865,
      "retin": 2866,
      "endogenous": 2867,
      "pyrene": 2868,
      "antibacterial": 2869,
      "nitrate": 2870,
      "astrocyte": 2871,
      "undec": 2872,
      "isotype": 2873,
      "chemoreceptor": 2874,
      "tetrakisphosphate": 2875,
      "tetrapyrrole": 2876,
      "metanephros": 2877,
      "eld": 2878,
      "cyanin": 2879,
      "h2a": 2880,
      "removal": 2881,
      "penic": 2882,
      "sexual": 2883,
      "effector": 2884,
      "fucose": 2885,
      "nicotinate": 2886,
      "sporulation": 2887,
      "carbamoyl": 2888,
      "dtdp": 2889,
      "salicylic": 2890,
      "estrogen": 2891,
      "excitatory": 2892,
      "pronephric": 2893,
      "wake": 2894,
      "derivative": 2895,
      "corticotropin": 2896,
      "progenitor": 2897,
      "semialdehyde": 2898,
      "ds": 2899,
      "ese": 2900,
      "fc": 2901,
      "k6": 2902,
      "k9": 2903,
      "lens": 2904,
      "p2": 2905,
      "pine": 2906,
      "rite": 2907,
      "sho": 2908,
      "uv": 2909,
      "wann": 2910,
      "ycin": 2911,
      "select": 2912,
      "coating": 2913,
      "activin": 2914,
      "traction": 2915,
      "ori": 2916,
      "demethylation": 2917,
      "nectin": 2918,
      "dien": 2919,
      "nado": 2920,
      "amido": 2921,
      "glia": 2922,
      "hyal": 2923,
      "igin": 2924,
      "syncy": 2925,
      "hydrogenase": 2926,
      "mocyte": 2927,
      "transferring": 2928,
      "urin": 2929,
      "nucleation": 2930,
      "ganese": 2931,
      "neutral": 2932,
      "retinol": 2933,
      "blas": 2934,
      "myocyte": 2935,
      "corrin": 2936,
      "rich": 2937,
      "isopentenyl": 2938,
      "microvi": 2939,
      "manganese": 2940,
      "venile": 2941,
      "phosphorus": 2942,
      "phosphatidylglycerol": 2943,
      "pentose": 2944,
      "integr": 2945,
      "deoxyribonucleotide": 2946,
      "glucuronosyltransferase": 2947,
      "capsule": 2948,
      "aroyl": 2949,
      "gonado": 2950,
      "geranylgeranyl": 2951,
      "sphingosine": 2952,
      "sirna": 2953,
      "glutamin": 2954,
      "hepatic": 2955,
      "bilin": 2956,
      "acetylgalactosamine": 2957,
      "juvenile": 2958,
      "catabolite": 2959,
      "diaminopimel": 2960,
      "permeability": 2961,
      "jasmonic": 2962,
      "osmotic": 2963,
      "hydrolyzing": 2964,
      "schwann": 2965,
      "related": 2966,
      "neuramin": 2967,
      "isoleu": 2968,
      "selective": 2969,
      "c1": 2970,
      "ky": 2971,
      "nk": 2972,
      "pp": 2973,
      "tp": 2974,
      "utilization": 2975,
      "vag": 2976,
      "xeno": 2977,
      "altern": 2978,
      "prol": 2979,
      "inst": 2980,
      "lose": 2981,
      "ules": 2982,
      "rever": 2983,
      "anato": 2984,
      "pod": 2985,
      "unded": 2986,
      "phe": 2987,
      "meval": 2988,
      "origin": 2989,
      "deacetylation": 2990,
      "topo": 2991,
      "isition": 2992,
      "isofla": 2993,
      "cham": 2994,
      "onase": 2995,
      "esulf": 2996,
      "pet": 2997,
      "limon": 2998,
      "plus": 2999,
      "ucleotide": 3000,
      "odend": 3001,
      "reductive": 3002,
      "ifi": 3003,
      "presynapse": 3004,
      "sulfatase": 3005,
      "'-(": 3006,
      "special": 3007,
      "cytokinin": 3008,
      "phosphocholine": 3009,
      "phosphohistidine": 3010,
      "galacto": 3011,
      "hydroxylation": 3012,
      "linear": 3013,
      "antigenic": 3014,
      "acylglycerol": 3015,
      "pain": 3016,
      "aging": 3017,
      "oxylan": 3018,
      "sensitive": 3019,
      "hexose": 3020,
      "homocysteine": 3021,
      "raldehyde": 3022,
      "condensation": 3023,
      "branched": 3024,
      "palmit": 3025,
      "creat": 3026,
      "h2b": 3027,
      "lymphoid": 3028,
      "field": 3029,
      "nicotinamide": 3030,
      "oligomerization": 3031,
      "ecdys": 3032,
      "malonyl": 3033,
      "fumarate": 3034,
      "keratin": 3035,
      "hindbrain": 3036,
      "anthocyanin": 3037,
      "placode": 3038,
      "against": 3039,
      "digestive": 3040,
      "acquisition": 3041,
      "circulating": 3042,
      "hedral": 3043,
      "lignin": 3044,
      "plasticity": 3045,
      "docking": 3046,
      "penicillin": 3047,
      "syncyti": 3048,
      "anatomical": 3049,
      "34": 3050,
      "a2": 3051,
      "bial": 3052,
      "culation": 3053,
      "cna": 3054,
      "emer": 3055,
      "fle": 3056,
      "ik": 3057,
      "ired": 3058,
      "nod": 3059,
      "prenyl": 3060,
      "rhy": 3061,
      "satur": 3062,
      "tight": 3063,
      "produ": 3064,
      "intr": 3065,
      "logen": 3066,
      "arm": 3067,
      "animal": 3068,
      "anergy": 3069,
      "ased": 3070,
      "orib": 3071,
      "chit": 3072,
      "acin": 3073,
      "cyt": 3074,
      "escence": 3075,
      "pel": 3076,
      "hemato": 3077,
      "xylog": 3078,
      "exonuclease": 3079,
      "stalk": 3080,
      "cission": 3081,
      "polyamine": 3082,
      "chelat": 3083,
      "raffin": 3084,
      "phosphoenol": 3085,
      "rinogen": 3086,
      "microbial": 3087,
      "dioxide": 3088,
      "cinol": 3089,
      "ribonucleoprotein": 3090,
      "collateral": 3091,
      "fibril": 3092,
      "patch": 3093,
      "smoothened": 3094,
      "initro": 3095,
      "capping": 3096,
      "thiol": 3097,
      "germination": 3098,
      "biphenyl": 3099,
      "piration": 3100,
      "adenylyl": 3101,
      "motile": 3102,
      "behavioral": 3103,
      "thymocyte": 3104,
      "pallium": 3105,
      "mesonephros": 3106,
      "melan": 3107,
      "artery": 3108,
      "self": 3109,
      "aromatic": 3110,
      "cystine": 3111,
      "dopamin": 3112,
      "xylan": 3113,
      "dinucleotide": 3114,
      "periphery": 3115,
      "adip": 3116,
      "stomatal": 3117,
      "epoxide": 3118,
      "spliceosomal": 3119,
      "senescence": 3120,
      "catecholamine": 3121,
      "poietic": 3122,
      "arachidonic": 3123,
      "melanocyte": 3124,
      "lamell": 3125,
      "snorna": 3126,
      "myristo": 3127,
      "pilus": 3128,
      "octopamine": 3129,
      "diaminopimelate": 3130,
      "isoleucine": 3131,
      "esulfonate": 3132,
      "limonene": 3133,
      "ecdysone": 3134,
      "rhyth": 3135,
      "saturated": 3136,
      "hematopoietic": 3137,
      "raffinose": 3138,
      "phosphoenolpyruvate": 3139,
      "2s": 3140,
      "5alpha": 3141,
      "aa": 3142,
      "ahedral": 3143,
      "gpi": 3144,
      "har": 3145,
      "k1": 3146,
      "other": 3147,
      "oacetate": 3148,
      "pes": 3149,
      "ppase": 3150,
      "r2": 3151,
      "tene": 3152,
      "tang": 3153,
      "uf": 3154,
      "icar": 3155,
      "ctp": 3156,
      "repressor": 3157,
      "anone": 3158,
      "erate": 3159,
      "llus": 3160,
      "neo": 3161,
      "test": 3162,
      "idge": 3163,
      "diphospho": 3164,
      "genic": 3165,
      "aci": 3166,
      "porphy": 3167,
      "respiration": 3168,
      "endos": 3169,
      "catenin": 3170,
      "ized": 3171,
      "types": 3172,
      "glyoxyl": 3173,
      "mercur": 3174,
      "polyphosphate": 3175,
      "polypeptide": 3176,
      "preinitiation": 3177,
      "dopa": 3178,
      "antimicrobial": 3179,
      "virion": 3180,
      "somal": 3181,
      "somito": 3182,
      "trihydroxy": 3183,
      "isotypes": 3184,
      "holo": 3185,
      "postsynapse": 3186,
      "anthin": 3187,
      "anthran": 3188,
      "alkane": 3189,
      "bacterio": 3190,
      "oligodend": 3191,
      "arabino": 3192,
      "panto": 3193,
      "bounded": 3194,
      "brass": 3195,
      "hypox": 3196,
      "rectifi": 3197,
      "cortisol": 3198,
      "rhamnosyltransferase": 3199,
      "caroten": 3200,
      "pseudouridine": 3201,
      "naphthalene": 3202,
      "ecdysteroid": 3203,
      "palmitoyltransferase": 3204,
      "outflow": 3205,
      "phagocytosis": 3206,
      "flower": 3207,
      "icosahedral": 3208,
      "contact": 3209,
      "acycl": 3210,
      "cinnamo": 3211,
      "nitrile": 3212,
      "iterpenoid": 3213,
      "guided": 3214,
      "photosynthesis": 3215,
      "furrow": 3216,
      "orientation": 3217,
      "microvillus": 3218,
      "chamber": 3219,
      "specialization": 3220,
      "oribonuclease": 3221,
      "testosterone": 3222,
      "glyoxylate": 3223,
      "mercury": 3224,
      "oligodendrocyte": 3225,
      "rectifier": 3226,
      "+-": 3227,
      "c5": 3228,
      "cut": 3229,
      "cgmp": 3230,
      "d1": 3231,
      "een": 3232,
      "fus": 3233,
      "fmn": 3234,
      "ie": 3235,
      "icell": 3236,
      "ipodium": 3237,
      "men": 3238,
      "n2": 3239,
      "ning": 3240,
      "ps": 3241,
      "ray": 3242,
      "ramine": 3243,
      "viol": 3244,
      "zyme": 3245,
      "ici": 3246,
      "prospore": 3247,
      "invas": 3248,
      "anto": 3249,
      "podo": 3250,
      "unsaturated": 3251,
      "lling": 3252,
      "phin": 3253,
      "yllo": 3254,
      "ospor": 3255,
      "osterol": 3256,
      "tered": 3257,
      "taurine": 3258,
      "chronic": 3259,
      "vesting": 3260,
      "genetic": 3261,
      "mber": 3262,
      "glcna": 3263,
      "hyphal": 3264,
      "acylase": 3265,
      "ferulo": 3266,
      "resol": 3267,
      "endonucleolytic": 3268,
      "receptors": 3269,
      "heren": 3270,
      "adheren": 3271,
      "betw": 3272,
      "mach": 3273,
      "stere": 3274,
      "organo": 3275,
      "exc": 3276,
      "exosome": 3277,
      "clusion": 3278,
      "hydroxybenzoate": 3279,
      "ilate": 3280,
      "perm": 3281,
      "perio": 3282,
      "monogalactosyldiacylglycerol": 3283,
      "myco": 3284,
      "able": 3285,
      "tubular": 3286,
      "nitrite": 3287,
      "phosphoglycerate": 3288,
      "isocitrate": 3289,
      "glyceraldehyde": 3290,
      "inosine": 3291,
      "tricistronic": 3292,
      "benzoth": 3293,
      "phyt": 3294,
      "acute": 3295,
      "stage": 3296,
      "lectin": 3297,
      "magnes": 3298,
      "ventricle": 3299,
      "furan": 3300,
      "sinapo": 3301,
      "flavin": 3302,
      "nuren": 3303,
      "number": 3304,
      "lucan": 3305,
      "centromeric": 3306,
      "fission": 3307,
      "midbrain": 3308,
      "vasoconstriction": 3309,
      "protocadherin": 3310,
      "oflavin": 3311,
      "neurotrophin": 3312,
      "mechanical": 3313,
      "phagocytic": 3314,
      "zeatin": 3315,
      "joint": 3316,
      "methanopterin": 3317,
      "locomotion": 3318,
      "bulb": 3319,
      "osensory": 3320,
      "placen": 3321,
      "shoot": 3322,
      "kynuren": 3323,
      "alternative": 3324,
      "keratinocyte": 3325,
      "emericell": 3326,
      "lamellipodium": 3327,
      "harvesting": 3328,
      "anthranilate": 3329,
      "podocyte": 3330,
      "adherens": 3331,
      "between": 3332,
      "magnesium": 3333,
      "1a": 3334,
      "1d": 3335,
      "35": 3336,
      "bro": 3337,
      "bec": 3338,
      "bmp": 3339,
      "baro": 3340,
      "cf": 3341,
      "cran": 3342,
      "crine": 3343,
      "fac": 3344,
      "hip": 3345,
      "ophore": 3346,
      "rdna": 3347,
      "squ": 3348,
      "winding": 3349,
      "ysine": 3350,
      "alam": 3351,
      "ctd": 3352,
      "are": 3353,
      "reaction": 3354,
      "ression": 3355,
      "anne": 3356,
      "tris": 3357,
      "phene": 3358,
      "entero": 3359,
      "delet": 3360,
      "nein": 3361,
      "idol": 3362,
      "idation": 3363,
      "iding": 3364,
      "tap": 3365,
      "pter": 3366,
      "phosphonate": 3367,
      "lipase": 3368,
      "metabol": 3369,
      "methan": 3370,
      "acety": 3371,
      "ferol": 3372,
      "assimil": 3373,
      "phoblast": 3374,
      "nucleosidase": 3375,
      "calcit": 3376,
      "methylbut": 3377,
      "retion": 3378,
      "acetylmuram": 3379,
      "acetylneuramin": 3380,
      "glucosamin": 3381,
      "myce": 3382,
      "antifungal": 3383,
      "nitol": 3384,
      "trophoblast": 3385,
      "canna": 3386,
      "mannitol": 3387,
      "trichome": 3388,
      "benzyl": 3389,
      "mannosidase": 3390,
      "mesenchyme": 3391,
      "optic": 3392,
      "haus": 3393,
      "dihydrodiol": 3394,
      "recombinase": 3395,
      "curcum": 3396,
      "chorion": 3397,
      "aldosterone": 3398,
      "amyrin": 3399,
      "corticos": 3400,
      "groups": 3401,
      "follicular": 3402,
      "conjugate": 3403,
      "galactosidase": 3404,
      "cystath": 3405,
      "gonad": 3406,
      "dynein": 3407,
      "glycolate": 3408,
      "anchoring": 3409,
      "sheath": 3410,
      "malonyltransferase": 3411,
      "mismat": 3412,
      "galacturonan": 3413,
      "coumaroyl": 3414,
      "control": 3415,
      "flavonol": 3416,
      "flavonoid": 3417,
      "thymine": 3418,
      "caffeoyl": 3419,
      "mucosal": 3420,
      "retina": 3421,
      "blasto": 3422,
      "gonadotropin": 3423,
      "xenobiotic": 3424,
      "topoisomerase": 3425,
      "isoflav": 3426,
      "creatine": 3427,
      "logenesis": 3428,
      "dopaminergic": 3429,
      "adipate": 3430,
      "icardium": 3431,
      "feruloyl": 3432,
      "stereoci": 3433,
      "excretion": 3434,
      "baroreceptor": 3435,
      "annealing": 3436,
      "deletion": 3437,
      "assimilation": 3438,
      "bend": 3439,
      "bcl": 3440,
      "band": 3441,
      "back": 3442,
      "c3": 3443,
      "cp": 3444,
      "cyl": 3445,
      "d8": 3446,
      "dro": 3447,
      "eif": 3448,
      "emp": 3449,
      "fre": 3450,
      "hum": 3451,
      "humor": 3452,
      "jal": 3453,
      "mulation": 3454,
      "oyltransferase": 3455,
      "ophil": 3456,
      "otypic": 3457,
      "p4": 3458,
      "rio": 3459,
      "u2": 3460,
      "uc": 3461,
      "v4": 3462,
      "wy": 3463,
      "ioid": 3464,
      "icin": 3465,
      "procal": 3466,
      "inate": 3467,
      "reci": 3468,
      "reproduction": 3469,
      "olus": 3470,
      "enate": 3471,
      "seco": 3472,
      "poprotein": 3473,
      "unwinding": 3474,
      "ers": 3475,
      "trige": 3476,
      "phlo": 3477,
      "deim": 3478,
      "thin": 3479,
      "tes": 3480,
      "isome": 3481,
      "tau": 3482,
      "tax": 3483,
      "vesti": 3484,
      "amer": 3485,
      "terpenoid": 3486,
      "iga": 3487,
      "astral": 3488,
      "timing": 3489,
      "ferro": 3490,
      "fertilization": 3491,
      "lide": 3492,
      "ump": 3493,
      "gluca": 3494,
      "methanol": 3495,
      "tyramine": 3496,
      "acetam": 3497,
      "sper": 3498,
      "cargo": 3499,
      "organizing": 3500,
      "geal": 3501,
      "exon": 3502,
      "methylnonadec": 3503,
      "monoxide": 3504,
      "trabec": 3505,
      "ostatin": 3506,
      "ribitol": 3507,
      "antibiotic": 3508,
      "anoyltransferase": 3509,
      "disaccharide": 3510,
      "somat": 3511,
      "phenazine": 3512,
      "phenotypic": 3513,
      "stimulation": 3514,
      "cytoskeletal": 3515,
      "ured": 3516,
      "mancy": 3517,
      "cending": 3518,
      "cajal": 3519,
      "inosteroid": 3520,
      "decay": 3521,
      "propanoate": 3522,
      "sensing": 3523,
      "basement": 3524,
      "thioredoxin": 3525,
      "angium": 3526,
      "opioid": 3527,
      "lactose": 3528,
      "spermine": 3529,
      "basophil": 3530,
      "threonyl": 3531,
      "exogenous": 3532,
      "photoperio": 3533,
      "fibronectin": 3534,
      "chord": 3535,
      "amycin": 3536,
      "autophosphorylation": 3537,
      "dormancy": 3538,
      "brevin": 3539,
      "germline": 3540,
      "geranylgeran": 3541,
      "phthalate": 3542,
      "h3k9": 3543,
      "phosphatidic": 3544,
      "pyrophosphate": 3545,
      "epoxidase": 3546,
      "bble": 3547,
      "wobble": 3548,
      "heptapeptide": 3549,
      "cellobiose": 3550,
      "bility": 3551,
      "cyclohexane": 3552,
      "h4k": 3553,
      "guanylyltransferase": 3554,
      "asymmetry": 3555,
      "androgen": 3556,
      "kaemp": 3557,
      "superfamily": 3558,
      "xylosyltransferase": 3559,
      "aortic": 3560,
      "maternal": 3561,
      "amylopectin": 3562,
      "pharyngeal": 3563,
      "genitalia": 3564,
      "xyloglucan": 3565,
      "brassinosteroid": 3566,
      "hypoxia": 3567,
      "carotenoid": 3568,
      "cinnamoyltransferase": 3569,
      "iciresinol": 3570,
      "placenta": 3571,
      "pteridine": 3572,
      "cannabin": 3573,
      "cystathionine": 3574,
      "mismatch": 3575,
      "humoral": 3576,
      "reciprocal": 3577,
      "deiminase": 3578,
      "vestib": 3579,
      "26": 3580,
      "36": 3581,
      "3r": 3582,
      "apol": 3583,
      "b2": 3584,
      "b4": 3585,
      "ble": 3586,
      "folic": 3587,
      "fas": 3588,
      "ipoprotein": 3589,
      "jak": 3590,
      "k2": 3591,
      "lab": 3592,
      "mar": 3593,
      "mium": 3594,
      "pigh": 3595,
      "xo": 3596,
      "xta": 3597,
      "xual": 3598,
      "icative": 3599,
      "rection": 3600,
      "anhydro": 3601,
      "asexual": 3602,
      "deamination": 3603,
      "thec": 3604,
      "toward": 3605,
      "idino": 3606,
      "chlear": 3607,
      "vege": 3608,
      "dimer": 3609,
      "diacetyl": 3610,
      "dipeptide": 3611,
      "dilation": 3612,
      "dienoate": 3613,
      "amph": 3614,
      "amylase": 3615,
      "aca": 3616,
      "hydroperoxide": 3617,
      "protease": 3618,
      "estered": 3619,
      "pect": 3620,
      "glucom": 3621,
      "uridyl": 3622,
      "conid": 3623,
      "convolu": 3624,
      "imming": 3625,
      "glycation": 3626,
      "malpigh": 3627,
      "beta2": 3628,
      "methylglyoxal": 3629,
      "alpha9": 3630,
      "ketone": 3631,
      "clast": 3632,
      "endodeoxyribonuclease": 3633,
      "trail": 3634,
      "precorrin": 3635,
      "paraxial": 3636,
      "myot": 3637,
      "raz": 3638,
      "phenone": 3639,
      "trimethylation": 3640,
      "microglial": 3641,
      "linole": 3642,
      "chlorin": 3643,
      "ismate": 3644,
      "thermo": 3645,
      "salt": 3646,
      "subpallium": 3647,
      "collect": 3648,
      "phyco": 3649,
      "replicative": 3650,
      "fold": 3651,
      "globin": 3652,
      "oxylating": 3653,
      "hexakisphosphate": 3654,
      "classical": 3655,
      "glycosyltransferase": 3656,
      "azol": 3657,
      "snare": 3658,
      "cyclohydrolase": 3659,
      "decarboxylating": 3660,
      "divers": 3661,
      "lactam": 3662,
      "nitros": 3663,
      "sequestered": 3664,
      "encephal": 3665,
      "chorismate": 3666,
      "butyl": 3667,
      "periplasmic": 3668,
      "tetrahydromethanopterin": 3669,
      "conjugating": 3670,
      "centromere": 3671,
      "abscission": 3672,
      "juxta": 3673,
      "zygo": 3674,
      "farnesyl": 3675,
      "cobalt": 3676,
      "cobalamin": 3677,
      "osteoclast": 3678,
      "spoke": 3679,
      "reduced": 3680,
      ")+]": 3681,
      "k63": 3682,
      "prolactin": 3683,
      "reverse": 3684,
      "producing": 3685,
      "intraci": 3686,
      "chito": 3687,
      "cytidylyltransferase": 3688,
      "melanosome": 3689,
      "rhythm": 3690,
      "hippo": 3691,
      "calcitonin": 3692,
      "haustor": 3693,
      "curcumin": 3694,
      "trigeminal": 3695,
      "glucagon": 3696,
      "cannabinoid": 3697,
      "apolipoprotein": 3698,
      "convoluted": 3699,
      "malpighian": 3700,
      "myotube": 3701,
      "collecting": 3702,
      "diversification": 3703,
      "intraciliary": 3704,
      "))-": 3705,
      "75": 3706,
      "aud": 3707,
      "b1": 3708,
      "bur": 3709,
      "d3": 3710,
      "ime": 3711,
      "nyl": 3712,
      "oss": 3713,
      "pim": 3714,
      "pack": 3715,
      "snap": 3716,
      "scul": 3717,
      "uton": 3718,
      "yll": 3719,
      "ysis": 3720,
      "ioside": 3721,
      "ick": 3722,
      "ala": 3723,
      "ateral": 3724,
      "inse": 3725,
      "inward": 3726,
      "arin": 3727,
      "aring": 3728,
      "itory": 3729,
      "ency": 3730,
      "energy": 3731,
      "sema": 3732,
      "phrag": 3733,
      "led": 3734,
      "leg": 3735,
      "transe": 3736,
      "toid": 3737,
      "togenesis": 3738,
      "ismal": 3739,
      "ono": 3740,
      "glio": 3741,
      "acistronic": 3742,
      "ign": 3743,
      "asomal": 3744,
      "plet": 3745,
      "proteasomal": 3746,
      "escr": 3747,
      "petal": 3748,
      "ria": 3749,
      "conduction": 3750,
      "organismal": 3751,
      "medium": 3752,
      "hydroxyiso": 3753,
      "hydroxycinnamoyltransferase": 3754,
      "interphase": 3755,
      "synapto": 3756,
      "ribulose": 3757,
      "para": 3758,
      "growing": 3759,
      "appressor": 3760,
      "leuco": 3761,
      "sulfoxide": 3762,
      "radi": 3763,
      "apoptosis": 3764,
      "utp": 3765,
      "mandel": 3766,
      "trichloro": 3767,
      "allanto": 3768,
      "cutic": 3769,
      "lipoxygenase": 3770,
      "valerate": 3771,
      "stream": 3772,
      "dermat": 3773,
      "hexadec": 3774,
      "editing": 3775,
      "stability": 3776,
      "pirna": 3777,
      "lactonase": 3778,
      "modifi": 3779,
      "uterine": 3780,
      "thymus": 3781,
      "bouton": 3782,
      "melanin": 3783,
      "circulation": 3784,
      "magne": 3785,
      "cholest": 3786,
      "octa": 3787,
      "uronate": 3788,
      "oxaloacetate": 3789,
      "dicarboxylate": 3790,
      "bridge": 3791,
      "tetras": 3792,
      "tetracistronic": 3793,
      "olys": 3794,
      "stomach": 3795,
      "glutamic": 3796,
      "adenosylmethionine": 3797,
      "trimethylamine": 3798,
      "cadmium": 3799,
      "phosphoribosyltransferase": 3800,
      "galacturonate": 3801,
      "sarcoplasmic": 3802,
      "sliding": 3803,
      "aorta": 3804,
      "stroma": 3805,
      "phorin": 3806,
      "pinocytosis": 3807,
      "lutein": 3808,
      "fucosyltransferase": 3809,
      "acetylgalactosaminyltransferase": 3810,
      "ascorbic": 3811,
      "myofibril": 3812,
      "connective": 3813,
      "integrity": 3814,
      "glutaminase": 3815,
      "tangential": 3816,
      "pantoth": 3817,
      "somatostatin": 3818,
      "kaempferol": 3819,
      "auditory": 3820,
      "ossification": 3821,
      "packaging": 3822,
      "semaphorin": 3823,
      "escrt": 3824,
      "appressorium": 3825,
      "1b": 3826,
      "97": 3827,
      "acon": 3828,
      "bate": 3829,
      "cass": 3830,
      "dione": 3831,
      "etin": 3832,
      "fide": 3833,
      "ging": 3834,
      "ix": 3835,
      "iib": 3836,
      "m1": 3837,
      "mda": 3838,
      "olo": 3839,
      "pm": 3840,
      "pted": 3841,
      "r8": 3842,
      "rub": 3843,
      "spon": 3844,
      "scle": 3845,
      "sus": 3846,
      "tative": 3847,
      "ture": 3848,
      "u6": 3849,
      "uth": 3850,
      "ylo": 3851,
      "iodi": 3852,
      "cene": 3853,
      "cephal": 3854,
      "rophore": 3855,
      "rolling": 3856,
      "atri": 3857,
      "atoxin": 3858,
      "ulan": 3859,
      "array": 3860,
      "reading": 3861,
      "enone": 3862,
      "enger": 3863,
      "encaps": 3864,
      "triterpenoid": 3865,
      "deubiquitin": 3866,
      "deadenylation": 3867,
      "deacylase": 3868,
      "thalam": 3869,
      "thick": 3870,
      "comp": 3871,
      "transpos": 3872,
      "osm": 3873,
      "osylation": 3874,
      "tel": 3875,
      "tooth": 3876,
      "tag": 3877,
      "veill": 3878,
      "diss": 3879,
      "dimethyltransferase": 3880,
      "diadenosine": 3881,
      "ptosome": 3882,
      "genin": 3883,
      "acp": 3884,
      "igg": 3885,
      "igm": 3886,
      "oxime": 3887,
      "estr": 3888,
      "endon": 3889,
      "glucar": 3890,
      "urate": 3891,
      "duplex": 3892,
      "heath": 3893,
      "acidification": 3894,
      "malonate": 3895,
      "calmod": 3896,
      "micron": 3897,
      "mitophagy": 3898,
      "cilage": 3899,
      "quad": 3900,
      "polynucleotide": 3901,
      "hydroxyproline": 3902,
      "intermembrane": 3903,
      "aminoglycan": 3904,
      "aminoglycoside": 3905,
      "endocrine": 3906,
      "riboside": 3907,
      "riboflavin": 3908,
      "monoester": 3909,
      "ensheath": 3910,
      "sulfite": 3911,
      "minus": 3912,
      "gallate": 3913,
      "dism": 3914,
      "tubules": 3915,
      "phosphocysteine": 3916,
      "phosphoethanolamine": 3917,
      "galactan": 3918,
      "ruct": 3919,
      "microtubules": 3920,
      "chemoat": 3921,
      "ermis": 3922,
      "deoxyribose": 3923,
      "granzyme": 3924,
      "subcomplex": 3925,
      "paired": 3926,
      "cup": 3927,
      "valent": 3928,
      "oxopent": 3929,
      "delamination": 3930,
      "endothelin": 3931,
      "apterin": 3932,
      "opsin": 3933,
      "otine": 3934,
      "anten": 3935,
      "lumenal": 3936,
      "basic": 3937,
      "siderophore": 3938,
      "glutaryl": 3939,
      "nephros": 3940,
      "butanol": 3941,
      "lizing": 3942,
      "croton": 3943,
      "nicotine": 3944,
      "cyanate": 3945,
      "fluo": 3946,
      "copii": 3947,
      "rhamno": 3948,
      "two": 3949,
      "plasmacy": 3950,
      "symmetric": 3951,
      "mucilage": 3952,
      "tetracycl": 3953,
      "midzone": 3954,
      "surveill": 3955,
      "ecto": 3956,
      "epidermis": 3957,
      "adipo": 3958,
      "phytochelat": 3959,
      "absence": 3960,
      "pulse": 3961,
      "cellotriose": 3962,
      "guanylate": 3963,
      "oligopeptide": 3964,
      "naphtho": 3965,
      "palmitoylation": 3966,
      "mechanism": 3967,
      "glucosylceramide": 3968,
      "racemization": 3969,
      "hemoglobin": 3970,
      "branchio": 3971,
      "intramolecular": 3972,
      "catabolism": 3973,
      "joining": 3974,
      "xylosyl": 3975,
      "oomyce": 3976,
      "sorbose": 3977,
      "mevalonate": 3978,
      "porphyrinogen": 3979,
      "somitogenesis": 3980,
      "cranial": 3981,
      "acetylneuraminate": 3982,
      "droplet": 3983,
      "free": 3984,
      "trabecula": 3985,
      "photoperiodism": 3986,
      "vegetative": 3987,
      "haustorium": 3988,
      "sculpted": 3989,
      "insect": 3990,
      "mandelate": 3991,
      "cuticulin": 3992,
      "modified": 3993,
      "fidelity": 3994,
      "iodide": 3995,
      "deubiquitinase": 3996,
      "glucarate": 3997,
      "calmodulin": 3998,
      "plasmacytoid": 3999,
      "surveillance": 4000,
      "phytochelatin": 4001,
      "a1": 4002,
      "a4": 4003,
      "aus": 4004,
      "b6": 4005,
      "bit": 4006,
      "derm": 4007,
      "dau": 4008,
      "driv": 4009,
      "egf": 4010,
      "f1": 4011,
      "gy": 4012,
      "gth": 4013,
      "hr": 4014,
      "ipid": 4015,
      "iazole": 4016,
      "kap": 4017,
      "kot": 4018,
      "k27": 4019,
      "kv4": 4020,
      "omyelin": 4021,
      "syl": 4022,
      "slow": 4023,
      "tendon": 4024,
      "u4": 4025,
      "vinyl": 4026,
      "ycl": 4027,
      "iospore": 4028,
      "roblast": 4029,
      "ropine": 4030,
      "allose": 4031,
      "pronephros": 4032,
      "atraz": 4033,
      "inic": 4034,
      "inergic": 4035,
      "incre": 4036,
      "inclusion": 4037,
      "lopodium": 4038,
      "arrest": 4039,
      "repul": 4040,
      "anther": 4041,
      "sesqu": 4042,
      "actic": 4043,
      "ofruct": 4044,
      "coron": 4045,
      "covalent": 4046,
      "lle": 4047,
      "trate": 4048,
      "trib": 4049,
      "phyllo": 4050,
      "translo": 4051,
      "idity": 4052,
      "idue": 4053,
      "isate": 4054,
      "vegf": 4055,
      "diamine": 4056,
      "gener": 4057,
      "asper": 4058,
      "residue": 4059,
      "hydrocarbon": 4060,
      "riz": 4061,
      "mous": 4062,
      "endosomal": 4063,
      "metabo": 4064,
      "catech": 4065,
      "methion": 4066,
      "ury": 4067,
      "ader": 4068,
      "adam": 4069,
      "adiol": 4070,
      "aceol": 4071,
      "feed": 4072,
      "fever": 4073,
      "renin": 4074,
      "formaldehyde": 4075,
      "impulse": 4076,
      "nucleolar": 4077,
      "extr": 4078,
      "exonucleolytic": 4079,
      "methylamine": 4080,
      "stret": 4081,
      "odon": 4082,
      "alpha4": 4083,
      "mononucle": 4084,
      "quino": 4085,
      "ketide": 4086,
      "interconversion": 4087,
      "perature": 4088,
      "ribosyl": 4089,
      "epsi": 4090,
      "romycin": 4091,
      "histid": 4092,
      "blue": 4093,
      "secreting": 4094,
      "carbox": 4095,
      "galactoside": 4096,
      "galactonate": 4097,
      "cave": 4098,
      "caud": 4099,
      "tricarboxylic": 4100,
      "decapp": 4101,
      "lipopeptide": 4102,
      "inducing": 4103,
      "arbonate": 4104,
      "tartrate": 4105,
      "tinol": 4106,
      "ulos": 4107,
      "chlorophenyl": 4108,
      "regulated": 4109,
      "pentadec": 4110,
      "pentakisphosphate": 4111,
      "tryp": 4112,
      "benzoquinone": 4113,
      "sulfurtransferase": 4114,
      "sorting": 4115,
      "lactone": 4116,
      "adenylylation": 4117,
      "pressin": 4118,
      "tensidol": 4119,
      "thyro": 4120,
      "glucuronidation": 4121,
      "butanoate": 4122,
      "temperature": 4123,
      "corticosterone": 4124,
      "oxalate": 4125,
      "rotation": 4126,
      "turition": 4127,
      "organellar": 4128,
      "arabinoxylan": 4129,
      "sphingomyelin": 4130,
      "hypoxanthine": 4131,
      "glycolipid": 4132,
      "tetramer": 4133,
      "h3k4": 4134,
      "ylesterase": 4135,
      "filopodium": 4136,
      "adiene": 4137,
      "pyrone": 4138,
      "gging": 4139,
      "medul": 4140,
      "heptadec": 4141,
      "uniporter": 4142,
      "ganglioside": 4143,
      "chlorophyllide": 4144,
      "annan": 4145,
      "sporangium": 4146,
      "shear": 4147,
      "icosanoid": 4148,
      "androst": 4149,
      "coumarin": 4150,
      "hemocyte": 4151,
      "superior": 4152,
      "sialidase": 4153,
      "erbb4": 4154,
      "propanediol": 4155,
      "shaped": 4156,
      "olactone": 4157,
      "learning": 4158,
      "zoospore": 4159,
      "arsenite": 4160,
      "soluble": 4161,
      "volume": 4162,
      "methylenetetrahydrofolate": 4163,
      "ascorbate": 4164,
      "pyranosyl": 4165,
      "myofibroblast": 4166,
      "gentisate": 4167,
      "sorbitol": 4168,
      "pyridoxine": 4169,
      "injured": 4170,
      "undecaprenyl": 4171,
      "amidohydrolase": 4172,
      "syncytial": 4173,
      "flex": 4174,
      "ikimate": 4175,
      "nodal": 4176,
      "mena": 4177,
      "violaceol": 4178,
      "sinapoyl": 4179,
      "kynurenine": 4180,
      "emericellamide": 4181,
      "methanofuran": 4182,
      "stereocilium": 4183,
      "eif2": 4184,
      "humidity": 4185,
      "phloem": 4186,
      "acetamido": 4187,
      "marrow": 4188,
      "glucomannan": 4189,
      "encephalon": 4190,
      "radiation": 4191,
      "olysosome": 4192,
      "9775": 4193,
      "cephalospor": 4194,
      "quadru": 4195,
      "ensheathment": 4196,
      "austinol": 4197,
      "driven": 4198,
      "kappa": 4199,
      "kotanin": 4200,
      "atrazine": 4201,
      "increased": 4202,
      "repulsion": 4203,
      "coronary": 4204,
      "metabotropic": 4205,
      "stretch": 4206,
      "epsilon": 4207,
      "histidino": 4208,
      "decapping": 4209,
      "28": 4210,
      "33": 4211,
      "37": 4212,
      "50": 4213,
      "cx": 4214,
      "cule": 4215,
      "cry": 4216,
      "cable": 4217,
      "dent": 4218,
      "equ": 4219,
      "fast": 4220,
      "fung": 4221,
      "frag": 4222,
      "gr": 4223,
      "gulf": 4224,
      "ilization": 4225,
      "lulan": 4226,
      "nur": 4227,
      "oper": 4228,
      "over": 4229,
      "ocorticoid": 4230,
      "pu": 4231,
      "pup": 4232,
      "scaf": 4233,
      "tat": 4234,
      "tactic": 4235,
      "utr": 4236,
      "umb": 4237,
      "vite": 4238,
      "xi": 4239,
      "yx": 4240,
      "cer": 4241,
      "rough": 4242,
      "atg": 4243,
      "infe": 4244,
      "lomicron": 4245,
      "rein": 4246,
      "repression": 4247,
      "reflex": 4248,
      "engulf": 4249,
      "anta": 4250,
      "sed": 4251,
      "semic": 4252,
      "actone": 4253,
      "unk": 4254,
      "unloading": 4255,
      "erad": 4256,
      "trunk": 4257,
      "orcinol": 4258,
      "lesterase": 4259,
      "lewy": 4260,
      "deamin": 4261,
      "destabilization": 4262,
      "transhydrogenase": 4263,
      "tochord": 4264,
      "syring": 4265,
      "vein": 4266,
      "dimethylation": 4267,
      "general": 4268,
      "hyroid": 4269,
      "accum": 4270,
      "cyane": 4271,
      "cytol": 4272,
      "cynyl": 4273,
      "plexin": 4274,
      "ferin": 4275,
      "restriction": 4276,
      "protection": 4277,
      "lipin": 4278,
      "mouth": 4279,
      "umin": 4280,
      "methylesterase": 4281,
      "uridylyltransferase": 4282,
      "hemi": 4283,
      "acement": 4284,
      "spreading": 4285,
      "imp": 4286,
      "nucleic": 4287,
      "nucleosome": 4288,
      "glycin": 4289,
      "matine": 4290,
      "matergic": 4291,
      "methylguanosine": 4292,
      "odopsin": 4293,
      "monary": 4294,
      "monosaccharide": 4295,
      "hydroxyacyl": 4296,
      "hydroxysteroid": 4297,
      "hydroxybutyrate": 4298,
      "interstit": 4299,
      "epicardium": 4300,
      "premeiotic": 4301,
      "preribosome": 4302,
      "depriv": 4303,
      "monopolar": 4304,
      "apren": 4305,
      "ptomycin": 4306,
      "suture": 4307,
      "intron": 4308,
      "anediol": 4309,
      "phosphomonoester": 4310,
      "sour": 4311,
      "peptides": 4312,
      "trop": 4313,
      "isopren": 4314,
      "olefin": 4315,
      "acrosome": 4316,
      "cinapterin": 4317,
      "hoblast": 4318,
      "inosit": 4319,
      "ircular": 4320,
      "chemorepulsion": 4321,
      "nucleot": 4322,
      "nucleoid": 4323,
      "nucleotid": 4324,
      "notochord": 4325,
      "charopine": 4326,
      "replacement": 4327,
      "symbiotic": 4328,
      "propan": 4329,
      "mannosamine": 4330,
      "gloss": 4331,
      "compounds": 4332,
      "chromatophore": 4333,
      "delphin": 4334,
      "chylomicron": 4335,
      "inogen": 4336,
      "phagic": 4337,
      "ethane": 4338,
      "quinate": 4339,
      "nonhomologous": 4340,
      "after": 4341,
      "fruit": 4342,
      "bicarbonate": 4343,
      "succinyltransferase": 4344,
      "autophagic": 4345,
      "arterio": 4346,
      "seryl": 4347,
      "aspartyl": 4348,
      "sinap": 4349,
      "indoleacetic": 4350,
      "dimethylall": 4351,
      "gellate": 4352,
      "xylene": 4353,
      "dinofla": 4354,
      "midgut": 4355,
      "acetylglucosaminyl": 4356,
      "phosphatidyltransferase": 4357,
      "aggre": 4358,
      "glutamatergic": 4359,
      "vasodilation": 4360,
      "vasopressin": 4361,
      "focal": 4362,
      "food": 4363,
      "pulmonary": 4364,
      "segmentation": 4365,
      "shikimate": 4366,
      "sarcinapterin": 4367,
      "granulosa": 4368,
      "shell": 4369,
      "parathyroid": 4370,
      "palmitoyl": 4371,
      "dolichol": 4372,
      "cardiolipin": 4373,
      "mineralocorticoid": 4374,
      "carbamoyltransferase": 4375,
      "phenanthrol": 4376,
      "hydroxyphenylacetate": 4377,
      "sialyltransferase": 4378,
      "permeabilization": 4379,
      "anthocyanidin": 4380,
      "osteoblast": 4381,
      "photosynthetic": 4382,
      "swe": 4383,
      "saccharopine": 4384,
      "lymphatic": 4385,
      "connecting": 4386,
      "border": 4387,
      "hercynyl": 4388,
      "smad": 4389,
      "injury": 4390,
      "vagus": 4391,
      "endosperm": 4392,
      "furanone": 4393,
      "enterobactin": 4394,
      "acetylmuramoyl": 4395,
      "blastoderm": 4396,
      "isoflavone": 4397,
      "bending": 4398,
      "towards": 4399,
      "chitobiose": 4400,
      "hippocamp": 4401,
      "burst": 4402,
      "pimara": 4403,
      "synaptobrevin": 4404,
      "rhamnogalacturonan": 4405,
      "tetracycline": 4406,
      "dauer": 4407,
      "caudal": 4408,
      "quadruplex": 4409,
      "engulfment": 4410,
      "semicircular": 4411,
      "accumulation": 4412,
      "cyanelle": 4413,
      "interstitial": 4414,
      "deprivation": 4415,
      "phosphomonoesters": 4416,
      "isoprenoid": 4417,
      "delphinidin": 4418,
      "dinoflagellate": 4419,
      "--": 4420,
      "bron": 4421,
      "boid": 4422,
      "cm": 4423,
      "day": 4424,
      "dinitro": 4425,
      "fli": 4426,
      "fication": 4427,
      "friz": 4428,
      "g0": 4429,
      "hro": 4430,
      "jun": 4431,
      "k5": 4432,
      "l2": 4433,
      "mate": 4434,
      "mosome": 4435,
      "n4": 4436,
      "nl": 4437,
      "ocell": 4438,
      "ogenesis": 4439,
      "ophyll": 4440,
      "pit": 4441,
      "pap": 4442,
      "pinal": 4443,
      "ritol": 4444,
      "sf": 4445,
      "sk": 4446,
      "twit": 4447,
      "tcf": 4448,
      "u12": 4449,
      "we": 4450,
      "zled": 4451,
      "iophene": 4452,
      "alve": 4453,
      "alli": 4454,
      "procollagen": 4455,
      "iono": 4456,
      "atac": 4457,
      "atrio": 4458,
      "infer": 4459,
      "locus": 4460,
      "ulate": 4461,
      "arinine": 4462,
      "rec": 4463,
      "reception": 4464,
      "olivary": 4465,
      "olateral": 4466,
      "itate": 4467,
      "iver": 4468,
      "antr": 4469,
      "anate": 4470,
      "anod": 4471,
      "ecy": 4472,
      "ecane": 4473,
      "ecution": 4474,
      "unt": 4475,
      "uncoating": 4476,
      "copi": 4477,
      "costimulation": 4478,
      "cochlear": 4479,
      "trid": 4480,
      "trinitro": 4481,
      "trimming": 4482,
      "lem": 4483,
      "lesion": 4484,
      "deglycation": 4485,
      "decene": 4486,
      "ylin": 4487,
      "compet": 4488,
      "ned": 4489,
      "transformation": 4490,
      "dikinase": 4491,
      "ampa": 4492,
      "amylin": 4493,
      "genate": 4494,
      "onidin": 4495,
      "ascus": 4496,
      "rescence": 4497,
      "phosphofruct": 4498,
      "pell": 4499,
      "mother": 4500,
      "modes": 4501,
      "endage": 4502,
      "endoribonuclease": 4503,
      "plication": 4504,
      "methylethanolamine": 4505,
      "involution": 4506,
      "heav": 4507,
      "uclear": 4508,
      "conser": 4509,
      "imino": 4510,
      "immature": 4511,
      "ronate": 4512,
      "nucleolus": 4513,
      "vii": 4514,
      "plasmodes": 4515,
      "matid": 4516,
      "calcine": 4517,
      "calyx": 4518,
      "execution": 4519,
      "stal": 4520,
      "morph": 4521,
      "que": 4522,
      "polytene": 4523,
      "polyketide": 4524,
      "clav": 4525,
      "aminoadipate": 4526,
      "prene": 4527,
      "parie": 4528,
      "myd8": 4529,
      "ptose": 4530,
      "corne": 4531,
      "astin": 4532,
      "mitochondria": 4533,
      "phenyle": 4534,
      "tonic": 4535,
      "axanthin": 4536,
      "isomal": 4537,
      "isoprene": 4538,
      "acrosomal": 4539,
      "microparticle": 4540,
      "ubiquinol": 4541,
      "toli": 4542,
      "subdivision": 4543,
      "aver": 4544,
      "cold": 4545,
      "colum": 4546,
      "culo": 4547,
      "filtration": 4548,
      "inhibin": 4549,
      "fibri": 4550,
      "hexanoate": 4551,
      "initi": 4552,
      "tetrairon": 4553,
      "illa": 4554,
      "thiosulfate": 4555,
      "potent": 4556,
      "eroid": 4557,
      "cyclopropane": 4558,
      "homogentisate": 4559,
      "argonidin": 4560,
      "pyrimidin": 4561,
      "dihydrouridine": 4562,
      "exodeoxyribonuclease": 4563,
      "descending": 4564,
      "rhodopsin": 4565,
      "circle": 4566,
      "sertoli": 4567,
      "regional": 4568,
      "uronan": 4569,
      "ceramidase": 4570,
      "carboxypeptidase": 4571,
      "sinus": 4572,
      "cystin": 4573,
      "myocar": 4574,
      "dimethylamine": 4575,
      "retrotranspos": 4576,
      "maltohepta": 4577,
      "propionyl": 4578,
      "campes": 4579,
      "guanidino": 4580,
      "nitrogenous": 4581,
      "midline": 4582,
      "glycerophosphocholine": 4583,
      "erythritol": 4584,
      "pullulan": 4585,
      "appendage": 4586,
      "cellodextrin": 4587,
      "pseudopodium": 4588,
      "pseudohyphal": 4589,
      "olinate": 4590,
      "gonist": 4591,
      "stripe": 4592,
      "shortening": 4593,
      "length": 4594,
      "exchanging": 4595,
      "poiesis": 4596,
      "hemopoiesis": 4597,
      "wounding": 4598,
      "olactate": 4599,
      "sarcosine": 4600,
      "geraniol": 4601,
      "gabaergic": 4602,
      "pyridoxamine": 4603,
      "vagin": 4604,
      "pelargonidin": 4605,
      "holoenzyme": 4606,
      "flowering": 4607,
      "fusarinine": 4608,
      "invasive": 4609,
      "benzothiazole": 4610,
      "metabolite": 4611,
      "tauto": 4612,
      "dermatan": 4613,
      "pantothenate": 4614,
      "sclero": 4615,
      "thalamus": 4616,
      "estradiol": 4617,
      "chemoattraction": 4618,
      "ectoine": 4619,
      "quinov": 4620,
      "menaquinone": 4621,
      "cephalosporin": 4622,
      "fungus": 4623,
      "infection": 4624,
      "antagonist": 4625,
      "nucleotidase": 4626,
      "nucleotidyltransferase": 4627,
      "arteriosus": 4628,
      "hippocampal": 4629,
      "bronch": 4630,
      "flippase": 4631,
      "frizzled": 4632,
      "ocellus": 4633,
      "twitch": 4634,
      "atrioventricular": 4635,
      "inferior": 4636,
      "antrum": 4637,
      "heavy": 4638,
      "calcineurin": 4639,
      "parietal": 4640,
      "myd88": 4641,
      "retrotransposon": 4642,
      "maltoheptaose": 4643,
      ")]": 4644,
      "3s": 4645,
      "80": 4646,
      "90": 4647,
      "ame": 4648,
      "bon": 4649,
      "bac": 4650,
      "bene": 4651,
      "cc": 4652,
      "cic": 4653,
      "dct": 4654,
      "dod": 4655,
      "dgtp": 4656,
      "eph": 4657,
      "eve": 4658,
      "evas": 4659,
      "jkappa": 4660,
      "kar": 4661,
      "krein": 4662,
      "kalli": 4663,
      "lr": 4664,
      "mad": 4665,
      "p3": 4666,
      "r7": 4667,
      "ras": 4668,
      "rbp": 4669,
      "sre": 4670,
      "son": 4671,
      "sty": 4672,
      "simil": 4673,
      "tung": 4674,
      "tsh": 4675,
      "vul": 4676,
      "iose": 4677,
      "iodo": 4678,
      "ioplast": 4679,
      "ali": 4680,
      "ality": 4681,
      "pros": 4682,
      "ssenger": 4683,
      "ional": 4684,
      "invagin": 4685,
      "loyl": 4686,
      "arium": 4687,
      "reassembly": 4688,
      "enucle": 4689,
      "enesulfonate": 4690,
      "ecium": 4691,
      "ecarboxylate": 4692,
      "unid": 4693,
      "cour": 4694,
      "llact": 4695,
      "me2": 4696,
      "me3": 4697,
      "meter": 4698,
      "meli": 4699,
      "melat": 4700,
      "messenger": 4701,
      "oride": 4702,
      "orization": 4703,
      "orub": 4704,
      "deg": 4705,
      "deform": 4706,
      "dedifferentiation": 4707,
      "deaz": 4708,
      "deposition": 4709,
      "tho": 4710,
      "thione": 4711,
      "transcytosis": 4712,
      "ponin": 4713,
      "isolar": 4714,
      "chalco": 4715,
      "diap": 4716,
      "genol": 4717,
      "genes": 4718,
      "igd": 4719,
      "tian": 4720,
      "hydroquinone": 4721,
      "phosphose": 4722,
      "proteins": 4723,
      "proteinase": 4724,
      "glucon": 4725,
      "heptose": 4726,
      "adder": 4727,
      "pathetic": 4728,
      "fear": 4729,
      "mitosis": 4730,
      "acids": 4731,
      "formic": 4732,
      "xylem": 4733,
      "sterone": 4734,
      "glycyl": 4735,
      "plasto": 4736,
      "exoribonuclease": 4737,
      "byrin": 4738,
      "ciferin": 4739,
      "alpha3": 4740,
      "alpha6": 4741,
      "alphaiib": 4742,
      "retinyl": 4743,
      "polyubiquitin": 4744,
      "ket": 4745,
      "clamp": 4746,
      "hydroxyalk": 4747,
      "aminoacyl": 4748,
      "aminocyclopropane": 4749,
      "trap": 4750,
      "perin": 4751,
      "acetylfusarinine": 4752,
      "ribbon": 4753,
      "pyram": 4754,
      "prephen": 4755,
      "hist": 4756,
      "monoamine": 4757,
      "monocarboxylic": 4758,
      "bladder": 4759,
      "roline": 4760,
      "distrib": 4761,
      "intensity": 4762,
      "galactitol": 4763,
      "phenoxy": 4764,
      "triacetylfusarinine": 4765,
      "isoquinoline": 4766,
      "olethanolamine": 4767,
      "cholate": 4768,
      "venous": 4769,
      "granular": 4770,
      "chae": 4771,
      "decaprenyl": 4772,
      "lipoamide": 4773,
      "lipoteichoic": 4774,
      "arborization": 4775,
      "sympathetic": 4776,
      "agmatine": 4777,
      "axonogenesis": 4778,
      "rambl": 4779,
      "cd25": 4780,
      "latency": 4781,
      "tetrachloro": 4782,
      "ause": 4783,
      "alkan": 4784,
      "cyclodextrin": 4785,
      "benzoic": 4786,
      "nitrogenase": 4787,
      "pyrroline": 4788,
      "atom": 4789,
      "citram": 4790,
      "butyr": 4791,
      "basolateral": 4792,
      "association": 4793,
      "arabitol": 4794,
      "elastin": 4795,
      "rhab": 4796,
      "dihydroxybenzoate": 4797,
      "supra": 4798,
      "sulfoquinov": 4799,
      "aldose": 4800,
      "cyanide": 4801,
      "fluoride": 4802,
      "germarium": 4803,
      "octulos": 4804,
      "pinene": 4805,
      "ette": 4806,
      "immunological": 4807,
      "gastrin": 4808,
      "sphinganine": 4809,
      "bisphenol": 4810,
      "cris": 4811,
      "hypophy": 4812,
      "muconate": 4813,
      "h3k36": 4814,
      "luciferin": 4815,
      "ketoglutarate": 4816,
      "glycerone": 4817,
      "gibberellic": 4818,
      "store": 4819,
      "scrambl": 4820,
      "carotid": 4821,
      "euchromatin": 4822,
      "cellooligosaccharide": 4823,
      "floppase": 4824,
      "segmental": 4825,
      "laminar": 4826,
      "misfolded": 4827,
      "androsterone": 4828,
      "zeaxanthin": 4829,
      "myelination": 4830,
      "zyg": 4831,
      "metalloendopeptidase": 4832,
      "rad5": 4833,
      "farnesol": 4834,
      "iterpene": 4835,
      "plaque": 4836,
      "methanophenazine": 4837,
      "arachidonate": 4838,
      "penetration": 4839,
      "prun": 4840,
      "prenol": 4841,
      "luteolin": 4842,
      "visce": 4843,
      "visual": 4844,
      "material": 4845,
      "diaphrag": 4846,
      "k48": 4847,
      "primer": 4848,
      "primor": 4849,
      "p2y": 4850,
      "syncytium": 4851,
      "aaa": 4852,
      "bacteriocin": 4853,
      "glcnac": 4854,
      "glcnac2": 4855,
      "facial": 4856,
      "acetyllact": 4857,
      "glucosaminyl": 4858,
      "corticospinal": 4859,
      "p450": 4860,
      "secoisolar": 4861,
      "threonylcarbamoyl": 4862,
      "geranylgeranyltransferase": 4863,
      "conidio": 4864,
      "juxtaglomerulus": 4865,
      "hexadecanal": 4866,
      "tetrasulfide": 4867,
      "luteinizing": 4868,
      "aconitate": 4869,
      "cassette": 4870,
      "pmt": 4871,
      "atrium": 4872,
      "branchiomotor": 4873,
      "oomycetes": 4874,
      "egfr": 4875,
      "yclic": 4876,
      "methionyl": 4877,
      "mononuclear": 4878,
      "rotational": 4879,
      "tetramerization": 4880,
      "cxcr": 4881,
      "operated": 4882,
      "syringal": 4883,
      "inositolethanolamine": 4884,
      "sweet": 4885,
      "nlrp": 4886,
      "column": 4887,
      "potentiation": 4888,
      "regionalization": 4889,
      "evasion": 4890,
      "kallikrein": 4891,
      "srebp": 4892,
      "similar": 4893,
      "tungst": 4894,
      "tship": 4895,
      "invagination": 4896,
      "courtship": 4897,
      "melatonin": 4898,
      "orubicin": 4899,
      "deformylase": 4900,
      "chalcone": 4901,
      "diapause": 4902,
      "hydroxyalkanoate": 4903,
      "pyramid": 4904,
      "prephenate": 4905,
      "diaphragm": 4906,
      "secoisolariciresinol": 4907,
      "'''-": 4908,
      "30": 4909,
      "32": 4910,
      "3alpha": 4911,
      "4s": 4912,
      "7alpha": 4913,
      "afl": 4914,
      "cs": 4915,
      "cli": 4916,
      "cresol": 4917,
      "dol": 4918,
      "date": 4919,
      "datp": 4920,
      "domere": 4921,
      "fact": 4922,
      "fir": 4923,
      "fural": 4924,
      "h1": 4925,
      "ire": 4926,
      "ifer": 4927,
      "ilide": 4928,
      "king": 4929,
      "land": 4930,
      "m2": 4931,
      "n7": 4932,
      "nh2": 4933,
      "naring": 4934,
      "ok": 4935,
      "otol": 4936,
      "orot": 4937,
      "pec": 4938,
      "preg": 4939,
      "r1": 4940,
      "r3": 4941,
      "rc": 4942,
      "rul": 4943,
      "rig": 4944,
      "s1": 4945,
      "sul": 4946,
      "sco": 4947,
      "ten": 4948,
      "tan": 4949,
      "upon": 4950,
      "vt": 4951,
      "ving": 4952,
      "xx": 4953,
      "iopterin": 4954,
      "round": 4955,
      "rophy": 4956,
      "prob": 4957,
      "atrophy": 4958,
      "inene": 4959,
      "inflo": 4960,
      "biopterin": 4961,
      "rem": 4962,
      "relay": 4963,
      "reased": 4964,
      "itp": 4965,
      "itro": 4966,
      "itance": 4967,
      "enic": 4968,
      "envi": 4969,
      "encyst": 4970,
      "antral": 4971,
      "anilide": 4972,
      "seb": 4973,
      "sell": 4974,
      "sever": 4975,
      "sepal": 4976,
      "ecation": 4977,
      "ecarboxylic": 4978,
      "cos": 4979,
      "cobin": 4980,
      "molecules": 4981,
      "eritance": 4982,
      "llum": 4983,
      "llary": 4984,
      "meg": 4985,
      "medin": 4986,
      "orsell": 4987,
      "enting": 4988,
      "desulf": 4989,
      "dephospho": 4990,
      "desulfo": 4991,
      "thor": 4992,
      "common": 4993,
      "netrin": 4994,
      "osamin": 4995,
      "atetra": 4996,
      "tethe": 4997,
      "toco": 4998,
      "tome": 4999,
      "tomous": 5000,
      "toreception": 5001,
      "istic": 5002,
      "dimeric": 5003,
      "dibenzoth": 5004,
      "amate": 5005,
      "terpene": 5006,
      "hypero": 5007,
      "acrene": 5008,
      "acryl": 5009,
      "igmato": 5010,
      "cyc": 5011,
      "asta": 5012,
      "asaccharide": 5013,
      "indol": 5014,
      "phosphos": 5015,
      "oxane": 5016,
      "lirub": 5017,
      "member": 5018,
      "mogen": 5019,
      "transferrin": 5020,
      "endospore": 5021,
      "methylo": 5022,
      "hem": 5023,
      "add": 5024,
      "adv": 5025,
      "ayer": 5026,
      "conduct": 5027,
      "formin": 5028,
      "imide": 5029,
      "step": 5030,
      "ronment": 5031,
      "plasmin": 5032,
      "matocyte": 5033,
      "methylmalonyl": 5034,
      "statin": 5035,
      "mercap": 5036,
      "alpha5": 5037,
      "queu": 5038,
      "quality": 5039,
      "polyubiquitination": 5040,
      "polyprenyl": 5041,
      "ketol": 5042,
      "intercellular": 5043,
      "aminohydrolase": 5044,
      "aminobenzoate": 5045,
      "endochond": 5046,
      "endocannabinoid": 5047,
      "idylate": 5048,
      "ulfan": 5049,
      "apc": 5050,
      "sulfonate": 5051,
      "about": 5052,
      "cordy": 5053,
      "lagging": 5054,
      "anothione": 5055,
      "dismutase": 5056,
      "portion": 5057,
      "aneous": 5058,
      "phosphorelay": 5059,
      "phenic": 5060,
      "change": 5061,
      "ureido": 5062,
      "neuromedin": 5063,
      "rug": 5064,
      "dioate": 5065,
      "gue": 5066,
      "hotomous": 5067,
      "cenp": 5068,
      "deoxyguanosine": 5069,
      "cholangio": 5070,
      "cholecy": 5071,
      "hydroximate": 5072,
      "vascu": 5073,
      "benzenesulfonate": 5074,
      "decreased": 5075,
      "inheritance": 5076,
      "osylceramide": 5077,
      "glandular": 5078,
      "ergosterol": 5079,
      "mia": 5080,
      "phenylpyruvate": 5081,
      "telophase": 5082,
      "lipidation": 5083,
      "gamy": 5084,
      "ternary": 5085,
      "bacteria": 5086,
      "cyclopent": 5087,
      "quinol": 5088,
      "piper": 5089,
      "lactosylceramide": 5090,
      "nitroimidazole": 5091,
      "antis": 5092,
      "lich": 5093,
      "enoic": 5094,
      "presenting": 5095,
      "citrul": 5096,
      "basid": 5097,
      "exocyst": 5098,
      "desmosome": 5099,
      "glucuronyl": 5100,
      "glucuronidase": 5101,
      "glucuronoxylan": 5102,
      "pantethe": 5103,
      "priming": 5104,
      "circular": 5105,
      "fructan": 5106,
      "defecation": 5107,
      "octaprenyl": 5108,
      "angioblast": 5109,
      "dicty": 5110,
      "dichotomous": 5111,
      "copene": 5112,
      "progression": 5113,
      "flavone": 5114,
      "arabinitol": 5115,
      "h3k27": 5116,
      "pancreas": 5117,
      "sieve": 5118,
      "xanthin": 5119,
      "xanthone": 5120,
      "thiazole": 5121,
      "thiazol": 5122,
      "aggreg": 5123,
      "stokinin": 5124,
      "methylthiopropyl": 5125,
      "phytoene": 5126,
      "epoxygenase": 5127,
      "multiple": 5128,
      "vasoactive": 5129,
      "sterigmato": 5130,
      "thylamine": 5131,
      "ovulation": 5132,
      "anning": 5133,
      "mispair": 5134,
      "icosatetra": 5135,
      "formyltetrahydrofolate": 5136,
      "heparin": 5137,
      "necroptotic": 5138,
      "poietin": 5139,
      "mannosylglycoprotein": 5140,
      "ofuranose": 5141,
      "alkaline": 5142,
      "23s": 5143,
      "zymogen": 5144,
      "erbb3": 5145,
      "ferrichro": 5146,
      "nitrilase": 5147,
      "metallopeptidase": 5148,
      "hindgut": 5149,
      "radical": 5150,
      "acetoin": 5151,
      "nonadeca": 5152,
      "leaflet": 5153,
      "isopropylmalate": 5154,
      "locomotory": 5155,
      "stromal": 5156,
      "digestion": 5157,
      "arsenic": 5158,
      "arsenate": 5159,
      "lamellar": 5160,
      "selenium": 5161,
      "acetylgalactosaminyl": 5162,
      "epigenetic": 5163,
      "pyranose": 5164,
      "sumoylation": 5165,
      "gentio": 5166,
      "thromboxane": 5167,
      "phosphoribosylamino": 5168,
      "pharynx": 5169,
      "chromoplast": 5170,
      "palmitole": 5171,
      "myristoyl": 5172,
      "endosulfan": 5173,
      "invasion": 5174,
      "brown": 5175,
      "chorionic": 5176,
      "corticosteroid": 5177,
      "spermatid": 5178,
      "vestibular": 5179,
      "vestibulo": 5180,
      "rectional": 5181,
      "thecin": 5182,
      "diacetylchitobiose": 5183,
      "amphid": 5184,
      "zygote": 5185,
      "magnetoreception": 5186,
      "octadecene": 5187,
      "encapsulation": 5188,
      "compensation": 5189,
      "osmosensory": 5190,
      "antennal": 5191,
      "bitter": 5192,
      "gyr": 5193,
      "catechu": 5194,
      "odontogenesis": 5195,
      "pentadecane": 5196,
      "trypanothione": 5197,
      "medulla": 5198,
      "heptadecane": 5199,
      "fragmentation": 5200,
      "grb2": 5201,
      "nurse": 5202,
      "tatiopterin": 5203,
      "deaminating": 5204,
      "cytolysis": 5205,
      "aprenol": 5206,
      "source": 5207,
      "papilla": 5208,
      "ionotropic": 5209,
      "tridecane": 5210,
      "phosphofructokinase": 5211,
      "myocardium": 5212,
      "ephrin": 5213,
      "vulval": 5214,
      "melibiose": 5215,
      "degrad": 5216,
      "tianamine": 5217,
      "distribution": 5218,
      "alkanesulfonate": 5219,
      "rhabdomere": 5220,
      "hypophysis": 5221,
      "pruning": 5222,
      "visceral": 5223,
      "primordium": 5224,
      "conidiophore": 5225,
      "aflatoxin": 5226,
      "ire1": 5227,
      "naringenin": 5228,
      "otolith": 5229,
      "roundabout": 5230,
      "inflorescence": 5231,
      "environment": 5232,
      "encystment": 5233,
      "severing": 5234,
      "cobinamide": 5235,
      "desulfoglucosinolate": 5236,
      "dibenzothiophene": 5237,
      "conductance": 5238,
      "plasminogen": 5239,
      "mercapto": 5240,
      "endochondral": 5241,
      "cholangiocyte": 5242,
      "cholecystokinin": 5243,
      "vasculogenesis": 5244,
      "sterigmatocystin": 5245,
      "ferrichrome": 5246,
      "'',": 5247,
      "1c": 5248,
      "5beta": 5249,
      "60": 5250,
      "79": 5251,
      "a3": 5252,
      "ach": 5253,
      "aero": 5254,
      "ba": 5255,
      "case": 5256,
      "colic": 5257,
      "d4": 5258,
      "dos": 5259,
      "dcmp": 5260,
      "drug": 5261,
      "e2": 5262,
      "e3": 5263,
      "ehr": 5264,
      "f3": 5265,
      "ff": 5266,
      "fra": 5267,
      "ffle": 5268,
      "gio": 5269,
      "grain": 5270,
      "g15": 5271,
      "ice": 5272,
      "igenin": 5273,
      "lith": 5274,
      "liver": 5275,
      "lbene": 5276,
      "mcm": 5277,
      "n3": 5278,
      "n5": 5279,
      "nh": 5280,
      "nase": 5281,
      "npl": 5282,
      "nmda": 5283,
      "ob": 5284,
      "oh": 5285,
      "p6": 5286,
      "pus": 5287,
      "pum": 5288,
      "pass": 5289,
      "pithe": 5290,
      "ptero": 5291,
      "rap": 5292,
      "rab": 5293,
      "spe": 5294,
      "sno": 5295,
      "sino": 5296,
      "sense": 5297,
      "spect": 5298,
      "tle": 5299,
      "taneous": 5300,
      "xine": 5301,
      "ying": 5302,
      "iodicty": 5303,
      "icon": 5304,
      "align": 5305,
      "pronucleus": 5306,
      "ssy": 5307,
      "ssive": 5308,
      "atan": 5309,
      "athy": 5310,
      "atric": 5311,
      "cessory": 5312,
      "inulin": 5313,
      "lone": 5314,
      "loader": 5315,
      "bioside": 5316,
      "ctive": 5317,
      "archae": 5318,
      "retraction": 5319,
      "ola": 5320,
      "old": 5321,
      "ites": 5322,
      "enal": 5323,
      "enco": 5324,
      "anil": 5325,
      "semi": 5326,
      "coca": 5327,
      "copal": 5328,
      "cotranslational": 5329,
      "ering": 5330,
      "eriodicty": 5331,
      "trk": 5332,
      "phing": 5333,
      "phrod": 5334,
      "ention": 5335,
      "dethio": 5336,
      "ylglycine": 5337,
      "thetic": 5338,
      "new": 5339,
      "ness": 5340,
      "netin": 5341,
      "transglutaminase": 5342,
      "ospon": 5343,
      "osci": 5344,
      "oscis": 5345,
      "osperm": 5346,
      "oskar": 5347,
      "pons": 5348,
      "idonate": 5349,
      "idiol": 5350,
      "isg15": 5351,
      "ticular": 5352,
      "chry": 5353,
      "dimerization": 5354,
      "didemethyl": 5355,
      "amn": 5356,
      "terti": 5357,
      "accessory": 5358,
      "ferulate": 5359,
      "phosphod": 5360,
      "ricetin": 5361,
      "limit": 5362,
      "endoderm": 5363,
      "lytic": 5364,
      "lycopene": 5365,
      "adhes": 5366,
      "acetone": 5367,
      "foraging": 5368,
      "maphrod": 5369,
      "imar": 5370,
      "imens": 5371,
      "nuclease": 5372,
      "beta4": 5373,
      "gemin": 5374,
      "methyladenosine": 5375,
      "methylcytosine": 5376,
      "start": 5377,
      "dnaa": 5378,
      "dnab": 5379,
      "hydroxyglutarate": 5380,
      "hydroxyvalerate": 5381,
      "ible": 5382,
      "ilin": 5383,
      "intercal": 5384,
      "aminobutyrate": 5385,
      "aminomutase": 5386,
      "peric": 5387,
      "synaptone": 5388,
      "ulfate": 5389,
      "ribo": 5390,
      "epib": 5391,
      "pyo": 5392,
      "pylo": 5393,
      "monoubiquitination": 5394,
      "down": 5395,
      "sulfon": 5396,
      "sulfido": 5397,
      "mycol": 5398,
      "myricetin": 5399,
      "abie": 5400,
      "antipod": 5401,
      "labyrin": 5402,
      "tubulation": 5403,
      "tamen": 5404,
      "intronic": 5405,
      "utive": 5406,
      "galactarate": 5407,
      "thelial": 5408,
      "urene": 5409,
      "tripeptide": 5410,
      "triacetate": 5411,
      "ruffle": 5412,
      "glyceryl": 5413,
      "cent": 5414,
      "centric": 5415,
      "cavit": 5416,
      "kinesin": 5417,
      "lonate": 5418,
      "deoxyuridine": 5419,
      "deoxycytidine": 5420,
      "cholinergic": 5421,
      "polarized": 5422,
      "substit": 5423,
      "othione": 5424,
      "collar": 5425,
      "phytos": 5426,
      "lipoate": 5427,
      "lipoxin": 5428,
      "arbus": 5429,
      "fibrinogen": 5430,
      "ergothione": 5431,
      "tinate": 5432,
      "phosphatidylinositolethanolamine": 5433,
      "oxobutanoate": 5434,
      "streptomycin": 5435,
      "ulokinase": 5436,
      "ulosome": 5437,
      "hexaprenyl": 5438,
      "hexokinase": 5439,
      "ryanod": 5440,
      "edg": 5441,
      "tetraphosphate": 5442,
      "tetraose": 5443,
      "phenylprop": 5444,
      "phenylpropionate": 5445,
      "illary": 5446,
      "pentyl": 5447,
      "versic": 5448,
      "ensed": 5449,
      "tyrosyl": 5450,
      "bicellular": 5451,
      "macropinocytosis": 5452,
      "quinolinate": 5453,
      "homeost": 5454,
      "elongase": 5455,
      "nonsense": 5456,
      "chromosomal": 5457,
      "lactaldehyde": 5458,
      "condition": 5459,
      "condensed": 5460,
      "trophectodermal": 5461,
      "thymic": 5462,
      "exocytic": 5463,
      "torc2": 5464,
      "septation": 5465,
      "lariciresinol": 5466,
      "halide": 5467,
      "orene": 5468,
      "nephrocyte": 5469,
      "dihydroxyphenyl": 5470,
      "aldoxime": 5471,
      "primitive": 5472,
      "lysyl": 5473,
      "pericentric": 5474,
      "units": 5475,
      "electro": 5476,
      "h2ak": 5477,
      "carboxymethyl": 5478,
      "arabinan": 5479,
      "glutathion": 5480,
      "maltodextrin": 5481,
      "brio": 5482,
      "brca": 5483,
      "hypothalamus": 5484,
      "plasmid": 5485,
      "cleaving": 5486,
      "promoting": 5487,
      "mucus": 5488,
      "silver": 5489,
      "xanthosine": 5490,
      "acetylglucosaminidase": 5491,
      "phosphatidate": 5492,
      "ectoderm": 5493,
      "pyrophosphatase": 5494,
      "pyrophosphorylase": 5495,
      "epoxy": 5496,
      "nicotianamine": 5497,
      "erythromycin": 5498,
      "cd47": 5499,
      "cerebellum": 5500,
      "focus": 5501,
      "game": 5502,
      "sterification": 5503,
      "protoporphyrinogen": 5504,
      "protocatechu": 5505,
      "foreign": 5506,
      "prostatic": 5507,
      "shunt": 5508,
      "mechanosensory": 5509,
      "uropod": 5510,
      "imidaz": 5511,
      "hydroxymethylglutaryl": 5512,
      "kainate": 5513,
      "kaurene": 5514,
      "mannosylglycerate": 5515,
      "glycosylphosphatidylinositolethanolamine": 5516,
      "trachea": 5517,
      "cinnamic": 5518,
      "cinnamate": 5519,
      "keratan": 5520,
      "erbb2": 5521,
      "salicylate": 5522,
      "hydroxylysine": 5523,
      "thymidine": 5524,
      "furfural": 5525,
      "acquired": 5526,
      "pentaphosphate": 5527,
      "circulatory": 5528,
      "pinoresinol": 5529,
      "snornp": 5530,
      "lysophosphatidic": 5531,
      "ccr7": 5532,
      "phosphorylceramide": 5533,
      "amyloplast": 5534,
      "thrombospon": 5535,
      "tfiih": 5536,
      "borate": 5537,
      "hermaphrod": 5538,
      "diameter": 5539,
      "noradrenergic": 5540,
      "undecaprenol": 5541,
      "dsrna": 5542,
      "dsdna": 5543,
      "hyaluronan": 5544,
      "glutaminyl": 5545,
      "podosome": 5546,
      "pherol": 5547,
      "galactomannan": 5548,
      "palmitate": 5549,
      "nodule": 5550,
      "acinar": 5551,
      "acinus": 5552,
      "chelatase": 5553,
      "bacteriochlorophyll": 5554,
      "arabinogalactan": 5555,
      "psii": 5556,
      "phytyl": 5557,
      "uccin": 5558,
      "ferrous": 5559,
      "uridylation": 5560,
      "linoleate": 5561,
      "chlorinase": 5562,
      "yllysine": 5563,
      "transepithe": 5564,
      "transesterification": 5565,
      "allantoin": 5566,
      "spontaneous": 5567,
      "telencephalon": 5568,
      "tagat": 5569,
      "extrathy": 5570,
      "crystal": 5571,
      "dentin": 5572,
      "equator": 5573,
      "scaffold": 5574,
      "tropism": 5575,
      "sinapate": 5576,
      "dimethylallyltransferase": 5577,
      "aggressive": 5578,
      "hercynylcysteine": 5579,
      "competence": 5580,
      "morphine": 5581,
      "phenylethylamine": 5582,
      "scleroti": 5583,
      "bronchus": 5584,
      "dodec": 5585,
      "phosphoserine": 5586,
      "perinuclear": 5587,
      "citramalate": 5588,
      "supramolecular": 5589,
      "sulfoquinovose": 5590,
      "threonylcarbamoyladenosine": 5591,
      "clim": 5592,
      "iferyl": 5593,
      "orotate": 5594,
      "pregn": 5595,
      "proboscis": 5596,
      "tocopherol": 5597,
      "addition": 5598,
      "queuosine": 5599,
      "antisense": 5600,
      "citrulline": 5601,
      "aggregate": 5602,
      "dosage": 5603,
      "ehrlich": 5604,
      "lithium": 5605,
      "npl4": 5606,
      "sinoatrial": 5607,
      "alignment": 5608,
      "encoded": 5609,
      "aniline": 5610,
      "cocaine": 5611,
      "eriodictyol": 5612,
      "oscill": 5613,
      "tertiary": 5614,
      "adhesive": 5615,
      "imensional": 5616,
      "synaptonemal": 5617,
      "abieta": 5618,
      "antipodal": 5619,
      "labyrinth": 5620,
      "cavitation": 5621,
      "ergothioneine": 5622,
      "ryanodine": 5623,
      "thrombospondin": 5624,
      "transepithelial": 5625,
      "extrathymic": 5626,
      "56": 5627,
      "9beta": 5628,
      "aim": 5629,
      "aut": 5630,
      "ajug": 5631,
      "abiotic": 5632,
      "bub": 5633,
      "berg": 5634,
      "cculation": 5635,
      "cvt": 5636,
      "d2": 5637,
      "dr": 5638,
      "dylation": 5639,
      "damp": 5640,
      "dadp": 5641,
      "dgdp": 5642,
      "dctp": 5643,
      "dump": 5644,
      "emin": 5645,
      "emod": 5646,
      "fb": 5647,
      "ful": 5648,
      "fing": 5649,
      "gp": 5650,
      "gase": 5651,
      "hsp": 5652,
      "hla": 5653,
      "hite": 5654,
      "ias": 5655,
      "irectional": 5656,
      "kk": 5657,
      "ko": 5658,
      "kit": 5659,
      "kis": 5660,
      "ler": 5661,
      "lid": 5662,
      "lanth": 5663,
      "lncrna": 5664,
      "mac": 5665,
      "mil": 5666,
      "oy": 5667,
      "ocular": 5668,
      "omycin": 5669,
      "oarabinoxylan": 5670,
      "ris": 5671,
      "rac": 5672,
      "rcinol": 5673,
      "sive": 5674,
      "s10": 5675,
      "shel": 5676,
      "saga": 5677,
      "stamen": 5678,
      "turon": 5679,
      "u5": 5680,
      "uation": 5681,
      "uch": 5682,
      "uted": 5683,
      "vic": 5684,
      "vity": 5685,
      "volic": 5686,
      "vative": 5687,
      "vcp": 5688,
      "wax": 5689,
      "white": 5690,
      "xate": 5691,
      "xisomal": 5692,
      "ykinin": 5693,
      "ror": 5694,
      "roside": 5695,
      "roff": 5696,
      "icular": 5697,
      "icty": 5698,
      "icidin": 5699,
      "alg": 5700,
      "allo": 5701,
      "alumin": 5702,
      "prophase": 5703,
      "proturon": 5704,
      "ions": 5705,
      "atching": 5706,
      "inity": 5707,
      "inactivity": 5708,
      "inactivation": 5709,
      "lobe": 5710,
      "losion": 5711,
      "lotriacetate": 5712,
      "arch": 5713,
      "arug": 5714,
      "arp2": 5715,
      "recept": 5716,
      "reser": 5717,
      "itation": 5718,
      "itary": 5719,
      "anhyd": 5720,
      "serin": 5721,
      "sector": 5722,
      "pof": 5723,
      "poptosome": 5724,
      "acteroid": 5725,
      "ecgon": 5726,
      "eclosion": 5727,
      "molting": 5728,
      "erine": 5729,
      "error": 5730,
      "llent": 5731,
      "trig": 5732,
      "trii": 5733,
      "cellulosome": 5734,
      "mero": 5735,
      "oral": 5736,
      "oricin": 5737,
      "ortho": 5738,
      "less": 5739,
      "lept": 5740,
      "lead": 5741,
      "entner": 5742,
      "deep": 5743,
      "dehis": 5744,
      "therm": 5745,
      "commi": 5746,
      "neme": 5747,
      "neos": 5748,
      "transaldolase": 5749,
      "translesion": 5750,
      "osus": 5751,
      "osacchar": 5752,
      "pontin": 5753,
      "tere": 5754,
      "tocin": 5755,
      "toblast": 5756,
      "ida": 5757,
      "isin": 5758,
      "ch2": 5759,
      "chano": 5760,
      "chimer": 5761,
      "diment": 5762,
      "dipeptidase": 5763,
      "diglucoside": 5764,
      "digalactosyldiacylglycerol": 5765,
      "posure": 5766,
      "amme": 5767,
      "onco": 5768,
      "onoid": 5769,
      "onisin": 5770,
      "acaro": 5771,
      "acitation": 5772,
      "porin": 5773,
      "cyr": 5774,
      "hydration": 5775,
      "asterol": 5776,
      "aspyrid": 5777,
      "ascending": 5778,
      "phosphono": 5779,
      "menth": 5780,
      "ripoptosome": 5781,
      "liated": 5782,
      "responsive": 5783,
      "mossy": 5784,
      "signalosome": 5785,
      "uric": 5786,
      "ducen": 5787,
      "dutp": 5788,
      "duplication": 5789,
      "adrenal": 5790,
      "adykinin": 5791,
      "bearing": 5792,
      "pathogen": 5793,
      "felin": 5794,
      "forward": 5795,
      "ublet": 5796,
      "cellularization": 5797,
      "formyltransferase": 5798,
      "formim": 5799,
      "formamide": 5800,
      "steviol": 5801,
      "nucleated": 5802,
      "viii": 5803,
      "plasmatocyte": 5804,
      "calc": 5805,
      "callose": 5806,
      "acetanilide": 5807,
      "ferent": 5808,
      "micturition": 5809,
      "exposure": 5810,
      "glucokinase": 5811,
      "glucopyranosyl": 5812,
      "oxytocin": 5813,
      "methylmethionine": 5814,
      "dehydroepi": 5815,
      "dehydroaustinol": 5816,
      "dehydrochlorinase": 5817,
      "odicty": 5818,
      "cibar": 5819,
      "ciliated": 5820,
      "monodicty": 5821,
      "kemia": 5822,
      "hydroxymethyltransferase": 5823,
      "hydroxycyclohex": 5824,
      "hydroxybenzoyl": 5825,
      "aminopeptidase": 5826,
      "aminoethyl": 5827,
      "aminobenzoyl": 5828,
      "endocro": 5829,
      "traf": 5830,
      "pericardium": 5831,
      "acetylenic": 5832,
      "factors": 5833,
      "iia": 5834,
      "ribofuran": 5835,
      "ribosylation": 5836,
      "parturition": 5837,
      "apiose": 5838,
      "leukemia": 5839,
      "doudo": 5840,
      "doublet": 5841,
      "sulfation": 5842,
      "galanin": 5843,
      "abducen": 5844,
      "corn": 5845,
      "cortin": 5846,
      "mesh": 5847,
      "muller": 5848,
      "anoreceptor": 5849,
      "anoylation": 5850,
      "displace": 5851,
      "phosphoadenosine": 5852,
      "phosphogluconate": 5853,
      "enzy": 5854,
      "sopho": 5855,
      "galactinol": 5856,
      "stilbene": 5857,
      "urease": 5858,
      "trimethyltransferase": 5859,
      "triazine": 5860,
      "tono": 5861,
      "tongue": 5862,
      "isoprop": 5863,
      "isoproturon": 5864,
      "neuroendocrine": 5865,
      "rudiment": 5866,
      "dioxo": 5867,
      "diorcinol": 5868,
      "oxidized": 5869,
      "stimulatory": 5870,
      "glutamyltransferase": 5871,
      "linal": 5872,
      "linol": 5873,
      "guard": 5874,
      "hook": 5875,
      "capro": 5876,
      "kinetic": 5877,
      "iral": 5878,
      "chemorepe": 5879,
      "chemotactic": 5880,
      "nucleocytoplasmic": 5881,
      "deoxyadenosine": 5882,
      "chlorate": 5883,
      "trichoblast": 5884,
      "venosus": 5885,
      "salinity": 5886,
      "glycocalyx": 5887,
      "phosphoric": 5888,
      "avoid": 5889,
      "benzaldehyde": 5890,
      "acylhydrolase": 5891,
      "phytol": 5892,
      "lipophagy": 5893,
      "inductive": 5894,
      "flap": 5895,
      "peroxisomal": 5896,
      "propyltransferase": 5897,
      "fibrin": 5898,
      "cineole": 5899,
      "agillin": 5900,
      "smotic": 5901,
      "cdc4": 5902,
      "reticulo": 5903,
      "artoricin": 5904,
      "capacitation": 5905,
      "character": 5906,
      "endothelium": 5907,
      "autono": 5908,
      "phagolysosome": 5909,
      "pentacycl": 5910,
      "thioesterase": 5911,
      "thiocyanate": 5912,
      "glycosaminoglycan": 5913,
      "azep": 5914,
      "germinal": 5915,
      "gerfelin": 5916,
      "otene": 5917,
      "bilirub": 5918,
      "cycloisomerase": 5919,
      "cyclopropyl": 5920,
      "pipec": 5921,
      "homomethionine": 5922,
      "nonself": 5923,
      "ociation": 5924,
      "cytokinetic": 5925,
      "argin": 5926,
      "nitrophenol": 5927,
      "trophin": 5928,
      "redox": 5929,
      "oligosacchar": 5930,
      "palate": 5931,
      "torc1": 5932,
      "glucuronoside": 5933,
      "glucuronoarabinoxylan": 5934,
      "glucanase": 5935,
      "bicyclic": 5936,
      "arabinos": 5937,
      "heterochronic": 5938,
      "adpg": 5939,
      "carbonyl": 5940,
      "succinylation": 5941,
      "orexin": 5942,
      "butan": 5943,
      "butanediol": 5944,
      "primase": 5945,
      "gravit": 5946,
      "17a": 5947,
      "fluence": 5948,
      "fluorene": 5949,
      "polysome": 5950,
      "pinosome": 5951,
      "uronic": 5952,
      "etioplast": 5953,
      "fts": 5954,
      "defenses": 5955,
      "helvolic": 5956,
      "flavanone": 5957,
      "ethylbenzene": 5958,
      "turning": 5959,
      "demethylkotanin": 5960,
      "bradykinin": 5961,
      "hypogloss": 5962,
      "propionic": 5963,
      "xylitol": 5964,
      "muts": 5965,
      "mutual": 5966,
      "siro": 5967,
      "glycerophospholipid": 5968,
      "pseuro": 5969,
      "methylthiotransferase": 5970,
      "phytochromo": 5971,
      "intestine": 5972,
      "flagellated": 5973,
      "scyllo": 5974,
      "philic": 5975,
      "241": 5976,
      "constitutive": 5977,
      "cd40": 5978,
      "foam": 5979,
      "halogen": 5980,
      "flocculation": 5981,
      "adenosylcobinamide": 5982,
      "cyclohexa": 5983,
      "cyclohexyl": 5984,
      "mechanoreceptor": 5985,
      "naphthyl": 5986,
      "cumate": 5987,
      "cumulus": 5988,
      "fumonisin": 5989,
      "fumagillin": 5990,
      "urothelial": 5991,
      "glucosylglycerol": 5992,
      "asparaginyl": 5993,
      "karyosome": 5994,
      "zeacaro": 5995,
      "necrotic": 5996,
      "ganglionic": 5997,
      "vocal": 5998,
      "intraepithelial": 5999,
      "nitrilotriacetate": 6000,
      "olactonase": 6001,
      "hydroxylating": 6002,
      "osteopontin": 6003,
      "analia": 6004,
      "centriolar": 6005,
      "hexaose": 6006,
      "swi": 6007,
      "sporocarp": 6008,
      "melanocortin": 6009,
      "jasmonate": 6010,
      "zona": 6011,
      "pentaose": 6012,
      "erythrobilin": 6013,
      "selenate": 6014,
      "selenite": 6015,
      "fucosidase": 6016,
      "reducing": 6017,
      "ccr4": 6018,
      "thrombin": 6019,
      "interactions": 6020,
      "prolyl": 6021,
      "mevalonic": 6022,
      "palmitic": 6023,
      "prenylcysteine": 6024,
      "myristoyltransferase": 6025,
      "ufd1": 6026,
      "neopterin": 6027,
      "diphosphokinase": 6028,
      "porphyrin": 6029,
      "cutin": 6030,
      "organophosphate": 6031,
      "mycothiol": 6032,
      "sinapoyltransferase": 6033,
      "emericellin": 6034,
      "acetylesterase": 6035,
      "dihydrodiolphenanthrene": 6036,
      "isoflavonoid": 6037,
      "h4k20": 6038,
      "conidium": 6039,
      "chlorinated": 6040,
      "thermogenesis": 6041,
      "phycoerythrobilin": 6042,
      "nitrosative": 6043,
      "nitrosylation": 6044,
      "gliotoxin": 6045,
      "magnet": 6046,
      "spongio": 6047,
      "thickening": 6048,
      "dissociation": 6049,
      "fluoro": 6050,
      "adiponectin": 6051,
      "phylloquinone": 6052,
      "translocon": 6053,
      "generating": 6054,
      "asperfuranone": 6055,
      "asperthecin": 6056,
      "feeding": 6057,
      "feedback": 6058,
      "carboxylation": 6059,
      "thyrotropin": 6060,
      "9775a": 6061,
      "9775b": 6062,
      "pupal": 6063,
      "vitel": 6064,
      "hemicellulose": 6065,
      "glycinergic": 6066,
      "boidal": 6067,
      "weight": 6068,
      "alveolus": 6069,
      "recru": 6070,
      "trinitrotoluene": 6071,
      "conservative": 6072,
      "clavine": 6073,
      "fibrillary": 6074,
      "initiating": 6075,
      "campest": 6076,
      "tautomerase": 6077,
      "ameboidal": 6078,
      "ciculation": 6079,
      "prosthetic": 6080,
      "enucleation": 6081,
      "histidyl": 6082,
      "crista": 6083,
      "tungsten": 6084,
      "pyramidal": 6085,
      "orsellinic": 6086,
      "istics": 6087,
      "hyperosmotic": 6088,
      "cordyol": 6089,
      "pantetheine": 6090,
      "gyrus": 6091,
      "degradation": 6092,
      "dethiobiotin": 6093,
      "epiboly": 6094,
      "pyloric": 6095,
      "mycolate": 6096,
      "substituted": 6097,
      "phenylpropanoid": 6098,
      "homeostatic": 6099,
      "protocatechuate": 6100,
      "tagatose": 6101,
      "equatorial": 6102,
      "pregnan": 6103,
      "oscillatory": 6104,
      "labyrinthine": 6105,
      "ajugose": 6106,
      "emodin": 6107,
      "koj": 6108,
      "lanthionine": 6109,
      "aluminum": 6110,
      "arugosin": 6111,
      "receptivity": 6112,
      "serinyl": 6113,
      "triiron": 6114,
      "leptin": 6115,
      "dehiscence": 6116,
      "commiss": 6117,
      "neosartoricin": 6118,
      "chanoclavine": 6119,
      "chimeric": 6120,
      "aspyridone": 6121,
      "formimido": 6122,
      "dehydroepiandrosterone": 6123,
      "cibarial": 6124,
      "monodictyphenone": 6125,
      "aminoethylphosphonate": 6126,
      "endocrocin": 6127,
      "ribofuranosyl": 6128,
      "doudoroff": 6129,
      "abducens": 6130,
      "mullerian": 6131,
      "displacement": 6132,
      "chemorepellent": 6133,
      "avoidance": 6134,
      "characteristics": 6135,
      "pentacyclic": 6136,
      "bilirubin": 6137,
      "hypoglossal": 6138,
      "pseurotin": 6139,
      "phytochromobilin": 6140,
      "zeacarotene": 6141,
      "+,": 6142,
      "+]": 6143,
      "1p": 6144,
      "2b": 6145,
      "2h": 6146,
      "2p": 6147,
      "2fe": 6148,
      "3b": 6149,
      "4f": 6150,
      "4fe": 6151,
      "4beta": 6152,
      "53": 6153,
      "54": 6154,
      "63": 6155,
      "6c": 6156,
      "9r": 6157,
      "9alpha": 6158,
      "9glcnac2": 6159,
      "a9": 6160,
      "ape": 6161,
      "amel": 6162,
      "aurine": 6163,
      "achromo": 6164,
      "apyrimidin": 6165,
      "bd": 6166,
      "bular": 6167,
      "blet": 6168,
      "cg": 6169,
      "city": 6170,
      "cly": 6171,
      "cket": 6172,
      "dl": 6173,
      "dul": 6174,
      "dle": 6175,
      "dgmp": 6176,
      "ddt": 6177,
      "dcdp": 6178,
      "dened": 6179,
      "diterpene": 6180,
      "ece": 6181,
      "eis": 6182,
      "eli": 6183,
      "ejection": 6184,
      "fr": 6185,
      "gast": 6186,
      "hm": 6187,
      "hul": 6188,
      "hod": 6189,
      "hance": 6190,
      "hatching": 6191,
      "iq": 6192,
      "ike": 6193,
      "kch": 6194,
      "k12": 6195,
      "k11": 6196,
      "l3": 6197,
      "lh": 6198,
      "mure": 6199,
      "ni": 6200,
      "ns": 6201,
      "nig": 6202,
      "nary": 6203,
      "nfat": 6204,
      "nosine": 6205,
      "nip": 6206,
      "ove": 6207,
      "omain": 6208,
      "opharyngeal": 6209,
      "oculo": 6210,
      "ogamy": 6211,
      "p1": 6212,
      "pk": 6213,
      "pamine": 6214,
      "psi": 6215,
      "plice": 6216,
      "ptamine": 6217,
      "p21": 6218,
      "rit": 6219,
      "rase": 6220,
      "ritin": 6221,
      "ridge": 6222,
      "rnase": 6223,
      "s6": 6224,
      "san": 6225,
      "sos": 6226,
      "sam": 6227,
      "samin": 6228,
      "sim": 6229,
      "skin": 6230,
      "scar": 6231,
      "sidase": 6232,
      "spot": 6233,
      "shc": 6234,
      "smn": 6235,
      "srp": 6236,
      "scission": 6237,
      "t4": 6238,
      "tte": 6239,
      "tmp": 6240,
      "tgf": 6241,
      "tnf": 6242,
      "u1": 6243,
      "ute": 6244,
      "uti": 6245,
      "uitary": 6246,
      "vio": 6247,
      "vind": 6248,
      "vast": 6249,
      "vulin": 6250,
      "vana": 6251,
      "xl": 6252,
      "xmp": 6253,
      "yn": 6254,
      "yas": 6255,
      "zole": 6256,
      "romo": 6257,
      "rocin": 6258,
      "rospinal": 6259,
      "alb": 6260,
      "altr": 6261,
      "alle": 6262,
      "pronuclear": 6263,
      "ssdna": 6264,
      "ata": 6265,
      "atg1": 6266,
      "inoth": 6267,
      "loch": 6268,
      "lonitrile": 6269,
      "ulene": 6270,
      "ulk1": 6271,
      "loganin": 6272,
      "arib": 6273,
      "articular": 6274,
      "refolding": 6275,
      "rexate": 6276,
      "olate": 6277,
      "olide": 6278,
      "itr": 6279,
      "itud": 6280,
      "iviral": 6281,
      "enamel": 6282,
      "enhance": 6283,
      "ans": 6284,
      "anand": 6285,
      "antin": 6286,
      "seven": 6287,
      "seminal": 6288,
      "cose": 6289,
      "cocl": 6290,
      "erc": 6291,
      "erk1": 6292,
      "erk2": 6293,
      "regulin": 6294,
      "regression": 6295,
      "lline": 6296,
      "tride": 6297,
      "trating": 6298,
      "phatic": 6299,
      "orine": 6300,
      "desic": 6301,
      "debranching": 6302,
      "demethoxy": 6303,
      "comma": 6304,
      "comycin": 6305,
      "transit": 6306,
      "transposition": 6307,
      "tell": 6308,
      "tele": 6309,
      "touch": 6310,
      "idp": 6311,
      "idene": 6312,
      "tapet": 6313,
      "cho": 6314,
      "cheno": 6315,
      "chias": 6316,
      "dient": 6317,
      "dideoxy": 6318,
      "dibenz": 6319,
      "diphenyl": 6320,
      "diiron": 6321,
      "diphth": 6322,
      "diphosphod": 6323,
      "dibular": 6324,
      "nazole": 6325,
      "amb": 6326,
      "amidine": 6327,
      "amidation": 6328,
      "amidino": 6329,
      "amotene": 6330,
      "gence": 6331,
      "generate": 6332,
      "mbrin": 6333,
      "ontal": 6334,
      "onitro": 6335,
      "olichol": 6336,
      "tert": 6337,
      "terin": 6338,
      "hypho": 6339,
      "hypha": 6340,
      "acrine": 6341,
      "acclim": 6342,
      "synerg": 6343,
      "cys": 6344,
      "asin": 6345,
      "astic": 6346,
      "ferring": 6347,
      "ferritin": 6348,
      "clea": 6349,
      "cleisto": 6350,
      "oxanthin": 6351,
      "oxorubicin": 6352,
      "menthol": 6353,
      "escule": 6354,
      "rides": 6355,
      "lia": 6356,
      "life": 6357,
      "lification": 6358,
      "mode": 6359,
      "motive": 6360,
      "glutin": 6361,
      "platin": 6362,
      "methot": 6363,
      "methenyl": 6364,
      "velocity": 6365,
      "involving": 6366,
      "izer": 6367,
      "izontal": 6368,
      "rnai": 6369,
      "aminole": 6370,
      "ubin": 6371,
      "max": 6372,
      "maffin": 6373,
      "acidic": 6374,
      "contro": 6375,
      "formylation": 6376,
      "spanning": 6377,
      "spike": 6378,
      "omedul": 6379,
      "kininogen": 6380,
      "carpel": 6381,
      "carnosine": 6382,
      "ronine": 6383,
      "glycyr": 6384,
      "plasia": 6385,
      "acetolactate": 6386,
      "acetaldoxime": 6387,
      "ference": 6388,
      "organos": 6389,
      "organonitro": 6390,
      "organizer": 6391,
      "expan": 6392,
      "methylated": 6393,
      "methylmercury": 6394,
      "static": 6395,
      "mitogen": 6396,
      "dnac": 6397,
      "odoxin": 6398,
      "odomain": 6399,
      "cible": 6400,
      "alpha1": 6401,
      "alpha2": 6402,
      "alpha7": 6403,
      "quater": 6404,
      "retention": 6405,
      "ductus": 6406,
      "polyol": 6407,
      "polymeric": 6408,
      "polyprenol": 6409,
      "hydroxyacid": 6410,
      "hydroxyprogesterone": 6411,
      "ilt": 6412,
      "aminocarboxy": 6413,
      "aminohexanoate": 6414,
      "aminobenzenesulfonate": 6415,
      "peris": 6416,
      "persulfido": 6417,
      "ground": 6418,
      "groove": 6419,
      "ifting": 6420,
      "anced": 6421,
      "premature": 6422,
      "parkin": 6423,
      "parano": 6424,
      "monomethyltransferase": 6425,
      "apurin": 6426,
      "apigenin": 6427,
      "aryocyte": 6428,
      "mini": 6429,
      "chelate": 6430,
      "abaxial": 6431,
      "proliferator": 6432,
      "meso": 6433,
      "mesendodermal": 6434,
      "lav": 6435,
      "radiene": 6436,
      "apoptosome": 6437,
      "intact": 6438,
      "utase": 6439,
      "phosphoprotein": 6440,
      "phosphohydrolase": 6441,
      "phosphoadenylyl": 6442,
      "soma": 6443,
      "sobactin": 6444,
      "soyas": 6445,
      "galactolipid": 6446,
      "phenolic": 6447,
      "phenyll": 6448,
      "adenosyltransferase": 6449,
      "ureth": 6450,
      "uretic": 6451,
      "axo": 6452,
      "trochlear": 6453,
      "troponin": 6454,
      "isoval": 6455,
      "isoamylase": 6456,
      "isobutanol": 6457,
      "oleate": 6458,
      "neurofibrillary": 6459,
      "microglia": 6460,
      "microfibril": 6461,
      "man9glcnac2": 6462,
      "glutamylation": 6463,
      "hot": 6464,
      "caax": 6465,
      "kinesis": 6466,
      "horizontal": 6467,
      "chromaffin": 6468,
      "deoxystre": 6469,
      "deoxyinosine": 6470,
      "deoxycholate": 6471,
      "cholesta": 6472,
      "chloram": 6473,
      "importing": 6474,
      "polarisome": 6475,
      "subtype": 6476,
      "neurons": 6477,
      "acylating": 6478,
      "decroton": 6479,
      "inducible": 6480,
      "longata": 6481,
      "longitud": 6482,
      "follow": 6483,
      "peroxy": 6484,
      "propanal": 6485,
      "ergot": 6486,
      "mannosylation": 6487,
      "oxidopamine": 6488,
      "bloc": 6489,
      "oxoacyl": 6490,
      "oxoadipate": 6491,
      "chlorophenol": 6492,
      "chlorobenzoate": 6493,
      "chlorocyclohexane": 6494,
      "hexyl": 6495,
      "ramycin": 6496,
      "cd9": 6497,
      "cd15": 6498,
      "cdk2": 6499,
      "reticular": 6500,
      "tetrakis": 6501,
      "phenylacetyl": 6502,
      "capillary": 6503,
      "onico": 6504,
      "reticuline": 6505,
      "akaryocyte": 6506,
      "giant": 6507,
      "verbas": 6508,
      "tryps": 6509,
      "struction": 6510,
      "purinergic": 6511,
      "specificity": 6512,
      "ethene": 6513,
      "alkene": 6514,
      "alkylation": 6515,
      "alkenyl": 6516,
      "glycosphing": 6517,
      "tyrosin": 6518,
      "pyruvic": 6519,
      "h3r2": 6520,
      "macrolide": 6521,
      "sn2": 6522,
      "cyclotransferase": 6523,
      "cycloalkane": 6524,
      "maleate": 6525,
      "piece": 6526,
      "benzoyltransferase": 6527,
      "homotypic": 6528,
      "sucrase": 6529,
      "nonribosomal": 6530,
      "lowering": 6531,
      "chromate": 6532,
      "chromene": 6533,
      "built": 6534,
      "lactation": 6535,
      "arginase": 6536,
      "nitrotoluene": 6537,
      "nitrobenzene": 6538,
      "antiviral": 6539,
      "amplification": 6540,
      "domains": 6541,
      "dihydrolipo": 6542,
      "dihydrofolate": 6543,
      "dihydroorotate": 6544,
      "dihydroneopterin": 6545,
      "thyronine": 6546,
      "influ": 6547,
      "extracellularly": 6548,
      "torso": 6549,
      "septate": 6550,
      "glucuronide": 6551,
      "fruiting": 6552,
      "bicy": 6553,
      "phototransduction": 6554,
      "photoxin": 6555,
      "heterotrimer": 6556,
      "heterotypic": 6557,
      "curli": 6558,
      "dihydroxypyridine": 6559,
      "alditol": 6560,
      "gravity": 6561,
      "gradient": 6562,
      "lymphotoxin": 6563,
      "fructosyltransferase": 6564,
      "germacrene": 6565,
      "globoside": 6566,
      "octane": 6567,
      "tetrahydrobiopterin": 6568,
      "delta1": 6569,
      "arogenate": 6570,
      "dicarboxylic": 6571,
      "carboxykinase": 6572,
      "galactosamine": 6573,
      "goblet": 6574,
      "natri": 6575,
      "hyperpolarization": 6576,
      "hyperplasia": 6577,
      "flavoprotein": 6578,
      "molybdate": 6579,
      "bisab": 6580,
      "maltopentaose": 6581,
      "attack": 6582,
      "symmetry": 6583,
      "propionyltransferase": 6584,
      "barbed": 6585,
      "mucon": 6586,
      "mutl": 6587,
      "serotonergic": 6588,
      "galactosylceramide": 6589,
      "h3k56": 6590,
      "middle": 6591,
      "silent": 6592,
      "silanediol": 6593,
      "xanthophore": 6594,
      "xanthophyll": 6595,
      "rhamnoside": 6596,
      "ectodomain": 6597,
      "camalexin": 6598,
      "camphor": 6599,
      "glutamato": 6600,
      "methanethiol": 6601,
      "catalase": 6602,
      "vasomotor": 6603,
      "eugenol": 6604,
      "four": 6605,
      "heptakisphosphate": 6606,
      "extrachromosomal": 6607,
      "haloacid": 6608,
      "adrenomedul": 6609,
      "cycloheximide": 6610,
      "nicotinic": 6611,
      "prostanoid": 6612,
      "cadinene": 6613,
      "transcriptase": 6614,
      "lamina": 6615,
      "shaft": 6616,
      "uranon": 6617,
      "dextran": 6618,
      "alkylamine": 6619,
      "mechanosens": 6620,
      "substances": 6621,
      "fumig": 6622,
      "gonium": 6623,
      "outgrowth": 6624,
      "imidazol": 6625,
      "phagophore": 6626,
      "karyogamy": 6627,
      "eggshell": 6628,
      "coumarate": 6629,
      "concentrating": 6630,
      "dttp": 6631,
      "hydroxyphenylpyruvate": 6632,
      "looping": 6633,
      "glycosylphosphatidylinositol": 6634,
      "hypersensitive": 6635,
      "ferricrocin": 6636,
      "opening": 6637,
      "repeats": 6638,
      "rad6": 6639,
      "acetoxy": 6640,
      "axoneme": 6641,
      "hydroxylamine": 6642,
      "farnesyltransferase": 6643,
      "sarcomere": 6644,
      "positioning": 6645,
      "cisternal": 6646,
      "ultative": 6647,
      "estrone": 6648,
      "isopropylacetanilide": 6649,
      "hexachlorocyclohexane": 6650,
      "prenyltransferase": 6651,
      "swim": 6652,
      "swimming": 6653,
      "phorbol": 6654,
      "cyanobilin": 6655,
      "excitation": 6656,
      "solute": 6657,
      "codeine": 6658,
      "erythropoietin": 6659,
      "muramyl": 6660,
      "vanill": 6661,
      "vanillin": 6662,
      "lysozyme": 6663,
      "oogenesis": 6664,
      "oogonium": 6665,
      "phosphorylating": 6666,
      "tfiiic": 6667,
      "tfiiib": 6668,
      "empt": 6669,
      "hyaluranon": 6670,
      "galactoglucomannan": 6671,
      "produced": 6672,
      "arms": 6673,
      "melanization": 6674,
      "myristoylation": 6675,
      "rhythmic": 6676,
      "tangle": 6677,
      "pantoate": 6678,
      "fusome": 6679,
      "mycotoxin": 6680,
      "facultative": 6681,
      "metabolism": 6682,
      "blastocyst": 6683,
      "stereocilia": 6684,
      "cpg": 6685,
      "p460": 6686,
      "ucida": 6687,
      "bleb": 6688,
      "thecium": 6689,
      "linoleic": 6690,
      "phycocyanobilin": 6691,
      "zygotic": 6692,
      "antenna": 6693,
      "naphthoate": 6694,
      "u4atac": 6695,
      "phyllotactic": 6696,
      "translocase": 6697,
      "caveolin": 6698,
      "caveola": 6699,
      "sinapoylglucose": 6700,
      "pupar": 6701,
      "puromycin": 6702,
      "atg12": 6703,
      "glossopharyngeal": 6704,
      "pituitary": 6705,
      "pellucida": 6706,
      "plasmodesma": 6707,
      "averantin": 6708,
      "lrp5": 6709,
      "p38": 6710,
      "styrene": 6711,
      "aliphatic": 6712,
      "unidirectional": 6713,
      "deazarib": 6714,
      "plastoquinone": 6715,
      "phenoxyacetic": 6716,
      "scrambling": 6717,
      "acetyllactosamine": 6718,
      "nlrp3": 6719,
      "first": 6720,
      "megakaryocyte": 6721,
      "astaxanthin": 6722,
      "phosphosulfate": 6723,
      "methyloct": 6724,
      "hemostasis": 6725,
      "advanced": 6726,
      "ketolase": 6727,
      "phenicol": 6728,
      "thiazolecarboxylic": 6729,
      "icosatetraenoic": 6730,
      "radicals": 6731,
      "gentiobioside": 6732,
      "vestibulocochlear": 6733,
      "mercaptobenzothiazole": 6734,
      "framesh": 6735,
      "oblongata": 6736,
      "spectrin": 6737,
      "atrichoblast": 6738,
      "archaeal": 6739,
      "ospermine": 6740,
      "chrysobactin": 6741,
      "arbuscule": 6742,
      "glutathionylation": 6743,
      "brca1": 6744,
      "hermaphrodite": 6745,
      "aim2": 6746,
      "bergamotene": 6747,
      "eminence": 6748,
      "gaseous": 6749,
      "shelterin": 6750,
      "anhydrides": 6751,
      "thermospermine": 6752,
      "oncostatin": 6753,
      "calcidiol": 6754,
      "enzymes": 6755,
      "isopropenyl": 6756,
      "fibrinolysis": 6757,
      "azepine": 6758,
      "oligosaccharyltransferase": 6759,
      "spongiotrophoblast": 6760,
      "vitellogenesis": 6761,
      "kojic": 6762,
      "achromobactin": 6763,
      "apyrimidinic": 6764,
      "clype": 6765,
      "eisosome": 6766,
      "gastro": 6767,
      "iqgap": 6768,
      "kchip": 6769,
      "oculomotor": 6770,
      "tgfbeta": 6771,
      "utilizing": 6772,
      "vindoline": 6773,
      "vastatin": 6774,
      "vanadium": 6775,
      "anandamide": 6776,
      "sevenless": 6777,
      "coclaurine": 6778,
      "trideoxy": 6779,
      "desiccation": 6780,
      "tapetum": 6781,
      "diphosphodolichol": 6782,
      "hyphopodium": 6783,
      "acclimation": 6784,
      "synergid": 6785,
      "cleistothecium": 6786,
      "esculetin": 6787,
      "methotrexate": 6788,
      "aminolevulin": 6789,
      "controlling": 6790,
      "organonitrogen": 6791,
      "quaternary": 6792,
      "paranode": 6793,
      "apurinic": 6794,
      "deoxystreptamine": 6795,
      "chloramphenicol": 6796,
      "decrotonylase": 6797,
      "longitudinal": 6798,
      "following": 6799,
      "verbascose": 6800,
      "trypsinogen": 6801,
      "glycosphingolipid": 6802,
      "adrenomedullin": 6803,
      "mechanosensitive": 6804,
      "deazariboflavin": 6805,
      "frameshifting": 6806,
      "1alpha": 6807,
      "2a": 6808,
      "3a": 6809,
      "5b": 6810,
      "61": 6811,
      "6a": 6812,
      "6e": 6813,
      "6r": 6814,
      "8alpha": 6815,
      ":(": 6816,
      "ai": 6817,
      "aec": 6818,
      "aco": 6819,
      "a12": 6820,
      "aplan": 6821,
      "aecium": 6822,
      "b3": 6823,
      "bid": 6824,
      "bam": 6825,
      "bir": 6826,
      "baf": 6827,
      "cb": 6828,
      "cn": 6829,
      "cub": 6830,
      "ccl": 6831,
      "cylation": 6832,
      "cano": 6833,
      "cca": 6834,
      "culin": 6835,
      "cgas": 6836,
      "dd": 6837,
      "daf": 6838,
      "dith": 6839,
      "doxorubicin": 6840,
      "e1": 6841,
      "ein": 6842,
      "eating": 6843,
      "eoxin": 6844,
      "eith": 6845,
      "erection": 6846,
      "eboid": 6847,
      "eking": 6848,
      "f6": 6849,
      "fen": 6850,
      "fund": 6851,
      "flight": 6852,
      "fyn": 6853,
      "gsi": 6854,
      "gylglycine": 6855,
      "hen": 6856,
      "hib": 6857,
      "hda": 6858,
      "ilo": 6859,
      "ili": 6860,
      "jan": 6861,
      "jnk": 6862,
      "kan": 6863,
      "kdo": 6864,
      "kno": 6865,
      "k20": 6866,
      "k36": 6867,
      "lit": 6868,
      "lan": 6869,
      "lary": 6870,
      "mass": 6871,
      "mene": 6872,
      "mylation": 6873,
      "mrp": 6874,
      "mosterol": 6875,
      "oc": 6876,
      "ool": 6877,
      "opt": 6878,
      "otransferase": 6879,
      "ocal": 6880,
      "oylation": 6881,
      "oospore": 6882,
      "oeboid": 6883,
      "pd": 6884,
      "psy": 6885,
      "prin": 6886,
      "ptry": 6887,
      "puf": 6888,
      "r6": 6889,
      "rhe": 6890,
      "s2": 6891,
      "s5": 6892,
      "sli": 6893,
      "sand": 6894,
      "saccharide": 6895,
      "scence": 6896,
      "t3": 6897,
      "tase": 6898,
      "tfi": 6899,
      "tsc": 6900,
      "ttp": 6901,
      "uss": 6902,
      "u11": 6903,
      "v0": 6904,
      "v1": 6905,
      "v7": 6906,
      "vosome": 6907,
      "vom": 6908,
      "whor": 6909,
      "xid": 6910,
      "xrc": 6911,
      "xilin": 6912,
      "yol": 6913,
      "yer": 6914,
      "ylon": 6915,
      "yophyll": 6916,
      "zon": 6917,
      "iotic": 6918,
      "iocyte": 6919,
      "iolin": 6920,
      "iolateral": 6921,
      "ceph": 6922,
      "rous": 6923,
      "icide": 6924,
      "icolin": 6925,
      "alan": 6926,
      "alyl": 6927,
      "alkine": 6928,
      "alenone": 6929,
      "profe": 6930,
      "propar": 6931,
      "atrol": 6932,
      "atile": 6933,
      "atf6": 6934,
      "inan": 6935,
      "intral": 6936,
      "inver": 6937,
      "inery": 6938,
      "loxy": 6939,
      "locyte": 6940,
      "lorin": 6941,
      "ulerine": 6942,
      "biolum": 6943,
      "biosome": 6944,
      "biomineral": 6945,
      "biosidase": 6946,
      "arf": 6947,
      "aric": 6948,
      "arity": 6949,
      "rese": 6950,
      "reorganization": 6951,
      "reuptake": 6952,
      "remn": 6953,
      "reader": 6954,
      "olayer": 6955,
      "itri": 6956,
      "itrio": 6957,
      "iva": 6958,
      "enase": 6959,
      "encyste": 6960,
      "enecarboxylate": 6961,
      "anic": 6962,
      "anase": 6963,
      "sedo": 6964,
      "setail": 6965,
      "seeking": 6966,
      "poxilin": 6967,
      "actate": 6968,
      "actalkine": 6969,
      "ofer": 6970,
      "oflu": 6971,
      "uncoupl": 6972,
      "unorubicin": 6973,
      "coro": 6974,
      "coreceptor": 6975,
      "coty": 6976,
      "copa": 6977,
      "molarity": 6978,
      "eryl": 6979,
      "erk5": 6980,
      "regut": 6981,
      "trical": 6982,
      "phial": 6983,
      "phloro": 6984,
      "mell": 6985,
      "orption": 6986,
      "ledon": 6987,
      "levan": 6988,
      "leptomycin": 6989,
      "determin": 6990,
      "deadenyl": 6991,
      "depression": 6992,
      "desumoylation": 6993,
      "deglutamylation": 6994,
      "destruction": 6995,
      "thion": 6996,
      "thph": 6997,
      "neol": 6998,
      "nephric": 6999,
      "nembrin": 7000,
      "neoxanthin": 7001,
      "transtransferase": 7002,
      "transdifferentiation": 7003,
      "transver": 7004,
      "osmolarity": 7005,
      "tein": 7006,
      "tect": 7007,
      "telium": 7008,
      "tefb": 7009,
      "idone": 7010,
      "ined": 7011,
      "inescence": 7012,
      "isw": 7013,
      "isonico": 7014,
      "tachy": 7015,
      "ticidin": 7016,
      "synembrin": 7017,
      "cholo": 7018,
      "veol": 7019,
      "dip": 7020,
      "didehydro": 7021,
      "diamide": 7022,
      "diet": 7023,
      "diphenol": 7024,
      "diphosphorylase": 7025,
      "dibenzoyl": 7026,
      "dibasic": 7027,
      "diencephalon": 7028,
      "dimethylethanolamine": 7029,
      "poster": 7030,
      "amphe": 7031,
      "amacrine": 7032,
      "amoeboid": 7033,
      "mbes": 7034,
      "hybr": 7035,
      "hypus": 7036,
      "acic": 7037,
      "acry": 7038,
      "aclav": 7039,
      "igma": 7040,
      "igolactone": 7041,
      "synov": 7042,
      "cyamine": 7043,
      "hydrin": 7044,
      "hydride": 7045,
      "hydanto": 7046,
      "asterone": 7047,
      "tiradiene": 7048,
      "ferment": 7049,
      "resver": 7050,
      "resorption": 7051,
      "cleft": 7052,
      "phosphinoth": 7053,
      "oxos": 7054,
      "oxylation": 7055,
      "oxaz": 7056,
      "ush": 7057,
      "usin": 7058,
      "complexin": 7059,
      "peg": 7060,
      "pector": 7061,
      "pexo": 7062,
      "peyer": 7063,
      "ries": 7064,
      "ripen": 7065,
      "membranous": 7066,
      "moplast": 7067,
      "mobilization": 7068,
      "umenal": 7069,
      "ends": 7070,
      "nalization": 7071,
      "glucano": 7072,
      "sigma": 7073,
      "lysis": 7074,
      "urm1": 7075,
      "catagen": 7076,
      "hepoxilin": 7077,
      "ucleus": 7078,
      "adaxial": 7079,
      "ayed": 7080,
      "aceno": 7081,
      "aceous": 7082,
      "renchy": 7083,
      "mitral": 7084,
      "acidocal": 7085,
      "conformation": 7086,
      "coniferyl": 7087,
      "conferring": 7088,
      "diffusion": 7089,
      "formamido": 7090,
      "spin": 7091,
      "impr": 7092,
      "carra": 7093,
      "carpan": 7094,
      "caryophyll": 7095,
      "carveol": 7096,
      "stearate": 7097,
      "ronin": 7098,
      "glyoxy": 7099,
      "glycylation": 7100,
      "malic": 7101,
      "beta5": 7102,
      "ged": 7103,
      "exosomal": 7104,
      "gluconeo": 7105,
      "methylase": 7106,
      "methylhex": 7107,
      "methylpyrimidine": 7108,
      "methylcitrate": 7109,
      "methylammonium": 7110,
      "methylnaphthalene": 7111,
      "methylcroton": 7112,
      "methylerythritol": 7113,
      "state": 7114,
      "stator": 7115,
      "stigm": 7116,
      "dehydrogen": 7117,
      "monite": 7118,
      "monolayer": 7119,
      "polymer": 7120,
      "polyproline": 7121,
      "polyglycylation": 7122,
      "ketos": 7123,
      "hydroxydec": 7124,
      "hydroxyprostaglandin": 7125,
      "hydroxytoluene": 7126,
      "hydroxypropionate": 7127,
      "hydroxypyrene": 7128,
      "hydroxyanthranilate": 7129,
      "hydroxytax": 7130,
      "hydroxymandelate": 7131,
      "ibacteroid": 7132,
      "illo": 7133,
      "ilicon": 7134,
      "interstrand": 7135,
      "interference": 7136,
      "aminomethyl": 7137,
      "aminoadi": 7138,
      "aminovinyl": 7139,
      "endomembrane": 7140,
      "endoredu": 7141,
      "endobrevin": 7142,
      "perk": 7143,
      "persal": 7144,
      "perill": 7145,
      "peribacteroid": 7146,
      "uleus": 7147,
      "acetylene": 7148,
      "acetylhex": 7149,
      "acetylspermidine": 7150,
      "ribazole": 7151,
      "precatalytic": 7152,
      "preblastoderm": 7153,
      "paras": 7154,
      "paralle": 7155,
      "depal": 7156,
      "histogenesis": 7157,
      "monoyl": 7158,
      "monomethylation": 7159,
      "monounsaturated": 7160,
      "apic": 7161,
      "appet": 7162,
      "ensin": 7163,
      "leucyl": 7164,
      "docos": 7165,
      "chem": 7166,
      "chelin": 7167,
      "chette": 7168,
      "gallo": 7169,
      "antibody": 7170,
      "antimonite": 7171,
      "multid": 7172,
      "lamel": 7173,
      "anoik": 7174,
      "ricin": 7175,
      "dispersal": 7176,
      "apogenol": 7177,
      "inting": 7178,
      "phosphoceramide": 7179,
      "phosphoglycolate": 7180,
      "galactofuranose": 7181,
      "uredin": 7182,
      "tricellular": 7183,
      "triacyl": 7184,
      "triulose": 7185,
      "triazole": 7186,
      "triplex": 7187,
      "triiodo": 7188,
      "isomerization": 7189,
      "isopenicillin": 7190,
      "oleic": 7191,
      "oleoyl": 7192,
      "neurogenesis": 7193,
      "neurofilament": 7194,
      "neuroinflammatory": 7195,
      "neurotensin": 7196,
      "neuropil": 7197,
      "microfilament": 7198,
      "glycerin": 7199,
      "mandibular": 7200,
      "calcification": 7201,
      "gulonate": 7202,
      "hops": 7203,
      "irido": 7204,
      "ssional": 7205,
      "nucleoplasmic": 7206,
      "nucleoplasm": 7207,
      "horn": 7208,
      "horsetail": 7209,
      "deoxynucleotide": 7210,
      "deoxycorticosterone": 7211,
      "nona": 7212,
      "nonap": 7213,
      "nopal": 7214,
      "tolactone": 7215,
      "venule": 7216,
      "saliva": 7217,
      "subtelomeric": 7218,
      "itioning": 7219,
      "terosome": 7220,
      "acylneuramin": 7221,
      "pag": 7222,
      "phycin": 7223,
      "lipooligosaccharide": 7224,
      "strigolactone": 7225,
      "intein": 7226,
      "folyl": 7227,
      "folds": 7228,
      "symbiosome": 7229,
      "propanoyl": 7230,
      "fat10": 7231,
      "agaro": 7232,
      "agglutin": 7233,
      "cisome": 7234,
      "oxoacid": 7235,
      "oxobutyrate": 7236,
      "oxohept": 7237,
      "clock": 7238,
      "chlorocatechol": 7239,
      "chloroacryl": 7240,
      "hexitol": 7241,
      "hexasaccharide": 7242,
      "cdk1": 7243,
      "tetrahydroxy": 7244,
      "tetraphosphatase": 7245,
      "delayed": 7246,
      "chyose": 7247,
      "phenylacetate": 7248,
      "phenylacetaldehyde": 7249,
      "phenylacetaldoxime": 7250,
      "capsor": 7251,
      "metula": 7252,
      "pental": 7253,
      "pentan": 7254,
      "pentitol": 7255,
      "pentanoate": 7256,
      "pentasaccharide": 7257,
      "vernalization": 7258,
      "thiolase": 7259,
      "glycosome": 7260,
      "cholinephosphotransferase": 7261,
      "ops": 7262,
      "opson": 7263,
      "bilizing": 7264,
      "stachyose": 7265,
      "stabilizing": 7266,
      "pyruvyl": 7267,
      "pairing": 7268,
      "erotriose": 7269,
      "macroautophagy": 7270,
      "macropinosome": 7271,
      "maleyl": 7272,
      "sulfurase": 7273,
      "homooligomerization": 7274,
      "homotetramerization": 7275,
      "homodimerization": 7276,
      "homophilic": 7277,
      "decarboxylation": 7278,
      "hydrase": 7279,
      "arginyl": 7280,
      "nitroglycerin": 7281,
      "ampk": 7282,
      "three": 7283,
      "thread": 7284,
      "iaa": 7285,
      "presplice": 7286,
      "basket": 7287,
      "deoxyribonucleic": 7288,
      "brainstem": 7289,
      "exogen": 7290,
      "exopeptidase": 7291,
      "12alpha": 7292,
      "affe": 7293,
      "chemokinesis": 7294,
      "bicoid": 7295,
      "photomorphogenesis": 7296,
      "haltere": 7297,
      "pantolactone": 7298,
      "heteroduplex": 7299,
      "discadenine": 7300,
      "elastic": 7301,
      "rhiz": 7302,
      "bombes": 7303,
      "chorio": 7304,
      "dihydroxynaphthalene": 7305,
      "creb": 7306,
      "idinol": 7307,
      "11z": 7308,
      "button": 7309,
      "autoubiquitination": 7310,
      "anagen": 7311,
      "cyanuric": 7312,
      "fructosamine": 7313,
      "template": 7314,
      "selenol": 7315,
      "octanol": 7316,
      "octanoyltransferase": 7317,
      "tetrahydrofuran": 7318,
      "tetrahydrofolyl": 7319,
      "capsanthin": 7320,
      "angiospore": 7321,
      "aroyltransferase": 7322,
      "spher": 7323,
      "spheroid": 7324,
      "copimar": 7325,
      "carboxyethyl": 7326,
      "galactosamin": 7327,
      "16s": 7328,
      "istle": 7329,
      "dystro": 7330,
      "triol": 7331,
      "trioxide": 7332,
      "maml2": 7333,
      "maml3": 7334,
      "dimethylsilanediol": 7335,
      "retromer": 7336,
      "flavodoxin": 7337,
      "penile": 7338,
      "sphingoid": 7339,
      "bisdiphosphate": 7340,
      "bisphosphoglycerate": 7341,
      "ammonio": 7342,
      "crd": 7343,
      "maltotetraose": 7344,
      "maltohexaose": 7345,
      "maltotriulose": 7346,
      "intermedium": 7347,
      "laying": 7348,
      "demethylubiquinol": 7349,
      "brush": 7350,
      "bristle": 7351,
      "attached": 7352,
      "hypotonic": 7353,
      "tetrater": 7354,
      "tetraceno": 7355,
      "galactosylglucosylceramide": 7356,
      "h3k14": 7357,
      "ketoreductase": 7358,
      "centrosomal": 7359,
      "fixation": 7360,
      "rhoptry": 7361,
      "glycerophosphoethanolamine": 7362,
      "camkk": 7363,
      "methylthiopentyl": 7364,
      "partitioning": 7365,
      "14alpha": 7366,
      "ipation": 7367,
      "multienzyme": 7368,
      "phosphodiester": 7369,
      "foot": 7370,
      "foregut": 7371,
      "heptasaccharide": 7372,
      "extraocular": 7373,
      "bilayer": 7374,
      "respirasome": 7375,
      "adenosylhomocysteine": 7376,
      "pseudouridylation": 7377,
      "level": 7378,
      "electrons": 7379,
      "protozo": 7380,
      "aracopimar": 7381,
      "trimethylammonio": 7382,
      "naphthaldehyde": 7383,
      "25s": 7384,
      "transcripts": 7385,
      "granuloma": 7386,
      "acetylglucosaminephosphotransferase": 7387,
      "cerebrospinal": 7388,
      "sporangiospore": 7389,
      "ecdysis": 7390,
      "malonylation": 7391,
      "juice": 7392,
      "shade": 7393,
      "cd80": 7394,
      "cd86": 7395,
      "outward": 7396,
      "uroporphyrinogen": 7397,
      "endocardium": 7398,
      "glucosylceramidase": 7399,
      "zeta": 7400,
      "cardiocyte": 7401,
      "carbamoylation": 7402,
      "elevation": 7403,
      "dtmp": 7404,
      "notum": 7405,
      "ofuranosidase": 7406,
      "glycosylceramide": 7407,
      "sialic": 7408,
      "sialate": 7409,
      "dichlorobenzoate": 7410,
      "berine": 7411,
      "berberine": 7412,
      "diaminobutyrate": 7413,
      "daunorubicin": 7414,
      "jasmonoyl": 7415,
      "xylosidase": 7416,
      "acetoacetyl": 7417,
      "acetoacetate": 7418,
      "methanogenesis": 7419,
      "spaces": 7420,
      "isopropylhexa": 7421,
      "thymidylate": 7422,
      "locomotor": 7423,
      "sporo": 7424,
      "enedione": 7425,
      "bulbar": 7426,
      "cyanophore": 7427,
      "cyanophycin": 7428,
      "mannoprotein": 7429,
      "mannotriose": 7430,
      "novobio": 7431,
      "erythrose": 7432,
      "erythrophore": 7433,
      "lymphangiogenesis": 7434,
      "vanone": 7435,
      "lysophospholipid": 7436,
      "phosphorylated": 7437,
      "caffeate": 7438,
      "caffeine": 7439,
      "borneol": 7440,
      "heptyl": 7441,
      "heptosyltransferase": 7442,
      "octopine": 7443,
      "wakeful": 7444,
      "derivatives": 7445,
      "dienal": 7446,
      "hyaline": 7447,
      "blasticidin": 7448,
      "corrinoid": 7449,
      "gonadotrophin": 7450,
      "xenophagy": 7451,
      "pheo": 7452,
      "topological": 7453,
      "isoflavanone": 7454,
      "galactotriose": 7455,
      "creatinine": 7456,
      "cytidylate": 7457,
      "pelvic": 7458,
      "xylanase": 7459,
      "ufm1": 7460,
      "neoagaro": 7461,
      "diphosphoinositol": 7462,
      "somitomeric": 7463,
      "arabinopyranose": 7464,
      "c5a": 7465,
      "osporangium": 7466,
      "resolvin": 7467,
      "resolution": 7468,
      "machinery": 7469,
      "mycophenolic": 7470,
      "bromo": 7471,
      "squalene": 7472,
      "alamic": 7473,
      "methylbutanol": 7474,
      "acetylmuramate": 7475,
      "acetylneuraminyl": 7476,
      "glucosaminidase": 7477,
      "backward": 7478,
      "c3d": 7479,
      "secologanin": 7480,
      "ferroptosis": 7481,
      "uredospore": 7482,
      "geranylgeranylation": 7483,
      "h3k9me2": 7484,
      "h4k16": 7485,
      "fasl": 7486,
      "fasciculation": 7487,
      "labial": 7488,
      "labda": 7489,
      "pectic": 7490,
      "uridylylation": 7491,
      "thermomorphogenesis": 7492,
      "thermoception": 7493,
      "phycobil": 7494,
      "lactamase": 7495,
      "butyltin": 7496,
      "phragmoplast": 7497,
      "gliogenesis": 7498,
      "hydroxyisobutyrate": 7499,
      "hydroxyisobutyr": 7500,
      "leucoplast": 7501,
      "leucophore": 7502,
      "dermatome": 7503,
      "olol": 7504,
      "pml": 7505,
      "u6atac": 7506,
      "compact": 7507,
      "teliospore": 7508,
      "dissipation": 7509,
      "oxopentanoate": 7510,
      "fluoren": 7511,
      "adipose": 7512,
      "branchiomeric": 7513,
      "oomycete": 7514,
      "sesquiterpene": 7515,
      "catechin": 7516,
      "extrusion": 7517,
      "odontoblast": 7518,
      "carboxamide": 7519,
      "tryptamine": 7520,
      "thyroxine": 7521,
      "medullary": 7522,
      "androstenedione": 7523,
      "stretches": 7524,
      "equili": 7525,
      "scaffolds": 7526,
      "vitelline": 7527,
      "ceruleus": 7528,
      "tropane": 7529,
      "dimethylallyl": 7530,
      "aggrephagy": 7531,
      "hercynylselenocysteine": 7532,
      "dinitrogen": 7533,
      "sf11": 7534,
      "alveolar": 7535,
      "trinitrophenol": 7536,
      "nedd8": 7537,
      "neddylation": 7538,
      "conserved": 7539,
      "plasmodesmatal": 7540,
      "cornea": 7541,
      "corneal": 7542,
      "lengthening": 7543,
      "tautomer": 7544,
      "bacill": 7545,
      "unidimensional": 7546,
      "deaza": 7547,
      "gluconokinase": 7548,
      "trapping": 7549,
      "phenoxyacetate": 7550,
      "octulosonic": 7551,
      "scramblase": 7552,
      "laminaritrio": 7553,
      "zygospore": 7554,
      "zygosporangium": 7555,
      "acetyllactosamin": 7556,
      "sulph": 7557,
      "scoulerine": 7558,
      "sebum": 7559,
      "sebaceous": 7560,
      "thoracic": 7561,
      "cyclopentanol": 7562,
      "basidium": 7563,
      "basidiospore": 7564,
      "environmental": 7565,
      "achronate": 7566,
      "aerobactin": 7567,
      "colicin": 7568,
      "pumping": 7569,
      "passenger": 7570,
      "pterocarpan": 7571,
      "spemann": 7572,
      "amniotic": 7573,
      "limitation": 7574,
      "downstream": 7575,
      "conditions": 7576,
      "brioception": 7577,
      "gamete": 7578,
      "uccinate": 7579,
      "sclerotium": 7580,
      "dodecyl": 7581,
      "hsp90": 7582,
      "miltiradiene": 7583,
      "risc": 7584,
      "s100": 7585,
      "alginic": 7586,
      "reservosome": 7587,
      "trigger": 7588,
      "menthone": 7589,
      "cornification": 7590,
      "linolenate": 7591,
      "cdc42": 7592,
      "reticulophagy": 7593,
      "autonomous": 7594,
      "arabinosyltransferase": 7595,
      "ftsz": 7596,
      "siroheme": 7597,
      "vocalization": 7598,
      "magnetosome": 7599,
      "cristae": 7600,
      "pregnancy": 7601,
      "formimidoyl": 7602,
      "elimination": 7603,
      "fractalkine": 7604,
      "hulle": 7605,
      "murein": 7606,
      "nigerotriose": 7607,
      "nipple": 7608,
      "tnfsf11": 7609,
      "albumin": 7610,
      "demethoxycurcumin": 7611,
      "glycyrrhe": 7612,
      "organosilicon": 7613,
      "expansion": 7614,
      "soyasapogenol": 7615,
      "phenyllactate": 7616,
      "urethra": 7617,
      "isovaleryl": 7618,
      "cd151": 7619,
      "tyrosinase": 7620,
      "influence": 7621,
      "heterotrimeric": 7622,
      "fumigaclav": 7623,
      "vanillate": 7624,
      "emptying": 7625,
      "pupariation": 7626,
      "p38mapk": 7627,
      "iqgap1": 7628,
      "aeciospore": 7629,
      "aplanospore": 7630,
      "dafachronate": 7631,
      "either": 7632,
      "fundus": 7633,
      "henle": 7634,
      "janus": 7635,
      "kanamycin": 7636,
      "optical": 7637,
      "sandaracopimar": 7638,
      "whorl": 7639,
      "yolk": 7640,
      "professional": 7641,
      "propargylglycine": 7642,
      "inanimate": 7643,
      "intralumenal": 7644,
      "bioluminescence": 7645,
      "resection": 7646,
      "remnant": 7647,
      "encysted": 7648,
      "sedohept": 7649,
      "uncoupler": 7650,
      "cotyledon": 7651,
      "copaene": 7652,
      "phialide": 7653,
      "deadenylated": 7654,
      "tachykinin": 7655,
      "diphenols": 7656,
      "dibenzoylmethane": 7657,
      "posteriolateral": 7658,
      "amphetamine": 7659,
      "hybrid": 7660,
      "hypusine": 7661,
      "synoviocyte": 7662,
      "resveratrol": 7663,
      "phosphinothricin": 7664,
      "pectoral": 7665,
      "ripening": 7666,
      "renchyma": 7667,
      "acidocalcisome": 7668,
      "imprinting": 7669,
      "caryophyllene": 7670,
      "gluconeogenesis": 7671,
      "aminoadipic": 7672,
      "endoreduplication": 7673,
      "parallel": 7674,
      "appetite": 7675,
      "docosanoate": 7676,
      "lamellocyte": 7677,
      "anoikis": 7678,
      "uredinium": 7679,
      "neuropilin": 7680,
      "iridophore": 7681,
      "nopaline": 7682,
      "acylneuraminate": 7683,
      "agglutination": 7684,
      "capsorubin": 7685,
      "opsonization": 7686,
      "prespliceosome": 7687,
      "bombesin": 7688,
      "spheroidene": 7689,
      "tetraterpenoid": 7690,
      "tetracenomycin": 7691,
      "protozoan": 7692,
      "wakefulness": 7693,
      "equilibrioception": 7694,
      "laminaritriose": 7695,
      "acetyllactosaminide": 7696,
      "glycyrrhetinate": 7697,
      "fumigaclavine": 7698,
      "((": 7699,
      ")/": 7700,
      ")]-": 7701,
      "1f": 7702,
      "2c": 7703,
      "3h": 7704,
      "3p": 7705,
      "47": 7706,
      "4e": 7707,
      "6s": 7708,
      "70": 7709,
      "74": 7710,
      "7l2": 7711,
      "8z": 7712,
      "9s": 7713,
      "agen": 7714,
      "aconate": 7715,
      "b5": 7716,
      "bh": 7717,
      "ben": 7718,
      "brom": 7719,
      "bration": 7720,
      "barb": 7721,
      "bau": 7722,
      "bramycin": 7723,
      "clog": 7724,
      "csp": 7725,
      "cand": 7726,
      "cidine": 7727,
      "citin": 7728,
      "c20": 7729,
      "c13": 7730,
      "c21": 7731,
      "df": 7732,
      "dh": 7733,
      "dn": 7734,
      "dar": 7735,
      "dine": 7736,
      "dens": 7737,
      "dylase": 7738,
      "diterpenoid": 7739,
      "ditp": 7740,
      "dness": 7741,
      "evol": 7742,
      "ela": 7743,
      "elin": 7744,
      "even": 7745,
      "fh": 7746,
      "fon": 7747,
      "fig": 7748,
      "ffer": 7749,
      "fron": 7750,
      "fish": 7751,
      "fill": 7752,
      "ficolin": 7753,
      "gc": 7754,
      "gh": 7755,
      "gw": 7756,
      "gat": 7757,
      "ges": 7758,
      "gator": 7759,
      "gasome": 7760,
      "hing": 7761,
      "hab": 7762,
      "hang": 7763,
      "hasterone": 7764,
      "i2": 7765,
      "ires": 7766,
      "ienol": 7767,
      "ibiose": 7768,
      "ikappab": 7769,
      "ised": 7770,
      "iregulin": 7771,
      "ku": 7772,
      "kle": 7773,
      "kau": 7774,
      "k16": 7775,
      "ling": 7776,
      "lac": 7777,
      "lamino": 7778,
      "ldin": 7779,
      "lpp": 7780,
      "lamb": 7781,
      "md": 7782,
      "mm": 7783,
      "mll": 7784,
      "myl": 7785,
      "mas": 7786,
      "mim": 7787,
      "mens": 7788,
      "mug": 7789,
      "nation": 7790,
      "nano": 7791,
      "nactin": 7792,
      "n10": 7793,
      "nmn": 7794,
      "oro": 7795,
      "oic": 7796,
      "oen": 7797,
      "oate": 7798,
      "och": 7799,
      "omic": 7800,
      "ohydrolase": 7801,
      "ohypophysis": 7802,
      "pas": 7803,
      "pace": 7804,
      "pule": 7805,
      "pso": 7806,
      "pax": 7807,
      "pism": 7808,
      "p10": 7809,
      "panoid": 7810,
      "p79": 7811,
      "r4": 7812,
      "r5": 7813,
      "rf": 7814,
      "rs": 7815,
      "rat": 7816,
      "rum": 7817,
      "rule": 7818,
      "r17": 7819,
      "rnithine": 7820,
      "rfc": 7821,
      "ratoxin": 7822,
      "s7": 7823,
      "sit": 7824,
      "sum": 7825,
      "scal": 7826,
      "stra": 7827,
      "sab": 7828,
      "stric": 7829,
      "scu": 7830,
      "scap": 7831,
      "skeleton": 7832,
      "sites": 7833,
      "sible": 7834,
      "satile": 7835,
      "tt": 7836,
      "titin": 7837,
      "tdp": 7838,
      "tronate": 7839,
      "tanning": 7840,
      "uj": 7841,
      "uu": 7842,
      "uct": 7843,
      "ures": 7844,
      "uros": 7845,
      "vs": 7846,
      "var": 7847,
      "vamp": 7848,
      "walk": 7849,
      "x3": 7850,
      "xii": 7851,
      "xano": 7852,
      "xane": 7853,
      "yne": 7854,
      "ycyte": 7855,
      "yruv": 7856,
      "yrone": 7857,
      "zation": 7858,
      "iole": 7859,
      "iodin": 7860,
      "rosy": 7861,
      "rosin": 7862,
      "robilin": 7863,
      "rogenic": 7864,
      "ropism": 7865,
      "ich": 7866,
      "icle": 7867,
      "icam": 7868,
      "icn1": 7869,
      "alin": 7870,
      "alact": 7871,
      "alph": 7872,
      "alpyruvate": 7873,
      "aleu": 7874,
      "proct": 7875,
      "protos": 7876,
      "proplastid": 7877,
      "propag": 7878,
      "prothoracic": 7879,
      "ionic": 7880,
      "atum": 7881,
      "atf4": 7882,
      "atten": 7883,
      "processes": 7884,
      "processivity": 7885,
      "inar": 7886,
      "inment": 7887,
      "instar": 7888,
      "incision": 7889,
      "loss": 7890,
      "lobar": 7891,
      "loquinoline": 7892,
      "lovastatin": 7893,
      "ulum": 7894,
      "biori": 7895,
      "biogenic": 7896,
      "biosyl": 7897,
      "arran": 7898,
      "aristo": 7899,
      "arson": 7900,
      "reta": 7901,
      "rebau": 7902,
      "reelin": 7903,
      "itment": 7904,
      "itization": 7905,
      "itone": 7906,
      "ationary": 7907,
      "iviolin": 7908,
      "enine": 7909,
      "entra": 7910,
      "antic": 7911,
      "anox": 7912,
      "anes": 7913,
      "aniso": 7914,
      "anky": 7915,
      "sesamin": 7916,
      "series": 7917,
      "pool": 7918,
      "pomyosin": 7919,
      "pocket": 7920,
      "ecoside": 7921,
      "unine": 7922,
      "uncapping": 7923,
      "unloader": 7924,
      "copy": 7925,
      "coactivator": 7926,
      "conazole": 7927,
      "ermin": 7928,
      "ernation": 7929,
      "itylamino": 7930,
      "trif": 7931,
      "celled": 7932,
      "phan": 7933,
      "phid": 7934,
      "phnetin": 7935,
      "phasterol": 7936,
      "medio": 7937,
      "megas": 7938,
      "mei2": 7939,
      "oric": 7940,
      "orphin": 7941,
      "orland": 7942,
      "orhod": 7943,
      "orphan": 7944,
      "deple": 7945,
      "desis": 7946,
      "decen": 7947,
      "deactivation": 7948,
      "deoxo": 7949,
      "defin": 7950,
      "deglutar": 7951,
      "desuccin": 7952,
      "deisopropyl": 7953,
      "dehydration": 7954,
      "delonitrile": 7955,
      "dealkylation": 7956,
      "desulfurase": 7957,
      "deiodin": 7958,
      "ylglucose": 7959,
      "ylalanine": 7960,
      "thanol": 7961,
      "thali": 7962,
      "ingression": 7963,
      "transitive": 7964,
      "transdu": 7965,
      "transamination": 7966,
      "transglycosylase": 7967,
      "transamidation": 7968,
      "transketolase": 7969,
      "oster": 7970,
      "osidyl": 7971,
      "tetro": 7972,
      "tellar": 7973,
      "tophy": 7974,
      "togenic": 7975,
      "tobramycin": 7976,
      "idual": 7977,
      "iduct": 7978,
      "ineic": 7979,
      "ische": 7980,
      "island": 7981,
      "istein": 7982,
      "tamycin": 7983,
      "tauro": 7984,
      "cholic": 7985,
      "chop": 7986,
      "veage": 7987,
      "veined": 7988,
      "dim": 7989,
      "diapo": 7990,
      "diethyl": 7991,
      "dipic": 7992,
      "direction": 7993,
      "diuretic": 7994,
      "diazepine": 7995,
      "pture": 7996,
      "amor": 7997,
      "genomic": 7998,
      "genistein": 7999,
      "onal": 8000,
      "onylase": 8001,
      "terpen": 8002,
      "gln": 8003,
      "gliding": 8004,
      "hypota": 8005,
      "acing": 8006,
      "porine": 8007,
      "cyanine": 8008,
      "cymene": 8009,
      "cyp79": 8010,
      "as1": 8011,
      "aster": 8012,
      "til": 8013,
      "tim": 8014,
      "tirosin": 8015,
      "resorcinol": 8016,
      "hydrolys": 8017,
      "indanone": 8018,
      "phosphome": 8019,
      "phosphagen": 8020,
      "oxa": 8021,
      "oxazole": 8022,
      "mental": 8023,
      "uscept": 8024,
      "uspid": 8025,
      "eso": 8026,
      "esterosome": 8027,
      "peol": 8028,
      "peronin": 8029,
      "pedesis": 8030,
      "mochrome": 8031,
      "motogenic": 8032,
      "umami": 8033,
      "endolysosome": 8034,
      "endorphin": 8035,
      "metaplasticity": 8036,
      "glucinol": 8037,
      "pling": 8038,
      "idesm": 8039,
      "cathasterone": 8040,
      "urite": 8041,
      "dudp": 8042,
      "hemoly": 8043,
      "adding": 8044,
      "beat": 8045,
      "beak": 8046,
      "feldin": 8047,
      "mite": 8048,
      "maker": 8049,
      "photol": 8050,
      "coni": 8051,
      "conyl": 8052,
      "conus": 8053,
      "config": 8054,
      "formamidase": 8055,
      "spacing": 8056,
      "omegasome": 8057,
      "iminyl": 8058,
      "immobilization": 8059,
      "carcin": 8060,
      "stearoyl": 8061,
      "nucleate": 8062,
      "nucleosyl": 8063,
      "nucleosidyl": 8064,
      "vibrio": 8065,
      "vibration": 8066,
      "malyl": 8067,
      "maltos": 8068,
      "malonic": 8069,
      "matase": 8070,
      "acetal": 8071,
      "acetase": 8072,
      "organoflu": 8073,
      "beta6": 8074,
      "beta7": 8075,
      "gement": 8076,
      "geho": 8077,
      "geenase": 8078,
      "excess": 8079,
      "exine": 8080,
      "extraction": 8081,
      "exclusion": 8082,
      "glucopyran": 8083,
      "oxysterol": 8084,
      "oxynicotine": 8085,
      "oxytetracycline": 8086,
      "methylcyclo": 8087,
      "methylhistidine": 8088,
      "methyltetrahydro": 8089,
      "methylguanine": 8090,
      "methyladenine": 8091,
      "methylphosphonate": 8092,
      "methylgallate": 8093,
      "methylumb": 8094,
      "stigma": 8095,
      "stationary": 8096,
      "mitomycin": 8097,
      "dehydroquinate": 8098,
      "dehydropantoate": 8099,
      "dehydropantolactone": 8100,
      "cia": 8101,
      "cial": 8102,
      "cipal": 8103,
      "monensin": 8104,
      "quency": 8105,
      "polyglutamate": 8106,
      "polycis": 8107,
      "polyribonucleotide": 8108,
      "polyterpenoid": 8109,
      "polyphenic": 8110,
      "clp": 8111,
      "hydroxychol": 8112,
      "hydroxypyruvate": 8113,
      "hydroxybut": 8114,
      "hydroxycholesterol": 8115,
      "hydroxyceramide": 8116,
      "hydroxyaspartate": 8117,
      "hydroxyphenol": 8118,
      "hydroxypropyl": 8119,
      "hydroxyquinoline": 8120,
      "hydroxybutyryl": 8121,
      "hydroxynicotinate": 8122,
      "hydroxybiphenyl": 8123,
      "hydroxynitrile": 8124,
      "hydroxybenzyl": 8125,
      "hydroxyferuloyl": 8126,
      "hydroxycoumarin": 8127,
      "hydroxyisoflavone": 8128,
      "hydroxyectoine": 8129,
      "hydroxymuconate": 8130,
      "hydroxymyristoyl": 8131,
      "hydroxycineole": 8132,
      "hydroxyjasmonate": 8133,
      "hydroxyisoflavanone": 8134,
      "illoyl": 8135,
      "ilenine": 8136,
      "musculo": 8137,
      "aminophospholipid": 8138,
      "aminobenzene": 8139,
      "aminotriazole": 8140,
      "endocyto": 8141,
      "endoperoxide": 8142,
      "traxin": 8143,
      "trapp": 8144,
      "oneme": 8145,
      "oneine": 8146,
      "perfor": 8147,
      "perith": 8148,
      "persulfide": 8149,
      "perfuranone": 8150,
      "peritone": 8151,
      "reductone": 8152,
      "acetylating": 8153,
      "acetylspermine": 8154,
      "acetylmannosamine": 8155,
      "glucosaminase": 8156,
      "enem": 8157,
      "enediamine": 8158,
      "epit": 8159,
      "epyruv": 8160,
      "ifolin": 8161,
      "pyover": 8162,
      "precerebellar": 8163,
      "preincision": 8164,
      "parent": 8165,
      "paranod": 8166,
      "depsi": 8167,
      "monomethyl": 8168,
      "monoubiquitin": 8169,
      "monoacylglycerol": 8170,
      "monoterpenoid": 8171,
      "monomethylethanolamine": 8172,
      "monoterpene": 8173,
      "monoterpen": 8174,
      "apio": 8175,
      "apine": 8176,
      "apenem": 8177,
      "domen": 8178,
      "sulfino": 8179,
      "sulfhydr": 8180,
      "minor": 8181,
      "secin": 8182,
      "localized": 8183,
      "abienol": 8184,
      "abdomen": 8185,
      "cory": 8186,
      "tosidine": 8187,
      "mesendoderm": 8188,
      "rolactone": 8189,
      "cytogamy": 8190,
      "cytoneme": 8191,
      "anoic": 8192,
      "carbazole": 8193,
      "carbapenem": 8194,
      "disulf": 8195,
      "dischar": 8196,
      "tubulo": 8197,
      "apocarotenoid": 8198,
      "intuss": 8199,
      "anetriol": 8200,
      "utar": 8201,
      "uttle": 8202,
      "phosphoarginine": 8203,
      "phosphocreatine": 8204,
      "phosphoglucom": 8205,
      "phosphopantetheine": 8206,
      "sound": 8207,
      "somato": 8208,
      "somite": 8209,
      "social": 8210,
      "galacton": 8211,
      "adenohypophysis": 8212,
      "migr": 8213,
      "changes": 8214,
      "ureide": 8215,
      "tripart": 8216,
      "triphosphoribosyl": 8217,
      "tropomyosin": 8218,
      "isopeptide": 8219,
      "isoglutamyl": 8220,
      "isopiper": 8221,
      "isothiazol": 8222,
      "isooctane": 8223,
      "neuroepithelial": 8224,
      "neuropore": 8225,
      "neurospore": 8226,
      "neurohypophysis": 8227,
      "microcin": 8228,
      "microbody": 8229,
      "microautophagy": 8230,
      "microneme": 8231,
      "microperfuranone": 8232,
      "dioside": 8233,
      "oxidised": 8234,
      "mantle": 8235,
      "manchette": 8236,
      "mandelonitrile": 8237,
      "terminase": 8238,
      "terminus": 8239,
      "terminated": 8240,
      "channels": 8241,
      "lincomycin": 8242,
      "gument": 8243,
      "guai": 8244,
      "hom": 8245,
      "hopanoid": 8246,
      "inosuccinate": 8247,
      "ermacrene": 8248,
      "deoxyglucose": 8249,
      "deoxychorismate": 8250,
      "nov": 8251,
      "chlorite": 8252,
      "tricho": 8253,
      "tricyclic": 8254,
      "tricuspid": 8255,
      "granatic": 8256,
      "salty": 8257,
      "salutar": 8258,
      "subcompartment": 8259,
      "glycopeptide": 8260,
      "oidal": 8261,
      "benzalpyruvate": 8262,
      "acylmannosamine": 8263,
      "paromo": 8264,
      "columb": 8265,
      "chaperonin": 8266,
      "decanoyltransferase": 8267,
      "decoy": 8268,
      "decanoylation": 8269,
      "phys": 8270,
      "phycou": 8271,
      "cupul": 8272,
      "lipoic": 8273,
      "postnat": 8274,
      "replisome": 8275,
      "actinin": 8276,
      "actinomycin": 8277,
      "actinorhod": 8278,
      "peroxi": 8279,
      "propanol": 8280,
      "ergoster": 8281,
      "mannoside": 8282,
      "mannuronate": 8283,
      "vale": 8284,
      "valyl": 8285,
      "valonate": 8286,
      "cistransferase": 8287,
      "oxobut": 8288,
      "oxovalerate": 8289,
      "streak": 8290,
      "clot": 8291,
      "chlorous": 8292,
      "chlorobenzene": 8293,
      "chlorobiphenyl": 8294,
      "sensitization": 8295,
      "hexen": 8296,
      "hexanoyltransferase": 8297,
      "hexuronate": 8298,
      "axons": 8299,
      "edoxin": 8300,
      "edging": 8301,
      "initial": 8302,
      "cdk": 8303,
      "cd24": 8304,
      "cdk4": 8305,
      "cdk6": 8306,
      "cd63": 8307,
      "tetrapeptide": 8308,
      "tetrachloride": 8309,
      "artenol": 8310,
      "phages": 8311,
      "akis": 8312,
      "giform": 8313,
      "pentanoyl": 8314,
      "dendria": 8315,
      "telodendria": 8316,
      "gold": 8317,
      "upstream": 8318,
      "thioester": 8319,
      "thioglycine": 8320,
      "thioglucosidase": 8321,
      "thiophene": 8322,
      "thiouridyl": 8323,
      "integration": 8324,
      "alkyne": 8325,
      "glycosinolate": 8326,
      "azuro": 8327,
      "otidase": 8328,
      "tyrocidine": 8329,
      "bixin": 8330,
      "stack": 8331,
      "stauros": 8332,
      "macropino": 8333,
      "macrophages": 8334,
      "cyclospor": 8335,
      "cycloartenol": 8336,
      "benzoquinol": 8337,
      "homogalacturonan": 8338,
      "homodimeric": 8339,
      "decarbonylase": 8340,
      "nonferment": 8341,
      "butirosin": 8342,
      "lactoyl": 8343,
      "lactofer": 8344,
      "nitroreductase": 8345,
      "nitroquinoline": 8346,
      "antiter": 8347,
      "strands": 8348,
      "threo": 8349,
      "transitional": 8350,
      "tissues": 8351,
      "citrone": 8352,
      "butyraldehyde": 8353,
      "exporting": 8354,
      "dihydropyrimidine": 8355,
      "dihydropterin": 8356,
      "dihydroquinoline": 8357,
      "dihydropteridine": 8358,
      "af1": 8359,
      "afferent": 8360,
      "sidedness": 8361,
      "corepressor": 8362,
      "glucuronic": 8363,
      "glucuronylation": 8364,
      "glucuronosyl": 8365,
      "phototaxis": 8366,
      "10r": 8367,
      "10beta": 8368,
      "heterocycle": 8369,
      "heteroglycan": 8370,
      "heterodisulfide": 8371,
      "heteropentacyclic": 8372,
      "yeast": 8373,
      "vitexin": 8374,
      "boron": 8375,
      "dpp6": 8376,
      "dihydroxybenzo": 8377,
      "dihydroxyfluorene": 8378,
      "dihydroxycyclohexa": 8379,
      "support": 8380,
      "idinone": 8381,
      "sulfoacetaldehyde": 8382,
      "butanoyltransferase": 8383,
      "aldonic": 8384,
      "aldaric": 8385,
      "primosome": 8386,
      "melamine": 8387,
      "poletin": 8388,
      "autotransporter": 8389,
      "17z": 8390,
      "17alpha": 8391,
      "brexano": 8392,
      "brefeldin": 8393,
      "fructosidase": 8394,
      "fructotransferase": 8395,
      "singlet": 8396,
      "fluconazole": 8397,
      "recombinational": 8398,
      "caste": 8399,
      "acceptors": 8400,
      "h2be": 8401,
      "h2ax": 8402,
      "octadec": 8403,
      "octanoylation": 8404,
      "uronide": 8405,
      "tetrahydropterin": 8406,
      "tetrahydrosarcinapterin": 8407,
      "tetrahydrodipic": 8408,
      "delta5": 8409,
      "delta7": 8410,
      "delta12": 8411,
      "capsular": 8412,
      "oxalo": 8413,
      "innervation": 8414,
      "ventriculo": 8415,
      "fused": 8416,
      "galactosaminoglycan": 8417,
      "16alpha": 8418,
      "istate": 8419,
      "myotome": 8420,
      "ommochrome": 8421,
      "indolebutyric": 8422,
      "cul4": 8423,
      "dynactin": 8424,
      "rhamnon": 8425,
      "rhamnetin": 8426,
      "elliferyl": 8427,
      "dimethylglycine": 8428,
      "retroviral": 8429,
      "pentraxin": 8430,
      "ethylmalate": 8431,
      "nua3": 8432,
      "arabinonate": 8433,
      "arabinono": 8434,
      "arabinofuranose": 8435,
      "rosa": 8436,
      "rosome": 8437,
      "demethylating": 8438,
      "bract": 8439,
      "hypochlorous": 8440,
      "tryptophyl": 8441,
      "amixanthone": 8442,
      "intermediates": 8443,
      "glycolysis": 8444,
      "propionase": 8445,
      "propionylation": 8446,
      "fructoselysine": 8447,
      "mammillo": 8448,
      "mucin": 8449,
      "structured": 8450,
      "mutation": 8451,
      "h3k18": 8452,
      "lupeol": 8453,
      "ketogluconate": 8454,
      "ketopimel": 8455,
      "silic": 8456,
      "silicon": 8457,
      "olyase": 8458,
      "glycerolipid": 8459,
      "glycerophosphotransferase": 8460,
      "glycerophosphodiester": 8461,
      "rhamnosidase": 8462,
      "adienol": 8463,
      "tractant": 8464,
      "chitinase": 8465,
      "methylthioadenosine": 8466,
      "methylthiobutyrate": 8467,
      "methylthiobutyl": 8468,
      "methylthiohexyl": 8469,
      "pyroptosis": 8470,
      "pyrophosphohydrolase": 8471,
      "epoxid": 8472,
      "substrates": 8473,
      "glutaconyl": 8474,
      "14z": 8475,
      "efferent": 8476,
      "funalenone": 8477,
      "fungiform": 8478,
      "ipecoside": 8479,
      "pulsatile": 8480,
      "enolide": 8481,
      "enolactone": 8482,
      "extraglomerular": 8483,
      "halohydrin": 8484,
      "biliver": 8485,
      "floor": 8486,
      "steryl": 8487,
      "pseudocleavage": 8488,
      "cyclohexanol": 8489,
      "cyclohexanone": 8490,
      "cyclohexadiene": 8491,
      "segments": 8492,
      "h4r3": 8493,
      "trimethylenediamine": 8494,
      "oligophosphate": 8495,
      "oligogalacturon": 8496,
      "programming": 8497,
      "forelimb": 8498,
      "ovule": 8499,
      "oviduct": 8500,
      "cadaver": 8501,
      "shi": 8502,
      "shp": 8503,
      "shuttle": 8504,
      "shamixanthone": 8505,
      "olinic": 8506,
      "olinone": 8507,
      "sheet": 8508,
      "alkylphenone": 8509,
      "convergence": 8510,
      "21u": 8511,
      "mislocalized": 8512,
      "androsta": 8513,
      "asparaginase": 8514,
      "karyomere": 8515,
      "hydroxymethylfurfural": 8516,
      "coumaroyltransferase": 8517,
      "selenomethionine": 8518,
      "selenocysteinyl": 8519,
      "pyrrolysine": 8520,
      "pyrroloquinoline": 8521,
      "quercitin": 8522,
      "hydroxyphenylacetaldehyde": 8523,
      "superinfection": 8524,
      "myelinated": 8525,
      "trehalase": 8526,
      "mesangium": 8527,
      "branchial": 8528,
      "saponin": 8529,
      "intramembrane": 8530,
      "intraglomerular": 8531,
      "intramembranous": 8532,
      "dichloroethane": 8533,
      "berbam": 8534,
      "jogging": 8535,
      "daphnetin": 8536,
      "monocytes": 8537,
      "hindlimb": 8538,
      "acetoacetic": 8539,
      "acetonitrile": 8540,
      "acetophenone": 8541,
      "slit": 8542,
      "spacer": 8543,
      "glycogenin": 8544,
      "sporocyte": 8545,
      "melanotic": 8546,
      "imidazoleglycerol": 8547,
      "bulbo": 8548,
      "gramicidin": 8549,
      "zolo": 8550,
      "cyanoalanine": 8551,
      "cyanogenic": 8552,
      "mannogen": 8553,
      "pentapeptide": 8554,
      "pentachlorophenol": 8555,
      "arylamine": 8556,
      "selenide": 8557,
      "selenoneine": 8558,
      "luteolysis": 8559,
      "fucosyl": 8560,
      "fucosylation": 8561,
      "acetylgalactosaminidase": 8562,
      "muramoyl": 8563,
      "rpd3": 8564,
      "vanilloyl": 8565,
      "visible": 8566,
      "vistamycin": 8567,
      "myristate": 8568,
      "enoylcysteine": 8569,
      "ccr2": 8570,
      "gentamycin": 8571,
      "osmoregulated": 8572,
      "hydrolysis": 8573,
      "hedgeho": 8574,
      "lignan": 8575,
      "22s": 8576,
      "smc": 8577,
      "diapedesis": 8578,
      "dockerin": 8579,
      "chromocenter": 8580,
      "mucosa": 8581,
      "isolation": 8582,
      "retinoid": 8583,
      "shock": 8584,
      "orient": 8585,
      "urinary": 8586,
      "microvillar": 8587,
      "integrase": 8588,
      "integrated": 8589,
      "c1q": 8590,
      "reversible": 8591,
      "chitos": 8592,
      "xylogalact": 8593,
      "patcho": 8594,
      "adipyl": 8595,
      "ufmylation": 8596,
      "neomycin": 8597,
      "diphosphoundecaprenol": 8598,
      "acireductone": 8599,
      "arabinopyranosyl": 8600,
      "hypoxic": 8601,
      "carotenal": 8602,
      "cinnamoyl": 8603,
      "d1p": 8604,
[...]
