{
  "version": "1.0",
  "truncation": null,
  "padding": {
    "strategy": "BatchLongest",
    "direction": "Right",
    "pad_to_multiple_of": null,
    "pad_id": 2,
    "pad_type_id": 0,
    "pad_token": "<pad>"
  },
  "added_tokens": [
    {
      "id": 0,
      "content": "<annotation>",
      "single_word": false,
      "lstrip": false,
      "rstrip": false,
      "normalized": false,
      "special": true
    },
    {
      "id": 1,
      "content": "</annotation>",
      "single_word": false,
      "lstrip": false,
      "rstrip": false,
      "normalized": false,
      "special": true
    },
    {
      "id": 2,
      "content": "<pad>",
      "single_word": false,
      "lstrip": false,
      "rstrip": false,
      "normalized": false,
      "special": true
    },
    {
      "id": 3,
      "content": "<unk>",
      "single_word": false,
      "lstrip": false,
      "rstrip": false,
      "normalized": false,
      "special": true
    }
  ],
  "normalizer": {
    "type": "Sequence",
    "normalizers": [
      {
        "type": "NFD"
      },
      {
        "type": "Lowercase"
      },
      {
        "type": "StripAccents"
      }
    ]
  },
  "pre_tokenizer": {
    "type": "Whitespace"
  },
  "post_processor": {
    "type": "TemplateProcessing",
    "single": [
      {
        "SpecialToken": {
          "id": "<annotation>",
          "type_id": 0
        }
      },
      {
        "Sequence": {
          "id": "A",
          "type_id": 0
        }
      },
      {
        "SpecialToken": {
          "id": "</annotation>",
          "type_id": 0
        }
      }
    ],
    "pair": [
      {
        "Sequence": {
          "id": "A",
          "type_id": 0
        }
      },
      {
        "Sequence": {
          "id": "B",
          "type_id": 1
        }
      }
    ],
    "special_tokens": {
      "</annotation>": {
        "id": "</annotation>",
        "ids": [
          1
        ],
        "tokens": [
          "</annotation>"
        ]
      },
      "<annotation>": {
        "id": "<annotation>",
        "ids": [
          0
        ],
        "tokens": [
          "<annotation>"
        ]
      }
    }
  },
  "decoder": null,
  "model": {
    "type": "WordPiece",
    "unk_token": "<unk>",
    "continuing_subword_prefix": "##",
    "max_input_chars_per_word": 100,
    "vocab": {
      "<annotation>": 0,
      "</annotation>": 1,
      "<pad>": 2,
      "<unk>": 3,
      "#": 4,
      "'": 5,
      "(": 6,
      ")": 7,
      "+": 8,
      ",": 9,
      "-": 10,
      ".": 11,
      "/": 12,
      "0": 13,
      "1": 14,
      "2": 15,
      "3": 16,
      "4": 17,
      "5": 18,
      "6": 19,
      "7": 20,
      "8": 21,
      "9": 22,
      ":": 23,
      "=": 24,
      ">": 25,
      "[": 26,
      "]": 27,
      "_": 28,
      "a": 29,
      "b": 30,
      "c": 31,
      "d": 32,
      "e": 33,
      "f": 34,
      "g": 35,
      "h": 36,
      "i": 37,
      "j": 38,
      "k": 39,
      "l": 40,
      "m": 41,
      "n": 42,
      "o": 43,
      "p": 44,
      "q": 45,
      "r": 46,
      "s": 47,
      "t": 48,
      "u": 49,
      "v": 50,
      "w": 51,
      "x": 52,
      "y": 53,
      "z": 54,
      "##r": 55,
      "##c": 56,
      "##1": 57,
      "##e": 58,
      "##g": 59,
      "##u": 60,
      "##l": 61,
      "##a": 62,
      "##t": 63,
      "##i": 64,
      "##o": 65,
      "##n": 66,
      "##5": 67,
      "##s": 68,
      "##p": 69,
      "##h": 70,
      "##v": 71,
      "##2": 72,
      "##d": 73,
      "##y": 74,
      "##x": 75,
      "##b": 76,
      "##m": 77,
      "##z": 78,
      "##f": 79,
      "##3": 80,
      "##k": 81,
      "##4": 82,
      "##w": 83,
      "##+": 84,
      "##]": 85,
      "##7": 86,
      "##q": 87,
      "##6": 88,
      "##8": 89,
      "##9": 90,
      "##[": 91,
      "##(": 92,
      "##)": 93,
      "##-": 94,
      "##0": 95,
      "##j": 96,
      "##:": 97,
      "##'": 98,
      "##,": 99,
      "##/": 100,
      "##_": 101,
      "##>": 102,
      "##io": 103,
      "##ro": 104,
      "##ic": 105,
      "##es": 106,
      "##al": 107,
      "##ion": 108,
      "##at": 109,
      "##ess": 110,
      "##roc": 111,
      "##rocess": 112,
      "##lo": 113,
      "##ul": 114,
      "bio": 115,
      "##ical": 116,
      "##log": 117,
      "##logical": 118,
      "biological": 119,
      "##process": 120,
      "##_process": 121,
      "biological_process": 122,
      "##ct": 123,
      "##in": 124,
      "##ar": 125,
      "##ol": 126,
      "##it": 127,
      "##ation": 128,
      "##iv": 129,
      "##en": 130,
      "##ular": 131,
      "##ec": 132,
      "##ular_": 133,
      "##an": 134,
      "##se": 135,
      "##eg": 136,
      "##on": 137,
      "##ction": 138,
      "##er": 139,
      "of": 140,
      "##un": 141,
      "##el": 142,
      "mol": 143,
      "##unction": 144,
      "##or": 145,
      "molec": 146,
      "act": 147,
      "##function": 148,
      "##ular_function": 149,
      "molecular_function": 150,
      "activ": 151,
      "##ity": 152,
      "##os": 153,
      "##et": 154,
      "##ulation": 155,
      "reg": 156,
      "activity": 157,
      "regulation": 158,
      "##ase": 159,
      "##ell": 160,
      "##om": 161,
      "##ent": 162,
      "##ran": 163,
      "cell": 164,
      "##yl": 165,
      "##id": 166,
      "##le": 167,
      "##ive": 168,
      "##ph": 169,
      "##omp": 170,
      "##ing": 171,
      "in": 172,
      "##rans": 173,
      "process": 174,
      "##ate": 175,
      "##pt": 176,
      "##ine": 177,
      "##is": 178,
      "##th": 179,
      "trans": 180,
      "##te": 181,
      "##onent": 182,
      "##omponent": 183,
      "##component": 184,
      "##ular_component": 185,
      "cellular_component": 186,
      "pro": 187,
      "##ed": 188,
      "##ab": 189,
      "de": 190,
      "##yn": 191,
      "pos": 192,
      "##fer": 193,
      "##mb": 194,
      "##ig": 195,
      "##olic": 196,
      "##itive": 197,
      "met": 198,
      "positive": 199,
      "##ative": 200,
      "##abolic": 201,
      "##uc": 202,
      "##am": 203,
      "neg": 204,
      "negative": 205,
      "##ept": 206,
      "##por": 207,
      "##as": 208,
      "##ter": 209,
      "##yd": 210,
      "##gen": 211,
      "##ynth": 212,
      "to": 213,
      "##ot": 214,
      "comp": 215,
      "ac": 216,
      "##na": 217,
      "##ydro": 218,
      "##osph": 219,
      "ph": 220,
      "##oc": 221,
      "##lex": 222,
      "##ment": 223,
      "complex": 224,
      "gl": 225,
      "##us": 226,
      "##tein": 227,
      "##etic": 228,
      "res": 229,
      "##ac": 230,
      "##ind": 231,
      "##ide": 232,
      "resp": 233,
      "bios": 234,
      "biosynth": 235,
      "ch": 236,
      "##emb": 237,
      "##onse": 238,
      "##embran": 239,
      "##embrane": 240,
      "##ri": 241,
      "biosynthetic": 242,
      "protein": 243,
      "response": 244,
      "transpor": 245,
      "##um": 246,
      "##yc": 247,
      "di": 248,
      "##ferase": 249,
      "rec": 250,
      "##inding": 251,
      "binding": 252,
      "##eptor": 253,
      "##ve": 254,
      "##od": 255,
      "##ur": 256,
      "##ransferase": 257,
      "##nal": 258,
      "metabolic": 259,
      "##xy": 260,
      "##act": 261,
      "phosph": 262,
      "cat": 263,
      "receptor": 264,
      "##tr": 265,
      "##lop": 266,
      "sig": 267,
      "signal": 268,
      "en": 269,
      "##transferase": 270,
      "inv": 271,
      "##ath": 272,
      "##velop": 273,
      "##yltransferase": 274,
      "invol": 275,
      "##ved": 276,
      "involved": 277,
      "catabolic": 278,
      "an": 279,
      "##velopment": 280,
      "development": 281,
      "##iz": 282,
      "##las": 283,
      "##ucle": 284,
      "##op": 285,
      "##ut": 286,
      "##ad": 287,
      "##il": 288,
      "signaling": 289,
      "##ay": 290,
      "##orm": 291,
      "##one": 292,
      "##ization": 293,
      "transport": 294,
      "##ys": 295,
      "as": 296,
      "##genase": 297,
      "al": 298,
      "##ated": 299,
      "path": 300,
      "##ag": 301,
      "##way": 302,
      "pathway": 303,
      "hydro": 304,
      "##ial": 305,
      "##hydro": 306,
      "meth": 307,
      "##yt": 308,
      "##ron": 309,
      "or": 310,
      "##ib": 311,
      "sp": 312,
      "##esis": 313,
      "##iation": 314,
      "membrane": 315,
      "##ium": 316,
      "co": 317,
      "##rom": 318,
      "##ym": 319,
      "acid": 320,
      "##min": 321,
      "##ub": 322,
      "end": 323,
      "##rna": 324,
      "##ogen": 325,
      "##uct": 326,
      "gluc": 327,
      "ne": 328,
      "form": 329,
      "nucle": 330,
      "##yp": 331,
      "##ch": 332,
      "##ome": 333,
      "st": 334,
      "transm": 335,
      "##gan": 336,
      "vi": 337,
      "##em": 338,
      "##ip": 339,
      "##ain": 340,
      "##ffer": 341,
      "##entiation": 342,
      "##eta": 343,
      "##fferentiation": 344,
      "pol": 345,
      "##ly": 346,
      "differentiation": 347,
      "ad": 348,
      "organ": 349,
      "##ox": 350,
      "car": 351,
      "##ose": 352,
      "ox": 353,
      "ex": 354,
      "transmembrane": 355,
      "con": 356,
      "##ep": 357,
      "##ogenesis": 358,
      "beta": 359,
      "##inase": 360,
      "##semb": 361,
      "##sembly": 362,
      "##orph": 363,
      "##if": 364,
      "##end": 365,
      "##uction": 366,
      "cellular": 367,
      "dna": 368,
      "morph": 369,
      "##pha": 370,
      "mit": 371,
      "##otic": 372,
      "##im": 373,
      "morphogenesis": 374,
      "##ost": 375,
      "by": 376,
      "##duction": 377,
      "##ap": 378,
      "dehydro": 379,
      "im": 380,
      "acet": 381,
      "##ce": 382,
      "##gl": 383,
      "##lasm": 384,
      "##phosph": 385,
      "##edi": 386,
      "th": 387,
      "synth": 388,
      "##ication": 389,
      "cyt": 390,
      "##ylation": 391,
      "formation": 392,
      "##ype": 393,
      "##ist": 394,
      "dehydrogenase": 395,
      "##apt": 396,
      "assembly": 397,
      "inter": 398,
      "##ene": 399,
      "pept": 400,
      "alpha": 401,
      "type": 402,
      "##usc": 403,
      "medi": 404,
      "##oxy": 405,
      "transporter": 406,
      "##ann": 407,
      "##idyl": 408,
      "##ros": 409,
      "##oth": 410,
      "##re": 411,
      "##icle": 412,
      "##educt": 413,
      "##ero": 414,
      "neu": 415,
      "##actor": 416,
      "gro": 417,
      "##amine": 418,
      "##ule": 419,
      "musc": 420,
      "synthase": 421,
      "muscle": 422,
      "##ulf": 423,
      "##idase": 424,
      "mediated": 425,
      "##ric": 426,
      "##eductase": 427,
      "##eth": 428,
      "##ylase": 429,
      "##och": 430,
      "##ond": 431,
      "sec": 432,
      "host": 433,
      "##yste": 434,
      "amin": 435,
      "##qu": 436,
      "##erm": 437,
      "dep": 438,
      "ap": 439,
      "mon": 440,
      "loc": 441,
      "factor": 442,
      "##age": 443,
      "ep": 444,
      "##ith": 445,
      "glyc": 446,
      "##ance": 447,
      "##rot": 448,
      "##ret": 449,
      "##ens": 450,
      "cyc": 451,
      "prol": 452,
      "lig": 453,
      "##up": 454,
      "ion": 455,
      "##yr": 456,
      "##yte": 457,
      "##osome": 458,
      "grow": 459,
      "##alization": 460,
      "kinase": 461,
      "rna": 462,
      "##ory": 463,
      "##endent": 464,
      "##st": 465,
      "growth": 466,
      "int": 467,
      "ar": 468,
      "##last": 469,
      "via": 470,
      "##ynapt": 471,
      "hydroxy": 472,
      "##kin": 473,
      "rep": 474,
      "ant": 475,
      "phosphat": 476,
      "##ral": 477,
      ")-": 478,
      "##ary": 479,
      "amino": 480,
      "spec": 481,
      "at": 482,
      "##art": 483,
      "localization": 484,
      "phosphate": 485,
      "##ynaptic": 486,
      "hist": 487,
      "##ir": 488,
      "secret": 489,
      "##ifer": 490,
      "##ification": 491,
      "##phosphate": 492,
      "dependent": 493,
      "sulf": 494,
      "##erase": 495,
      "methyl": 496,
      "pr": 497,
      "##idine": 498,
      "prolifer": 499,
      "transc": 500,
      "production": 501,
      "glucos": 502,
      "##enyl": 503,
      "coa": 504,
      "'-": 505,
      "##opt": 506,
      "proliferation": 507,
      "##amin": 508,
      "##lase": 509,
      "mono": 510,
      "transcri": 511,
      "##ption": 512,
      "##ration": 513,
      "nad": 514,
      "glut": 515,
      "##tic": 516,
      "mes": 517,
      "lip": 518,
      "acetyl": 519,
      "##rop": 520,
      "secretion": 521,
      "##elial": 522,
      "cor": 523,
      "##port": 524,
      "tr": 525,
      "##ating": 526,
      "ii": 527,
      "methyltransferase": 528,
      "rib": 529,
      "##ochond": 530,
      "##av": 531,
      "##amm": 532,
      "plasm": 533,
      "reductase": 534,
      "##alact": 535,
      "mitochond": 536,
      "cal": 537,
      "##and": 538,
      "organization": 539,
      "##und": 540,
      "##mun": 541,
      "ves": 542,
      "le": 543,
      "##atur": 544,
      "mig": 545,
      "##roph": 546,
      "##itol": 547,
      "migration": 548,
      "str": 549,
      "carb": 550,
      "##meth": 551,
      "apopt": 552,
      "he": 553,
      "from": 554,
      "##onucle": 555,
      "is": 556,
      "am": 557,
      "vesicle": 558,
      "chem": 559,
      "##ermin": 560,
      "##ane": 561,
      "calc": 562,
      "transcription": 563,
      "pl": 564,
      "##rial": 565,
      "apoptotic": 566,
      "dis": 567,
      "##ocyte": 568,
      "stim": 569,
      "immun": 570,
      "peptidyl": 571,
      "oxid": 572,
      "mic": 573,
      "##leu": 574,
      "##ellular": 575,
      "##di": 576,
      "stimul": 577,
      "mitotic": 578,
      "interleu": 579,
      "interleukin": 580,
      "plasma": 581,
      "##oph": 582,
      "##glyc": 583,
      "##elet": 584,
      "##ubule": 585,
      "histone": 586,
      "##ob": 587,
      "##ior": 588,
      "##mer": 589,
      "##oll": 590,
      "##oid": 591,
      "##itin": 592,
      "##oplasm": 593,
      "chann": 594,
      "channel": 595,
      "##hyd": 596,
      "calcium": 597,
      "##ound": 598,
      "##enz": 599,
      "hydrox": 600,
      "##ition": 601,
      "##ystem": 602,
      "##ole": 603,
      "##ism": 604,
      "det": 605,
      "##mit": 606,
      "##dp": 607,
      "##tero": 608,
      "##diac": 609,
      "ax": 610,
      "##rin": 611,
      "##ite": 612,
      "trna": 613,
      "##all": 614,
      "nuclear": 615,
      "polym": 616,
      "fate": 617,
      "mitochondrial": 618,
      "##iss": 619,
      "##oplasmic": 620,
      "##ak": 621,
      "##oside": 622,
      "##etr": 623,
      "my": 624,
      "##ax": 625,
      "mod": 626,
      "sm": 627,
      "epith": 628,
      "ligase": 629,
      "activation": 630,
      "lys": 631,
      "##hes": 632,
      "and": 633,
      "system": 634,
      "##iqu": 635,
      "me": 636,
      "##ection": 637,
      "import": 638,
      "per": 639,
      "cardiac": 640,
      "processing": 641,
      "##trac": 642,
      "rrna": 643,
      "glutam": 644,
      "##otide": 645,
      "pot": 646,
      "##osyl": 647,
      "##osine": 648,
      "chrom": 649,
      "stimulus": 650,
      "galact": 651,
      "synaptic": 652,
      "##ody": 653,
      "gu": 654,
      "##phric": 655,
      "##igen": 656,
      "##ositol": 657,
      "##ten": 658,
      "sub": 659,
      "tri": 660,
      "##ne": 661,
      "##oxygenase": 662,
      "body": 663,
      "##eral": 664,
      "hydrolase": 665,
      "meio": 666,
      "##tracellular": 667,
      "##ok": 668,
      "##arb": 669,
      "polymerase": 670,
      "specification": 671,
      "##atory": 672,
      "##ross": 673,
      "##lon": 674,
      "dio": 675,
      "##hment": 676,
      "antigen": 677,
      "phosphatase": 678,
      "se": 679,
      "##asc": 680,
      "##hesion": 681,
      "##ry": 682,
      "##ysteine": 683,
      "into": 684,
      "##acet": 685,
      "mrna": 686,
      "main": 687,
      "##porter": 688,
      "mal": 689,
      "ind": 690,
      "##tenance": 691,
      "maintenance": 692,
      "##xygenase": 693,
      "horm": 694,
      "chlo": 695,
      "##rim": 696,
      "##ton": 697,
      "##kelet": 698,
      "hormone": 699,
      "com": 700,
      "##inal": 701,
      "peptide": 702,
      "monooxygenase": 703,
      "nit": 704,
      "cont": 705,
      "post": 706,
      "##opro": 707,
      "##iquitin": 708,
      "gran": 709,
      "##atase": 710,
      "atp": 711,
      "##uron": 712,
      "inh": 713,
      "immune": 714,
      "##ator": 715,
      "##og": 716,
      "##anine": 717,
      "##ural": 718,
      "##oprotein": 719,
      "mann": 720,
      "neuron": 721,
      "cycle": 722,
      "lin": 723,
      "sy": 724,
      "##action": 725,
      "##air": 726,
      "##lomer": 727,
      "viral": 728,
      "symb": 729,
      "##osyltransferase": 730,
      "repl": 731,
      "microt": 732,
      "epithelial": 733,
      "est": 734,
      "##fl": 735,
      "##onic": 736,
      "inhib": 737,
      "contr": 738,
      "##ous": 739,
      "organism": 740,
      "##lation": 741,
      "deoxy": 742,
      "##erol": 743,
      "dec": 744,
      "##est": 745,
      "pres": 746,
      "##ud": 747,
      "##oyl": 748,
      "ser": 749,
      "##otransferase": 750,
      "phosphatidyl": 751,
      "##methyl": 752,
      "ub": 753,
      "##ulo": 754,
      "pyr": 755,
      "compound": 756,
      "##ure": 757,
      "##atin": 758,
      "##ill": 759,
      "##iont": 760,
      "symbiont": 761,
      "microtubule": 762,
      "ret": 763,
      "dihydro": 764,
      "##oreductase": 765,
      "fl": 766,
      "fat": 767,
      "##ulin": 768,
      "blo": 769,
      "##indle": 770,
      "spindle": 771,
      "fib": 772,
      "glucose": 773,
      "##oxyl": 774,
      "##odium": 775,
      "oxidoreductase": 776,
      "translation": 777,
      "coup": 778,
      "glutamate": 779,
      "hydroxylase": 780,
      "blood": 781,
      "ol": 782,
      "termin": 783,
      "##ress": 784,
      "##lic": 785,
      "phosphor": 786,
      "cl": 787,
      "on": 788,
      "##ooth": 789,
      "acyl": 790,
      "smooth": 791,
      "link": 792,
      "##atic": 793,
      "##ore": 794,
      "glucosyltransferase": 795,
      "adhesion": 796,
      "##rob": 797,
      "poly": 798,
      "cytos": 799,
      "replication": 800,
      "fil": 801,
      "##aining": 802,
      "##oline": 803,
      "##gluc": 804,
      "meiotic": 805,
      "ab": 806,
      "te": 807,
      "tetr": 808,
      "##ament": 809,
      "axon": 810,
      "containing": 811,
      "##lis": 812,
      "##ablis": 813,
      "establis": 814,
      "##onate": 815,
      "##omal": 816,
      "dioxygenase": 817,
      "cent": 818,
      "retic": 819,
      "establishment": 820,
      "##led": 821,
      "##okine": 822,
      "mot": 823,
      "sh": 824,
      "##ug": 825,
      "##ocyt": 826,
      "##olar": 827,
      "##rand": 828,
      "py": 829,
      "##ty": 830,
      "##ht": 831,
      "##acch": 832,
      "##oate": 833,
      "##de": 834,
      "-(": 835,
      "strand": 836,
      "filament": 837,
      "endoth": 838,
      "nucleotide": 839,
      "##olip": 840,
      "##erg": 841,
      "##usion": 842,
      "ner": 843,
      "un": 844,
      "wall": 845,
      "actin": 846,
      "regul": 847,
      "##terior": 848,
      "serine": 849,
      "##anol": 850,
      "across": 851,
      "the": 852,
      "reticul": 853,
      "##gr": 854,
      "rh": 855,
      "##rone": 856,
      "vir": 857,
      "oxidase": 858,
      "udp": 859,
      "ubiquitin": 860,
      "##uv": 861,
      "##ia": 862,
      "##ere": 863,
      "##long": 864,
      "##yme": 865,
      "inhibit": 866,
      "coupled": 867,
      "##acchar": 868,
      "reticulum": 869,
      "##osin": 870,
      "stress": 871,
      "matur": 872,
      "cysteine": 873,
      "##ult": 874,
      "chain": 875,
      "heart": 876,
      "syn": 877,
      "##ik": 878,
      "##ench": 879,
      "proton": 880,
      "##oderm": 881,
      "##ester": 882,
      "##ors": 883,
      "##endr": 884,
      "##mitment": 885,
      "commitment": 886,
      "##ade": 887,
      "##terol": 888,
      "dendr": 889,
      "gol": 890,
      "##ue": 891,
      "metane": 892,
      "##ific": 893,
      "##accharide": 894,
      "der": 895,
      "##oin": 896,
      "##erox": 897,
      "lysine": 898,
      "fatty": 899,
      "pur": 900,
      "lipid": 901,
      "er": 902,
      "emb": 903,
      "##rine": 904,
      "##gi": 905,
      "neurot": 906,
      "integ": 907,
      "specific": 908,
      "golgi": 909,
      "lo": 910,
      "##ateral": 911,
      "##osis": 912,
      "contraction": 913,
      "endothelial": 914,
      "embry": 915,
      "clas": 916,
      "sup": 917,
      "struct": 918,
      "class": 919,
      "iron": 920,
      "##ge": 921,
      "##ant": 922,
      "##amide": 923,
      "nucleus": 924,
      "mesench": 925,
      "sens": 926,
      "sodium": 927,
      "##pore": 928,
      "##ode": 929,
      "oxo": 930,
      "##ission": 931,
      "##per": 932,
      "##ff": 933,
      "##iol": 934,
      "##itiation": 935,
      "##isphosphate": 936,
      "##rib": 937,
      "##acter": 938,
      "granule": 939,
      "cd": 940,
      "cap": 941,
      "sym": 942,
      "##ision": 943,
      "phot": 944,
      "with": 945,
      "##hol": 946,
      "##ass": 947,
      "endoplasmic": 948,
      "mac": 949,
      "##anyl": 950,
      "aden": 951,
      "##hyde": 952,
      "##dehyde": 953,
      "tub": 954,
      "##omb": 955,
      "##ential": 956,
      "##other": 957,
      "##keletal": 958,
      "virus": 959,
      "rel": 960,
      "##cin": 961,
      "##ence": 962,
      "activated": 963,
      "adapt": 964,
      "maturation": 965,
      "fusion": 966,
      "pat": 967,
      "sn": 968,
      "sal": 969,
      "##trin": 970,
      "##amma": 971,
      "##ense": 972,
      "##oxylase": 973,
      "##axis": 974,
      "non": 975,
      "##tem": 976,
      "polar": 977,
      "##onuclease": 978,
      "gamma": 979,
      "gen": 980,
      "oxy": 981,
      "##yase": 982,
      "gland": 983,
      "posts": 984,
      "gated": 985,
      "ty": 986,
      "acting": 987,
      "mat": 988,
      "inositol": 989,
      "transduction": 990,
      "##ermination": 991,
      "detection": 992,
      "h3": 993,
      "##ile": 994,
      "##ung": 995,
      "##tern": 996,
      "asp": 997,
      "vac": 998,
      "prote": 999,
      "another": 1000,
      "##ymal": 1001,
      "lyase": 1002,
      "metanephric": 1003,
      "mesenchymal": 1004,
      "hyp": 1005,
      "##osomal": 1006,
      "##ression": 1007,
      "tyros": 1008,
      "vacu": 1009,
      "be": 1010,
      "chemot": 1011,
      "re": 1012,
      "vasc": 1013,
      "##anth": 1014,
      "intracellular": 1015,
      "##ike": 1016,
      "elong": 1017,
      "##uk": 1018,
      "##he": 1019,
      "sulfur": 1020,
      "potential": 1021,
      "##uvate": 1022,
      "##yan": 1023,
      "##arate": 1024,
      "diphosphate": 1025,
      "decarb": 1026,
      "terminal": 1027,
      "embryonic": 1028,
      "vent": 1029,
      "##rate": 1030,
      "initiation": 1031,
      "integrin": 1032,
      "cle": 1033,
      "##val": 1034,
      "##ived": 1035,
      "derived": 1036,
      "des": 1037,
      "eth": 1038,
      "hem": 1039,
      "like": 1040,
      "skeletal": 1041,
      "##apse": 1042,
      "acetyltransferase": 1043,
      "oxygen": 1044,
      "chemotaxis": 1045,
      "junction": 1046,
      "##ionine": 1047,
      "##umen": 1048,
      "part": 1049,
      "##entation": 1050,
      "line": 1051,
      "qu": 1052,
      "##az": 1053,
      "##enol": 1054,
      "##erin": 1055,
      "nerve": 1056,
      "fer": 1057,
      "##ratase": 1058,
      "induction": 1059,
      "transition": 1060,
      "##aminase": 1061,
      "##glut": 1062,
      "fr": 1063,
      "lact": 1064,
      "phospho": 1065,
      "##roblast": 1066,
      "symporter": 1067,
      "postsynaptic": 1068,
      "lumen": 1069,
      "tyrosine": 1070,
      "elongation": 1071,
      "div": 1072,
      "tiss": 1073,
      "##rogen": 1074,
      "##inone": 1075,
      "sel": 1076,
      "##omain": 1077,
      "ass": 1078,
      "##ching": 1079,
      "##hav": 1080,
      "##lob": 1081,
      "##assembly": 1082,
      "behav": 1083,
      "cis": 1084,
      "ele": 1085,
      "suc": 1086,
      "thre": 1087,
      "tissue": 1088,
      "base": 1089,
      "bacter": 1090,
      "home": 1091,
      "##ylo": 1092,
      "##)-": 1093,
      "##idin": 1094,
      "##eptide": 1095,
      "repair": 1096,
      "determination": 1097,
      "modulation": 1098,
      "pattern": 1099,
      "homeost": 1100,
      "##rocyte": 1101,
      "##ard": 1102,
      "bud": 1103,
      "hom": 1104,
      "lateral": 1105,
      "tubule": 1106,
      "##rain": 1107,
      "##sic": 1108,
      "##asis": 1109,
      "telomer": 1110,
      "ca": 1111,
      "matri": 1112,
      "domain": 1113,
      "lipoprotein": 1114,
      "potass": 1115,
      "##oint": 1116,
      "purine": 1117,
      "matrix": 1118,
      "potassium": 1119,
      "perox": 1120,
      "##gin": 1121,
      "##itic": 1122,
      "endosome": 1123,
      "chromosome": 1124,
      "##ocytosis": 1125,
      "bran": 1126,
      "##ver": 1127,
      "##eck": 1128,
      "sperm": 1129,
      "forming": 1130,
      "export": 1131,
      "##glycerol": 1132,
      "polarity": 1133,
      "##mp": 1134,
      "##omerase": 1135,
      "modification": 1136,
      "##rimidine": 1137,
      "decarboxylase": 1138,
      "homeostasis": 1139,
      "##tp": 1140,
      "##ination": 1141,
      "##abin": 1142,
      "neural": 1143,
      "disassembly": 1144,
      "##glucos": 1145,
      "do": 1146,
      "sc": 1147,
      "##ytic": 1148,
      "adenyl": 1149,
      "extracellular": 1150,
      "sept": 1151,
      "acc": 1152,
      "sulfate": 1153,
      "mesone": 1154,
      "##trinsic": 1155,
      "coll": 1156,
      "del": 1157,
      "es": 1158,
      "##atom": 1159,
      "##inol": 1160,
      "chol": 1161,
      "cytoplasmic": 1162,
      "leuk": 1163,
      "sequ": 1164,
      "threon": 1165,
      "##eceptor": 1166,
      "infl": 1167,
      "##ast": 1168,
      "##uster": 1169,
      "methylation": 1170,
      "dendritic": 1171,
      "vacuole": 1172,
      "presentation": 1173,
      "cluster": 1174,
      "bas": 1175,
      "##aph": 1176,
      "##pression": 1177,
      "##eration": 1178,
      "neurotrans": 1179,
      "vascular": 1180,
      "assoc": 1181,
      "##ect": 1182,
      "##benz": 1183,
      "inn": 1184,
      "transferase": 1185,
      "prost": 1186,
      "glucan": 1187,
      "core": 1188,
      "##odermal": 1189,
      "##iated": 1190,
      "##erization": 1191,
      "phenyl": 1192,
      "##uble": 1193,
      "chemokine": 1194,
      "division": 1195,
      "don": 1196,
      "prim": 1197,
      "stem": 1198,
      "##ta": 1199,
      "##inositol": 1200,
      "##ycin": 1201,
      "disc": 1202,
      "deoxyrib": 1203,
      "for": 1204,
      "##iporter": 1205,
      "##arg": 1206,
      "recomb": 1207,
      "##irc": 1208,
      "hex": 1209,
      "rele": 1210,
      "behavior": 1211,
      "inflamm": 1212,
      "som": 1213,
      "tol": 1214,
      "##hc": 1215,
      "alk": 1216,
      "glucuron": 1217,
      "light": 1218,
      "##olipid": 1219,
      "##ergic": 1220,
      "cil": 1221,
      "het": 1222,
      "##ang": 1223,
      "argin": 1224,
      "nadp": 1225,
      "particle": 1226,
      "aut": 1227,
      "cam": 1228,
      "vol": 1229,
      "##ian": 1230,
      "def": 1231,
      "##eptidase": 1232,
      "pyrimidine": 1233,
      "##olys": 1234,
      "nucleoside": 1235,
      "iii": 1236,
      "##ophag": 1237,
      "inhibitor": 1238,
      "+)": 1239,
      "ey": 1240,
      "mhc": 1241,
      "##uter": 1242,
      "##agen": 1243,
      "acetylglucos": 1244,
      "ring": 1245,
      "##ich": 1246,
      "##ione": 1247,
      "inc": 1248,
      "##ace": 1249,
      "associated": 1250,
      "hel": 1251,
      "outer": 1252,
      "toll": 1253,
      "##yst": 1254,
      "ribonucle": 1255,
      "eye": 1256,
      "kill": 1257,
      "site": 1258,
      "##tens": 1259,
      "##str": 1260,
      "anterior": 1261,
      "##choline": 1262,
      "##oxin": 1263,
      "##ensity": 1264,
      "glucoside": 1265,
      "olig": 1266,
      "sensory": 1267,
      "ag": 1268,
      "os": 1269,
      "##nt": 1270,
      "##xin": 1271,
      "##enal": 1272,
      "structural": 1273,
      "aspart": 1274,
      "threonine": 1275,
      "benz": 1276,
      "##co": 1277,
      "##ong": 1278,
      "prop": 1279,
      "##acyl": 1280,
      "adp": 1281,
      "##teroid": 1282,
      "synapse": 1283,
      "double": 1284,
      "arginine": 1285,
      "action": 1286,
      "circ": 1287,
      "##oglyc": 1288,
      "##sor": 1289,
      "##ereb": 1290,
      "hep": 1291,
      "lar": 1292,
      "pent": 1293,
      "wnt": 1294,
      "##okin": 1295,
      "##alpha": 1296,
      "##anc": 1297,
      "##eption": 1298,
      "##aden": 1299,
      "##ymph": 1300,
      "antiporter": 1301,
      "mesonephric": 1302,
      "but": 1303,
      "lymph": 1304,
      "ur": 1305,
      "##uced": 1306,
      "pole": 1307,
      "arter": 1308,
      "cereb": 1309,
      "##su": 1310,
      "##point": 1311,
      "##hrom": 1312,
      "##ale": 1313,
      "##old": 1314,
      "##igh": 1315,
      "check": 1316,
      "transmission": 1317,
      "glycine": 1318,
      "translational": 1319,
      "adaptor": 1320,
      "##atomic": 1321,
      "checkpoint": 1322,
      "vit": 1323,
      "##genesis": 1324,
      "ligand": 1325,
      "monoatomic": 1326,
      "tube": 1327,
      "succin": 1328,
      "can": 1329,
      "cop": 1330,
      "rem": 1331,
      "##oreceptor": 1332,
      "deacet": 1333,
      "ald": 1334,
      "cyclase": 1335,
      "isop": 1336,
      "fruct": 1337,
      "density": 1338,
      "##but": 1339,
      "##mon": 1340,
      "##rol": 1341,
      "##ading": 1342,
      "splic": 1343,
      "carbon": 1344,
      "phosphatidylinositol": 1345,
      "##ulose": 1346,
      "macroph": 1347,
      "##hex": 1348,
      "recombination": 1349,
      "germ": 1350,
      "tric": 1351,
      "targ": 1352,
      "##tion": 1353,
      "##tage": 1354,
      "##jug": 1355,
      "acyltransferase": 1356,
      "##ach": 1357,
      "neph": 1358,
      "group": 1359,
      "##oglob": 1360,
      "voltage": 1361,
      "target": 1362,
      "sing": 1363,
      "##ahydro": 1364,
      "##atid": 1365,
      "##rier": 1366,
      "##ility": 1367,
      "arabin": 1368,
      "suppression": 1369,
      "acceptor": 1370,
      "pre": 1371,
      "##iph": 1372,
      "result": 1373,
      "second": 1374,
      "isomerase": 1375,
      "atpase": 1376,
      "elect": 1377,
      "resulting": 1378,
      "ana": 1379,
      "dop": 1380,
      "foll": 1381,
      "##jection": 1382,
      "region": 1383,
      "guid": 1384,
      "dihydroxy": 1385,
      "macrophage": 1386,
      "17": 1387,
      "rad": 1388,
      "##iose": 1389,
      "##tex": 1390,
      "exc": 1391,
      "cyclo": 1392,
      "##oxylate": 1393,
      "single": 1394,
      "component": 1395,
      "cyan": 1396,
      "long": 1397,
      "##galact": 1398,
      "##oic": 1399,
      "##oyltransferase": 1400,
      "##zyme": 1401,
      "dehyd": 1402,
      "cortex": 1403,
      "##oblast": 1404,
      "pyruvate": 1405,
      "fibroblast": 1406,
      "collagen": 1407,
      "delta": 1408,
      "cation": 1409,
      "##til": 1410,
      "##fe": 1411,
      "##terone": 1412,
      "##asome": 1413,
      "star": 1414,
      "acetylation": 1415,
      "interm": 1416,
      "##anolamine": 1417,
      "cut": 1418,
      "##ling": 1419,
      "##of": 1420,
      "##mal": 1421,
      "##olate": 1422,
      "activating": 1423,
      "##adec": 1424,
      "methionine": 1425,
      "conjug": 1426,
      "##esterase": 1427,
      "ket": 1428,
      "par": 1429,
      "plast": 1430,
      "renal": 1431,
      "sw": 1432,
      "oxidation": 1433,
      "##mitter": 1434,
      "male": 1435,
      "##keleton": 1436,
      "##olarization": 1437,
      "##grade": 1438,
      "low": 1439,
      "neurotransmitter": 1440,
      "inner": 1441,
      "gene": 1442,
      "##rion": 1443,
      "alanine": 1444,
      "plat": 1445,
      "##oglycan": 1446,
      "vitamin": 1447,
      "18": 1448,
      "casc": 1449,
      "dors": 1450,
      "glomer": 1451,
      "nic": 1452,
      "red": 1453,
      "##ception": 1454,
      "##bic": 1455,
      "##eric": 1456,
      "##unit": 1457,
      "posterior": 1458,
      "prec": 1459,
      "mitochondrion": 1460,
      "##ake": 1461,
      "subunit": 1462,
      "##glutarate": 1463,
      "inflammatory": 1464,
      "nephron": 1465,
      "platelet": 1466,
      "cascade": 1467,
      "10": 1468,
      "high": 1469,
      "##af": 1470,
      "activator": 1471,
      "##etin": 1472,
      "projection": 1473,
      "phyt": 1474,
      "glial": 1475,
      "dimethyl": 1476,
      "cytokine": 1477,
      "cytoskeleton": 1478,
      "telomere": 1479,
      "dorsal": 1480,
      "bre": 1481,
      "hyd": 1482,
      "mel": 1483,
      "pig": 1484,
      "##elium": 1485,
      "##amn": 1486,
      "##opeptidase": 1487,
      "histidine": 1488,
      "plate": 1489,
      "pigment": 1490,
      "##yb": 1491,
      "##enom": 1492,
      "alco": 1493,
      "regulatory": 1494,
      "ester": 1495,
      "alcohol": 1496,
      "bisphosphate": 1497,
      "##irna": 1498,
      "##esterol": 1499,
      "##eranyl": 1500,
      "##phrine": 1501,
      "cytokin": 1502,
      "neuro": 1503,
      "donors": 1504,
      "lung": 1505,
      "side": 1506,
      "##land": 1507,
      "##iary": 1508,
      "##pen": 1509,
      "##brain": 1510,
      "##form": 1511,
      "##ios": 1512,
      "##osidase": 1513,
      "##inephrine": 1514,
      "transfer": 1515,
      "##ight": 1516,
      "phase": 1517,
      "##umor": 1518,
      "induced": 1519,
      "linked": 1520,
      "rhamn": 1521,
      "dehydratase": 1522,
      "sph": 1523,
      "##eroc": 1524,
      "phosphotransferase": 1525,
      "##ochrom": 1526,
      "plant": 1527,
      "myosin": 1528,
      "perception": 1529,
      "11": 1530,
      "oct": 1531,
      "seg": 1532,
      "##essure": 1533,
      "##eramide": 1534,
      "interfe": 1535,
      "cyclic": 1536,
      "pressure": 1537,
      "##aturase": 1538,
      "presynaptic": 1539,
      "primary": 1540,
      "defense": 1541,
      "incor": 1542,
      "interferon": 1543,
      "cross": 1544,
      "kin": 1545,
      "val": 1546,
      "##hal": 1547,
      "##ypt": 1548,
      "##ery": 1549,
      "molyb": 1550,
      "##elle": 1551,
      "env": 1552,
      "glycerol": 1553,
      "proline": 1554,
      "immunoglob": 1555,
      "##enzyme": 1556,
      "##ffin": 1557,
      "hyper": 1558,
      "desaturase": 1559,
      "leukocyte": 1560,
      "heteroc": 1561,
      "secondary": 1562,
      "molybd": 1563,
      "immunoglobulin": 1564,
      "cr": 1565,
      "sis": 1566,
      "##loc": 1567,
      "##eneration": 1568,
      "death": 1569,
      "##poration": 1570,
      "ang": 1571,
      "asc": 1572,
      "systemic": 1573,
      "phosphorylation": 1574,
      "##landin": 1575,
      "incorporation": 1576,
      "sister": 1577,
      "12": 1578,
      "pal": 1579,
      "##erance": 1580,
      "##ospore": 1581,
      "regeneration": 1582,
      "##ellar": 1583,
      "transaminase": 1584,
      "##stit": 1585,
      "glutamine": 1586,
      "##roplast": 1587,
      "trypt": 1588,
      "chromatid": 1589,
      "malt": 1590,
      "indole": 1591,
      "flav": 1592,
      "fiber": 1593,
      "tolerance": 1594,
      "##hromatin": 1595,
      "h2": 1596,
      "##erc": 1597,
      "##hydrolase": 1598,
      "##phosphatase": 1599,
      "thym": 1600,
      "carboxy": 1601,
      "based": 1602,
      "cholesterol": 1603,
      "follicle": 1604,
      "angio": 1605,
      "dam": 1606,
      "ery": 1607,
      "xyl": 1608,
      "##sis": 1609,
      "##aldehyde": 1610,
      "##anoate": 1611,
      "##aglandin": 1612,
      "##ape": 1613,
      "att": 1614,
      "cord": 1615,
      "chloroplast": 1616,
      "regulator": 1617,
      "caps": 1618,
      "ventral": 1619,
      "##ochrome": 1620,
      "tryptoph": 1621,
      "eryth": 1622,
      "16": 1623,
      "cod": 1624,
      "gas": 1625,
      "mamm": 1626,
      "ta": 1627,
      "##pyr": 1628,
      "##otrop": 1629,
      "chond": 1630,
      "enzyme": 1631,
      "beta1": 1632,
      "neurom": 1633,
      "nadph": 1634,
      "release": 1635,
      "guidance": 1636,
      "break": 1637,
      "##ii": 1638,
      "##beta": 1639,
      "##phase": 1640,
      "prom": 1641,
      "respir": 1642,
      "##athione": 1643,
      "transporting": 1644,
      "oxide": 1645,
      "extens": 1646,
      "##imal": 1647,
      "##app": 1648,
      "##phosphor": 1649,
      "sulfotransferase": 1650,
      "guanine": 1651,
      "abc": 1652,
      "bacterial": 1653,
      "deoxyribonucle": 1654,
      "killer": 1655,
      "intermedi": 1656,
      "bis": 1657,
      "##pl": 1658,
      "metal": 1659,
      "##ayer": 1660,
      "hydrogen": 1661,
      "##erobic": 1662,
      "##ophagy": 1663,
      "codon": 1664,
      "extension": 1665,
      "bone": 1666,
      "deg": 1667,
      "mo": 1668,
      "natur": 1669,
      "tip": 1670,
      "##ren": 1671,
      "##oot": 1672,
      "##ber": 1673,
      "##factor": 1674,
      "active": 1675,
      "##lement": 1676,
      "##isome": 1677,
      "transform": 1678,
      "complement": 1679,
      "##agell": 1680,
      "acetate": 1681,
      "glycos": 1682,
      "epithelium": 1683,
      "meiosis": 1684,
      "arterial": 1685,
      "fructose": 1686,
      "targeting": 1687,
      "##enomation": 1688,
      "sphing": 1689,
      "envenomation": 1690,
      "attac": 1691,
      "natural": 1692,
      "hair": 1693,
      "id": 1694,
      "mating": 1695,
      "sero": 1696,
      "##vation": 1697,
      "##iotic": 1698,
      "##ech": 1699,
      "##rophil": 1700,
      "stimulating": 1701,
      "small": 1702,
      "##acetate": 1703,
      "central": 1704,
      "branching": 1705,
      "basal": 1706,
      "prostaglandin": 1707,
      "intermediate": 1708,
      "vess": 1709,
      "##lin": 1710,
      "##roid": 1711,
      "##esc": 1712,
      "##arance": 1713,
      "##yll": 1714,
      "##ily": 1715,
      "##ronic": 1716,
      "cytochrome": 1717,
      "ammon": 1718,
      "nitrogen": 1719,
      "mannose": 1720,
      "oxoglutarate": 1721,
      "photoreceptor": 1722,
      "h3k": 1723,
      "cleav": 1724,
      "clearance": 1725,
      "septum": 1726,
      "tryptophan": 1727,
      "vessel": 1728,
      "fem": 1729,
      "panc": 1730,
      "##thio": 1731,
      "##amily": 1732,
      "phag": 1733,
      "neut": 1734,
      "extr": 1735,
      "##ricular": 1736,
      "##ethanolamine": 1737,
      "micro": 1738,
      "periph": 1739,
      "linking": 1740,
      "cytosolic": 1741,
      "somatic": 1742,
      "heterochromatin": 1743,
      "mammary": 1744,
      "seroton": 1745,
      "pancre": 1746,
      "sur": 1747,
      "##ride": 1748,
      "##nition": 1749,
      "##icity": 1750,
      "##olase": 1751,
      "##olytic": 1752,
      "##egation": 1753,
      "entr": 1754,
      "endoc": 1755,
      "organelle": 1756,
      "axis": 1757,
      "galactose": 1758,
      "retro": 1759,
      "flu": 1760,
      "structure": 1761,
      "helper": 1762,
      "aspartate": 1763,
      "deacetylase": 1764,
      "melan": 1765,
      "damage": 1766,
      "female": 1767,
      "neutrophil": 1768,
      "dist": 1769,
      "ear": 1770,
      "gdp": 1771,
      "gtp": 1772,
      "mid": 1773,
      "tumor": 1774,
      "##uran": 1775,
      "##sion": 1776,
      "##etw": 1777,
      "##omy": 1778,
      "##omere": 1779,
      "inse": 1780,
      "recog": 1781,
      "app": 1782,
      "sequence": 1783,
      "acetylglucosamin": 1784,
      "attachment": 1785,
      "recognition": 1786,
      "br": 1787,
      "bound": 1788,
      "dense": 1789,
      "gib": 1790,
      "sterol": 1791,
      "xylo": 1792,
      "biogenesis": 1793,
      "##onical": 1794,
      "##ortic": 1795,
      "##ucine": 1796,
      "##aginal": 1797,
      "coenzyme": 1798,
      "endopeptidase": 1799,
      "polys": 1800,
      "extrinsic": 1801,
      "imaginal": 1802,
      "mesodermal": 1803,
      "retin": 1804,
      "adenylate": 1805,
      "canonical": 1806,
      "##berell": 1807,
      "gibberell": 1808,
      "''": 1809,
      "15": 1810,
      "hept": 1811,
      "layer": 1812,
      "##oter": 1813,
      "##olec": 1814,
      "##elin": 1815,
      "##phenyl": 1816,
      "demeth": 1817,
      "##odi": 1818,
      "##odel": 1819,
      "##actile": 1820,
      "envelop": 1821,
      "##ubiquitin": 1822,
      "thro": 1823,
      "epid": 1824,
      "##opterin": 1825,
      "glutathione": 1826,
      "acetylcholine": 1827,
      "cort": 1828,
      "trig": 1829,
      "contractile": 1830,
      "##olipase": 1831,
      "remodel": 1832,
      "glomerular": 1833,
      "precur": 1834,
      "promoter": 1835,
      "entry": 1836,
      "envelope": 1837,
      "##ute": 1838,
      "##low": 1839,
      "intrinsic": 1840,
      "##ptake": 1841,
      "##ocysteine": 1842,
      "substr": 1843,
      "motif": 1844,
      "remodeling": 1845,
      "precursor": 1846,
      "',": 1847,
      "bund": 1848,
      "ec": 1849,
      "fuc": 1850,
      "med": 1851,
      "mast": 1852,
      "steroid": 1853,
      "tem": 1854,
      "##cr": 1855,
      "##ual": 1856,
      "##tur": 1857,
      "##vage": 1858,
      "##alk": 1859,
      "##osaccharide": 1860,
      "phospholipase": 1861,
      "##athrin": 1862,
      "##ependent": 1863,
      "lev": 1864,
      "independent": 1865,
      "clathrin": 1866,
      "##ocytic": 1867,
      "photos": 1868,
      "salvage": 1869,
      "heme": 1870,
      "branch": 1871,
      "ribonucleoside": 1872,
      "plastid": 1873,
      "nicot": 1874,
      "cleavage": 1875,
      "retrograde": 1876,
      "bundle": 1877,
      "dur": 1878,
      "node": 1879,
      "pse": 1880,
      "##orep": 1881,
      "##ethyl": 1882,
      "intest": 1883,
      "methylthio": 1884,
      "amp": 1885,
      "chloroph": 1886,
      "##olysis": 1887,
      "starvation": 1888,
      "hydratase": 1889,
      "transforming": 1890,
      "serotonin": 1891,
      "epiderm": 1892,
      "during": 1893,
      "gr": 1894,
      "min": 1895,
      "mult": 1896,
      "sil": 1897,
      "sem": 1898,
      "##mat": 1899,
      "##inate": 1900,
      "##itching": 1901,
      "##ort": 1902,
      "##phros": 1903,
      "chitin": 1904,
      "tract": 1905,
      "##akisphosphate": 1906,
      "sex": 1907,
      "flagell": 1908,
      "abs": 1909,
      "motor": 1910,
      "stranded": 1911,
      "switching": 1912,
      "pancreatic": 1913,
      "->": 1914,
      "eg": 1915,
      "uptake": 1916,
      "vas": 1917,
      "##lyc": 1918,
      "##ofl": 1919,
      "##alanine": 1920,
      "##ulating": 1921,
      "##inc": 1922,
      "##erate": 1923,
      "##osamine": 1924,
      "##abol": 1925,
      "phen": 1926,
      "anth": 1927,
      "constit": 1928,
      "synthesis": 1929,
      "apical": 1930,
      "cd4": 1931,
      "snrna": 1932,
      "selen": 1933,
      "sequester": 1934,
      "copper": 1935,
      "substrate": 1936,
      "-[": 1937,
      "cel": 1938,
      "ig": 1939,
      "##los": 1940,
      "##enc": 1941,
      "ins": 1942,
      "##otox": 1943,
      "phe": 1944,
      "anch": 1945,
      "##ystein": 1946,
      "cytotox": 1947,
      "##ulfide": 1948,
      "##ropyl": 1949,
      "ribose": 1950,
      "ribosomal": 1951,
      "cilium": 1952,
      "camp": 1953,
      "splice": 1954,
      "cuticle": 1955,
      "conjugation": 1956,
      "palmit": 1957,
      "gastr": 1958,
      "ident": 1959,
      "anchor": 1960,
      "ed": 1961,
      "geranyl": 1962,
      "ic": 1963,
      "uret": 1964,
      "##uene": 1965,
      "##20": 1966,
      "##bation": 1967,
      "##itrate": 1968,
      "##ering": 1969,
      "molecular": 1970,
      "cohesion": 1971,
      "##yrate": 1972,
      "glucosidase": 1973,
      "nadh": 1974,
      "##ature": 1975,
      "chloride": 1976,
      "pyrid": 1977,
      "adenine": 1978,
      "adenosyl": 1979,
      "ethyl": 1980,
      "radial": 1981,
      "identity": 1982,
      "dig": 1983,
      "sin": 1984,
      "spore": 1985,
      "##nes": 1986,
      "##nith": 1987,
      "##angl": 1988,
      "##anosine": 1989,
      "prot": 1990,
      "diacyl": 1991,
      "all": 1992,
      "##oxal": 1993,
      "##oxide": 1994,
      "peptid": 1995,
      "pertur": 1996,
      "termination": 1997,
      "tetrahydro": 1998,
      "motility": 1999,
      "dendrite": 2000,
      "ventricular": 2001,
      "electron": 2002,
      "cytokinesis": 2003,
      "segment": 2004,
      "level": 2005,
      "perturbation": 2006,
      "gangl": 2007,
      "##elo": 2008,
      "##+)-": 2009,
      "##icular": 2010,
      "##ater": 2011,
      "##ivary": 2012,
      "##acylation": 2013,
      "catal": 2014,
      "##tral": 2015,
      "spinal": 2016,
      "nucleob": 2017,
      "organic": 2018,
      "carrier": 2019,
      "acetylgalact": 2020,
      "chemical": 2021,
      "##ophil": 2022,
      "triphosphate": 2023,
      "##oxylic": 2024,
      "neurotroph": 2025,
      "carot": 2026,
      "larval": 2027,
      "dopamine": 2028,
      "gibberellin": 2029,
      "##odiesterase": 2030,
      "pseud": 2031,
      "intestinal": 2032,
      "##ysteinyl": 2033,
      "##nithine": 2034,
      "nucleobase": 2035,
      "13": 2036,
      "affin": 2037,
      "h4": 2038,
      "lsu": 2039,
      "muc": 2040,
      "mech": 2041,
      "oxygenase": 2042,
      "sep": 2043,
      "zone": 2044,
      "##renyl": 2045,
      "##ies": 2046,
      "##ohyd": 2047,
      "##ft": 2048,
      "##etase": 2049,
      "##phal": 2050,
      "progr": 2051,
      "##edoxin": 2052,
      "deaminase": 2053,
      "##vement": 2054,
      "##utase": 2055,
      "##imerase": 2056,
      "synthetase": 2057,
      "epimerase": 2058,
      "##yrin": 2059,
      "cortic": 2060,
      "trimethyl": 2061,
      "##ugh": 2062,
      "##azole": 2063,
      "aldolase": 2064,
      "distal": 2065,
      "##omyosin": 2066,
      "insulin": 2067,
      "affinity": 2068,
      "mechan": 2069,
      "(+)-": 2070,
      "not": 2071,
      "one": 2072,
      "##rene": 2073,
      "##uent": 2074,
      "##ov": 2075,
      "##vous": 2076,
      "##ximal": 2077,
      "##osterone": 2078,
      "proximal": 2079,
      "##actin": 2080,
      "anion": 2081,
      "aldehyde": 2082,
      "endocytosis": 2083,
      "mediator": 2084,
      "##quinone": 2085,
      "galactosyltransferase": 2086,
      "linkage": 2087,
      "nervous": 2088,
      "##ungal": 2089,
      "clustering": 2090,
      "ciliary": 2091,
      "neuronal": 2092,
      "respiratory": 2093,
      "movement": 2094,
      "flagellum": 2095,
      "constituent": 2096,
      "24": 2097,
      "cysteinyl": 2098,
      "ect": 2099,
      "far": 2100,
      "family": 2101,
      "ssu": 2102,
      "zinc": 2103,
      "##cyte": 2104,
      "##aro": 2105,
      "##row": 2106,
      "##ivity": 2107,
      "##ylc": 2108,
      "phosphodiesterase": 2109,
      "##izing": 2110,
      "asym": 2111,
      "ornithine": 2112,
      "cond": 2113,
      "thy": 2114,
      "myelo": 2115,
      "guanyl": 2116,
      "adenosine": 2117,
      "peroxisome": 2118,
      "aggr": 2119,
      "keto": 2120,
      "inser": 2121,
      "polysaccharide": 2122,
      "##ubiquitination": 2123,
      "levels": 2124,
      "programm": 2125,
      "asymm": 2126,
      "myeloid": 2127,
      "##enic": 2128,
      "##echol": 2129,
      "##anar": 2130,
      "actomyosin": 2131,
      "cells": 2132,
      "##otri": 2133,
      "dire": 2134,
      "colon": 2135,
      "##romone": 2136,
      "conv": 2137,
      "thio": 2138,
      "##rosome": 2139,
      "glycoprotein": 2140,
      "aminoacylation": 2141,
      "transcript": 2142,
      "lipop": 2143,
      "planar": 2144,
      "granulo": 2145,
      "retinal": 2146,
      "inhibitory": 2147,
      "proteasome": 2148,
      "quinone": 2149,
      "##renergic": 2150,
      "pheromone": 2151,
      "insertion": 2152,
      "bar": 2153,
      "fore": 2154,
      "kid": 2155,
      "om": 2156,
      "pop": 2157,
      "##line": 2158,
      "##np": 2159,
      "##icellular": 2160,
      "##onin": 2161,
      "##orb": 2162,
      "##osamin": 2163,
      "##abil": 2164,
      "##ril": 2165,
      "atrial": 2166,
      "carbohyd": 2167,
      "##obut": 2168,
      "subst": 2169,
      "##ney": 2170,
      "nitric": 2171,
      "telomeric": 2172,
      "##adenosine": 2173,
      "crest": 2174,
      "##phosphorylation": 2175,
      "surf": 2176,
      "catalytic": 2177,
      "kidney": 2178,
      "population": 2179,
      "dich": 2180,
      "lamin": 2181,
      "oocyte": 2182,
      "rac": 2183,
      "right": 2184,
      "root": 2185,
      "##ru": 2186,
      "##our": 2187,
      "##ward": 2188,
      "##rout": 2189,
      "##ork": 2190,
      "diphosphatase": 2191,
      "phospholipid": 2192,
      "ene": 2193,
      "sprout": 2194,
      "internal": 2195,
      "chromatin": 2196,
      "pyro": 2197,
      "rhomb": 2198,
      "lactate": 2199,
      "acetylglucosamine": 2200,
      "cerebellar": 2201,
      "succinate": 2202,
      "trich": 2203,
      "kinet": 2204,
      "##pyruvate": 2205,
      "deoxyribonucleoside": 2206,
      "ecd": 2207,
      "programmed": 2208,
      "carbohydrate": 2209,
      "rhombomere": 2210,
      "cyst": 2211,
      "duct": 2212,
      "netw": 2213,
      "ov": 2214,
      "pore": 2215,
      "##12": 2216,
      "##iob": 2217,
      "##aling": 2218,
      "##loro": 2219,
      "##ulus": 2220,
      "##ctin": 2221,
      "##etric": 2222,
      "##aste": 2223,
      "chape": 2224,
      "card": 2225,
      "aminotransferase": 2226,
      "repro": 2227,
      "antib": 2228,
      "species": 2229,
      "secretory": 2230,
      "left": 2231,
      "##okinase": 2232,
      "##acetyl": 2233,
      "##eroxide": 2234,
      "cd8": 2235,
      "lymphocyte": 2236,
      "''-": 2237,
      "epidermal": 2238,
      "sprouting": 2239,
      "network": 2240,
      "brain": 2241,
      "din": 2242,
      "iv": 2243,
      "man": 2244,
      "map": 2245,
      "mirna": 2246,
      "n6": 2247,
      "siz": 2248,
      "##olo": 2249,
      "##olog": 2250,
      "##fil": 2251,
      "##enin": 2252,
      "##ush": 2253,
      "stri": 2254,
      "cartil": 2255,
      "thi": 2256,
      "cytosine": 2257,
      "##ochore": 2258,
      "monophosphate": 2259,
      "isot": 2260,
      "phosphatidylcholine": 2261,
      "telo": 2262,
      "##aphth": 2263,
      "anaerobic": 2264,
      "##otropin": 2265,
      "peripheral": 2266,
      "templ": 2267,
      "absc": 2268,
      "diacylglycerol": 2269,
      "surface": 2270,
      "kinetochore": 2271,
      "size": 2272,
      "cartilage": 2273,
      "fum": 2274,
      "hy": 2275,
      "mer": 2276,
      "sar": 2277,
      "ter": 2278,
      "us": 2279,
      "water": 2280,
      "##ux": 2281,
      "##fold": 2282,
      "##rose": 2283,
      "##arag": 2284,
      "##organ": 2285,
      "##ocyan": 2286,
      "exocytosis": 2287,
      "ribonuclease": 2288,
      "carboxylate": 2289,
      "generation": 2290,
      "asparag": 2291,
      "##ardial": 2292,
      "releas": 2293,
      "ammonia": 2294,
      "direct": 2295,
      "barrier": 2296,
      "##abilization": 2297,
      "taste": 2298,
      "##oylation": 2299,
      "##arp": 2300,
      "##elate": 2301,
      "##omycin": 2302,
      "##ylak": 2303,
      "##istem": 2304,
      "##ynapse": 2305,
      "##amoyl": 2306,
      "##ocortic": 2307,
      "methane": 2308,
      "exch": 2309,
      "conc": 2310,
      "##aprenyl": 2311,
      "depolarization": 2312,
      "location": 2313,
      "hydroxyp": 2314,
      "hydroxymethyl": 2315,
      "##munication": 2316,
      "oxidative": 2317,
      "lysosome": 2318,
      "communication": 2319,
      "phosphorib": 2320,
      "cytosol": 2321,
      "filamentous": 2322,
      "salivary": 2323,
      "septin": 2324,
      "osm": 2325,
      "##adenylation": 2326,
      "splicing": 2327,
      "anaphase": 2328,
      "valve": 2329,
      "cortical": 2330,
      "chlorophyll": 2331,
      "omeg": 2332,
      "chaperone": 2333,
      "meristem": 2334,
      "releasing": 2335,
      "##ylakoid": 2336,
      "##ocorticoid": 2337,
      "14": 2338,
      "cone": 2339,
      "dolic": 2340,
      "nec": 2341,
      "norep": 2342,
      "spor": 2343,
      "##imb": 2344,
      "##iction": 2345,
      "##ionate": 2346,
      "##atocyte": 2347,
      "##onad": 2348,
      "##ord": 2349,
      "prone": 2350,
      "##ogenous": 2351,
      "adrenergic": 2352,
      "beta3": 2353,
      "repolarization": 2354,
      "leucine": 2355,
      "amylo": 2356,
      "plac": 2357,
      "seed": 2358,
      "inhibition": 2359,
      "phenylalanine": 2360,
      "hepar": 2361,
      "cerebral": 2362,
      "##penoid": 2363,
      "acetylglucosaminyltransferase": 2364,
      "egg": 2365,
      "##oflav": 2366,
      "sequestering": 2367,
      "cytotoxicity": 2368,
      "peptidoglycan": 2369,
      "colony": 2370,
      "directed": 2371,
      "concent": 2372,
      "norepinephrine": 2373,
      "au": 2374,
      "ib": 2375,
      "xanth": 2376,
      "##tin": 2377,
      "##oi": 2378,
      "##olym": 2379,
      "##ange": 2380,
      "##onyl": 2381,
      "molecule": 2382,
      "##omot": 2383,
      "transloc": 2384,
      "##ycling": 2385,
      "recycling": 2386,
      "ent": 2387,
      "##ucleotide": 2388,
      "##adian": 2389,
      "thylakoid": 2390,
      "depolym": 2391,
      "epinephrine": 2392,
      "cyclin": 2393,
      "hydroxyphenyl": 2394,
      "lysosomal": 2395,
      "trimer": 2396,
      "mannosyltransferase": 2397,
      "##version": 2398,
      "spermidine": 2399,
      "##benzoate": 2400,
      "capsid": 2401,
      "chondrocyte": 2402,
      "aggregation": 2403,
      "forebrain": 2404,
      "substance": 2405,
      "racem": 2406,
      "thiamine": 2407,
      "templated": 2408,
      "using": 2409,
      "teth": 2410,
      "very": 2411,
      "##eat": 2412,
      "##ein": 2413,
      "##ger": 2414,
      "##len": 2415,
      "##me": 2416,
      "##folate": 2417,
      "##je": 2418,
      "##eride": 2419,
      "intr": 2420,
      "##mber": 2421,
      "##amate": 2422,
      "##adi": 2423,
      "interne": 2424,
      "##kinje": 2425,
      "histamine": 2426,
      "disru": 2427,
      "immunity": 2428,
      "##etrahydro": 2429,
      "myoblast": 2430,
      "mannosyl": 2431,
      "unicellular": 2432,
      "ubiquitination": 2433,
      "purkinje": 2434,
      "loading": 2435,
      "adaptation": 2436,
      "selection": 2437,
      "leukotri": 2438,
      "circadian": 2439,
      "##tilization": 2440,
      "endocardial": 2441,
      "silenc": 2442,
      "icos": 2443,
      "ganglion": 2444,
      "separ": 2445,
      "omega": 2446,
      "amyloid": 2447,
      "interneuron": 2448,
      "disruption": 2449,
      "leukotriene": 2450,
      "silencing": 2451,
      "cush": 2452,
      "fe": 2453,
      "fi": 2454,
      "gonad": 2455,
      "perm": 2456,
      "ure": 2457,
      "wing": 2458,
      "##let": 2459,
      "##perm": 2460,
      "##alate": 2461,
      "##olact": 2462,
      "##anoyl": 2463,
      "##era": 2464,
      "##ido": 2465,
      "inorgan": 2466,
      "##ability": 2467,
      "gly": 2468,
      "##ack": 2469,
      "##acil": 2470,
      "choline": 2471,
      "##yclo": 2472,
      "##active": 2473,
      "catechol": 2474,
      "methan": 2475,
      "cob": 2476,
      "formyl": 2477,
      "stom": 2478,
      "polyp": 2479,
      "##oxyc": 2480,
      "carn": 2481,
      "##rehal": 2482,
      "mesang": 2483,
      "##rophy": 2484,
      "##ressor": 2485,
      "absor": 2486,
      "loop": 2487,
      "genome": 2488,
      "##azine": 2489,
      "peroxide": 2490,
      "##ectin": 2491,
      "alkal": 2492,
      "autophag": 2493,
      "camera": 2494,
      "##olysaccharide": 2495,
      "excision": 2496,
      "early": 2497,
      "ureteric": 2498,
      "depolymerization": 2499,
      "separation": 2500,
      "cushion": 2501,
      "inorganic": 2502,
      "absorption": 2503,
      "25": 2504,
      "8s": 2505,
      "box": 2506,
      "bile": 2507,
      "hal": 2508,
      "mul": 2509,
      "##crna": 2510,
      "##tax": 2511,
      "##sens": 2512,
      "##itr": 2513,
      "##enate": 2514,
      "##enum": 2515,
      "##asation": 2516,
      "##ache": 2517,
      "catabol": 2518,
      "spine": 2519,
      "##ifi": 2520,
      "##istronic": 2521,
      "aminobut": 2522,
      "trache": 2523,
      "##avasation": 2524,
      "carboxylase": 2525,
      "##ophore": 2526,
      "polymerization": 2527,
      "##hesin": 2528,
      "##illin": 2529,
      "center": 2530,
      "erg": 2531,
      "##ofuran": 2532,
      "pigmentation": 2533,
      "hypersens": 2534,
      "molybdenum": 2535,
      "##escence": 2536,
      "extravasation": 2537,
      "through": 2538,
      "##ologous": 2539,
      "auxin": 2540,
      "perme": 2541,
      "-)": 2542,
      "col": 2543,
      "clos": 2544,
      "fold": 2545,
      "gmp": 2546,
      "mag": 2547,
      "out": 2548,
      "open": 2549,
      "sle": 2550,
      "sial": 2551,
      "trehal": 2552,
      "wound": 2553,
      "##oh": 2554,
      "##yric": 2555,
      "##bb": 2556,
      "##bed": 2557,
      "##iod": 2558,
      "##icyl": 2559,
      "##rocarp": 2560,
      "##olin": 2561,
      "##asm": 2562,
      "dien": 2563,
      "##ilin": 2564,
      "##onemal": 2565,
      "peptidase": 2566,
      "##quin": 2567,
      "glycosyl": 2568,
      "repeat": 2569,
      "transcribed": 2570,
      "mesoderm": 2571,
      "amine": 2572,
      "##arboxylic": 2573,
      "nitro": 2574,
      "olfactor": 2575,
      "phosphorylase": 2576,
      "##ergy": 2577,
      "erbb": 2578,
      "element": 2579,
      "prostate": 2580,
      "killing": 2581,
      "##tensin": 2582,
      "large": 2583,
      "arabinose": 2584,
      "flavon": 2585,
      "angiotensin": 2586,
      "erythrocyte": 2587,
      "triglyc": 2588,
      "lipopolysaccharide": 2589,
      "concentration": 2590,
      "closure": 2591,
      "olfactory": 2592,
      "triglyceride": 2593,
      "av": 2594,
      "myc": 2595,
      "##ding": 2596,
      "##-)-": 2597,
      "##ranulation": 2598,
      "cellulose": 2599,
      "##ylglycerol": 2600,
      "metaph": 2601,
      "##ucing": 2602,
      "##rient": 2603,
      "diene": 2604,
      "enc": 2605,
      "##opoi": 2606,
      "##ution": 2607,
      "cohesin": 2608,
      "##uctive": 2609,
      "##oserine": 2610,
      "##uscular": 2611,
      "neuroblast": 2612,
      "methylg": 2613,
      "##amination": 2614,
      "head": 2615,
      "disulfide": 2616,
      "centrom": 2617,
      "##iaz": 2618,
      "super": 2619,
      "tubulin": 2620,
      "proteoglycan": 2621,
      "ferric": 2622,
      "bacterium": 2623,
      "donor": 2624,
      "toluene": 2625,
      "hetero": 2626,
      "succinyl": 2627,
      "molybdopterin": 2628,
      "degranulation": 2629,
      "boundary": 2630,
      "xylos": 2631,
      "demethylase": 2632,
      "cello": 2633,
      "mesangial": 2634,
      "sleep": 2635,
      "metaphase": 2636,
      "dt": 2637,
      "hind": 2638,
      "rate": 2639,
      "ze": 2640,
      "##rical": 2641,
      "##cyt": 2642,
      "##luc": 2643,
      "##ogenase": 2644,
      "##orocarp": 2645,
      "##po": 2646,
      "##prop": 2647,
      "##vin": 2648,
      "##king": 2649,
      "##icase": 2650,
      "##atus": 2651,
      "biofil": 2652,
      "##inamide": 2653,
      "##aratus": 2654,
      "##itine": 2655,
      "##itivity": 2656,
      "##osteroid": 2657,
      "##agulation": 2658,
      "cofactor": 2659,
      "coagulation": 2660,
      "##ipolar": 2661,
      "##oxification": 2662,
      "neurop": 2663,
      "arach": 2664,
      "##artment": 2665,
      "detoxification": 2666,
      "galactosyl": 2667,
      "she": 2668,
      "querc": 2669,
      "sucrose": 2670,
      "helicase": 2671,
      "oste": 2672,
      "uridine": 2673,
      "electrical": 2674,
      "phyto": 2675,
      "tail": 2676,
      "apparatus": 2677,
      "neurotrophic": 2678,
      "thyroid": 2679,
      "##folded": 2680,
      "tethering": 2681,
      "biofilm": 2682,
      "arachid": 2683,
      "20": 2684,
      "bipolar": 2685,
      "fungal": 2686,
      "g1": 2687,
      "kapp": 2688,
      "late": 2689,
      "lam": 2690,
      "nut": 2691,
      "sl": 2692,
      "##rio": 2693,
      "##au": 2694,
      "##iron": 2695,
      "##oval": 2696,
      "##53": 2697,
      "##merase": 2698,
      "##mentation": 2699,
      "chor": 2700,
      "diamin": 2701,
      "##opim": 2702,
      "endo": 2703,
      "alphav": 2704,
      "leading": 2705,
      "hydroxyl": 2706,
      "organisms": 2707,
      "ubiqu": 2708,
      "short": 2709,
      "hypox": 2710,
      "cister": 2711,
      "hepatocyte": 2712,
      "##alexin": 2713,
      "canal": 2714,
      "cyanidin": 2715,
      "ascospore": 2716,
      "neuromuscular": 2717,
      "retinoic": 2718,
      "farnes": 2719,
      "granulocyte": 2720,
      "telomerase": 2721,
      "sarc": 2722,
      "heparan": 2723,
      "cobal": 2724,
      "carnitine": 2725,
      "trehalose": 2726,
      "nutrient": 2727,
      "(-)-": 2728,
      "-)-": 2729,
      "bond": 2730,
      "cad": 2731,
      "eosin": 2732,
      "lim": 2733,
      "limb": 2734,
      "naphth": 2735,
      "pu": 2736,
      "pin": 2737,
      "tf": 2738,
      "##hyl": 2739,
      "##dna": 2740,
      "##xtrin": 2741,
      "##mission": 2742,
      "##role": 2743,
      "##atell": 2744,
      "##serine": 2745,
      "dehal": 2746,
      "biosynthesis": 2747,
      "##umin": 2748,
      "##ury": 2749,
      "##romolec": 2750,
      "##erophosph": 2751,
      "monocyte": 2752,
      "locomot": 2753,
      "glycogen": 2754,
      "##ensation": 2755,
      "ars": 2756,
      "trisphosphate": 2757,
      "ribosyltransferase": 2758,
      "##onucleolytic": 2759,
      "##meric": 2760,
      "modulating": 2761,
      "coupling": 2762,
      "##ergent": 2763,
      "macromolec": 2764,
      "vacuolar": 2765,
      "budding": 2766,
      "peroxidase": 2767,
      "adenylyltransferase": 2768,
      "neurotransmission": 2769,
      "alkyl": 2770,
      "autophagy": 2771,
      "starch": 2772,
      "##aft": 2773,
      "chondro": 2774,
      "glycosylase": 2775,
      "photosynth": 2776,
      "convergent": 2777,
      "asparagine": 2778,
      "exchange": 2779,
      "hypersensitivity": 2780,
      "quercetin": 2781,
      "eosinophil": 2782,
      "##atellite": 2783,
      "dehalogenase": 2784,
      "23": 2785,
      "5s": 2786,
      "along": 2787,
      "cdp": 2788,
      "ceramide": 2789,
      "f4": 2790,
      "flo": 2791,
      "ker": 2792,
      "nf": 2793,
      "ncrna": 2794,
      "pi": 2795,
      "pair": 2796,
      "satellite": 2797,
      "##ring": 2798,
      "##rnp": 2799,
      "##aose": 2800,
      "##sification": 2801,
      "##atal": 2802,
      "##arian": 2803,
      "##ened": 2804,
      "##enone": 2805,
      "##anin": 2806,
      "demethyl": 2807,
      "dephosphorylation": 2808,
      "##amp": 2809,
      "##amidase": 2810,
      "coat": 2811,
      "coum": 2812,
      "endocytic": 2813,
      "glucocorticoid": 2814,
      "nemat": 2815,
      "stat": 2816,
      "pollen": 2817,
      "interc": 2818,
      "glycolytic": 2819,
      "##ticellular": 2820,
      "transcriptional": 2821,
      "myo": 2822,
      "tetra": 2823,
      "ethanol": 2824,
      "##ardium": 2825,
      "innate": 2826,
      "oligosaccharide": 2827,
      "uracil": 2828,
      "maltose": 2829,
      "neuromast": 2830,
      "glycosylation": 2831,
      "phenanth": 2832,
      "gastrulation": 2833,
      "digest": 2834,
      "sinap": 2835,
      "asymmetric": 2836,
      "mapk": 2837,
      "multicellular": 2838,
      "macromolecule": 2839,
      "f420": 2840,
      "21": 2841,
      "gab": 2842,
      "nov": 2843,
      "ster": 2844,
      "##11": 2845,
      "##trophy": 2846,
      "##oacetate": 2847,
      "##ma": 2848,
      "##ula": 2849,
      "##iter": 2850,
      "##ives": 2851,
      "##etal": 2852,
      "##phenol": 2853,
      "pros": 2854,
      "deubiquitination": 2855,
      "acqu": 2856,
      "##ocyst": 2857,
      "##ust": 2858,
      "resist": 2859,
      "##ilation": 2860,
      "conne": 2861,
      "##oxyrib": 2862,
      "##idylyltransferase": 2863,
      "carboxyl": 2864,
      "heat": 2865,
      "hydroxyc": 2866,
      "glutamyl": 2867,
      "guanosine": 2868,
      "##arboxylate": 2869,
      "##ogalact": 2870,
      "##ulos": 2871,
      "tetrac": 2872,
      "##ffe": 2873,
      "snrnp": 2874,
      "proteolysis": 2875,
      "lineage": 2876,
      "fork": 2877,
      "inflammasome": 2878,
      "excit": 2879,
      "valine": 2880,
      "hypertrophy": 2881,
      "fluid": 2882,
      "gram": 2883,
      "ethylene": 2884,
      "acetylgalactosamin": 2885,
      "##ioblast": 2886,
      "dolichyl": 2887,
      "neuropeptide": 2888,
      "kappab": 2889,
      "gaba": 2890,
      ")+": 2891,
      "bic": 2892,
      "cg": 2893,
      "fin": 2894,
      "fad": 2895,
      "g2": 2896,
      "mem": 2897,
      "veg": 2898,
      "##ductive": 2899,
      "##fr": 2900,
      "##ivation": 2901,
      "##isic": 2902,
      "prog": 2903,
      "##amoyltransferase": 2904,
      "compartment": 2905,
      "antero": 2906,
      "coated": 2907,
      "##ipp": 2908,
      "##ending": 2909,
      "imp": 2910,
      "arr": 2911,
      "sulfide": 2912,
      "lipo": 2913,
      "axonemal": 2914,
      "myof": 2915,
      "diol": 2916,
      "diox": 2917,
      "##uronan": 2918,
      "##uronate": 2919,
      "polyadenylation": 2920,
      "snor": 2921,
      "salicyl": 2922,
      "##anthin": 2923,
      "ferr": 2924,
      "patterning": 2925,
      "##ector": 2926,
      "##striction": 2927,
      "rhamnose": 2928,
      "medial": 2929,
      "photosystem": 2930,
      "anthocyan": 2931,
      "edge": 2932,
      "pyridoxal": 2933,
      "ovarian": 2934,
      "reproductive": 2935,
      "striated": 2936,
      "abscisic": 2937,
      "alkaloid": 2938,
      "aminobutyric": 2939,
      "bonds": 2940,
      "chondroitin": 2941,
      "nematode": 2942,
      "resistance": 2943,
      "memory": 2944,
      "anterograde": 2945,
      "),": 2946,
      "3beta": 2947,
      "ef": 2948,
      "op": 2949,
      "p53": 2950,
      "rod": 2951,
      "sol": 2952,
      "sch": 2953,
      "sorocarp": 2954,
      "##cl": 2955,
      "##10": 2956,
      "##geranyl": 2957,
      "##hist": 2958,
      "##herin": 2959,
      "##yg": 2960,
      "##ylop": 2961,
      "##kinase": 2962,
      "##cting": 2963,
      "##arin": 2964,
      "##enile": 2965,
      "##anoid": 2966,
      "##eld": 2967,
      "##osens": 2968,
      "##omann": 2969,
      "##idazole": 2970,
      "dimeth": 2971,
      "##urine": 2972,
      "##tresc": 2973,
      "developmental": 2974,
      "##ypic": 2975,
      "antim": 2976,
      "##amino": 2977,
      "iso": 2978,
      "##robenz": 2979,
      "centrosome": 2980,
      "regulating": 2981,
      "##odeoxyrib": 2982,
      "ether": 2983,
      "scf": 2984,
      "deoxyribonuclease": 2985,
      "force": 2986,
      "ribonucleotide": 2987,
      "##roline": 2988,
      "##galactosyl": 2989,
      "##malate": 2990,
      "##ioside": 2991,
      "angiogenesis": 2992,
      "gtpase": 2993,
      "spliceosome": 2994,
      "carotene": 2995,
      "translocation": 2996,
      "##yclohex": 2997,
      "tracheal": 2998,
      "folding": 2999,
      "phytoalexin": 3000,
      "ubiquinone": 3001,
      "cisterna": 3002,
      "myofib": 3003,
      "##trescine": 3004,
      "]-": 3005,
      "aerobic": 3006,
      "cre": 3007,
      "ccr": 3008,
      "citrate": 3009,
      "dic": 3010,
      "doc": 3011,
      "euk": 3012,
      "jasm": 3013,
      "neck": 3014,
      "ole": 3015,
      "pul": 3016,
      "pod": 3017,
      "raft": 3018,
      "ste": 3019,
      "sug": 3020,
      "sorb": 3021,
      "##c2": 3022,
      "##ah": 3023,
      "##affin": 3024,
      "##hom": 3025,
      "##da": 3026,
      "##dec": 3027,
      "##bp": 3028,
      "##k1": 3029,
      "##ket": 3030,
      "##alene": 3031,
      "##roch": 3032,
      "##ulb": 3033,
      "##ital": 3034,
      "##aned": 3035,
      "##orage": 3036,
      "##omerization": 3037,
      "##entenyl": 3038,
      "##isomerase": 3039,
      "prod": 3040,
      "dip": 3041,
      "##opamine": 3042,
      "##oplast": 3043,
      "##agon": 3044,
      "storage": 3045,
      "adult": 3046,
      "exit": 3047,
      "betaine": 3048,
      "cytidine": 3049,
      "lign": 3050,
      "##yryl": 3051,
      "phosphatid": 3052,
      "##aryotic": 3053,
      "glucosamine": 3054,
      "##ropin": 3055,
      "##diacylglycerol": 3056,
      "##axation": 3057,
      "chloro": 3058,
      "tetrap": 3059,
      "axonal": 3060,
      "inhibiting": 3061,
      "syntax": 3062,
      "superoxide": 3063,
      "##acterial": 3064,
      "within": 3065,
      "relaxation": 3066,
      "mater": 3067,
      "aspartic": 3068,
      "isopropyl": 3069,
      "cyclohex": 3070,
      "xylulose": 3071,
      "sphingolipid": 3072,
      "xylose": 3073,
      "protoc": 3074,
      "internalization": 3075,
      "ecdys": 3076,
      "racemase": 3077,
      "autophagosome": 3078,
      "##quinoline": 3079,
      "##histidine": 3080,
      "##odeoxyribonuclease": 3081,
      "eukaryotic": 3082,
      "sugar": 3083,
      "syntaxin": 3084,
      "19": 3085,
      "atr": 3086,
      "eff": 3087,
      "fur": 3088,
      "gp": 3089,
      "his": 3090,
      "ka": 3091,
      "nu": 3092,
      "zyg": 3093,
      "##regation": 3094,
      "##emin": 3095,
      "##la": 3096,
      "##imin": 3097,
      "##out": 3098,
      "##pos": 3099,
      "##zing": 3100,
      "##kel": 3101,
      "##esterone": 3102,
      "##loroph": 3103,
      "##ulature": 3104,
      "##inyl": 3105,
      "##aryn": 3106,
      "##itor": 3107,
      "##iting": 3108,
      "##ont": 3109,
      "##eralization": 3110,
      "##ellate": 3111,
      "##igin": 3112,
      "##amycin": 3113,
      "##ysine": 3114,
      "endonuclease": 3115,
      "gluconate": 3116,
      "formate": 3117,
      "strom": 3118,
      "stellate": 3119,
      "##imate": 3120,
      "cytoplasm": 3121,
      "interaction": 3122,
      "##rosis": 3123,
      "ligation": 3124,
      "##uplex": 3125,
      "ribosome": 3126,
      "healing": 3127,
      "##glycerate": 3128,
      "##axial": 3129,
      "malate": 3130,
      "##flux": 3131,
      "sensor": 3132,
      "adaptive": 3133,
      "homologous": 3134,
      "caffe": 3135,
      "glucuronate": 3136,
      "auto": 3137,
      "##ichoic": 3138,
      "benzo": 3139,
      "nickel": 3140,
      "segregation": 3141,
      "h2b": 3142,
      "##otropic": 3143,
      "metallo": 3144,
      "microv": 3145,
      "thromb": 3146,
      "multives": 3147,
      "pyridox": 3148,
      "pseudour": 3149,
      "notch": 3150,
      "laminin": 3151,
      "cardioblast": 3152,
      "necrosis": 3153,
      "##etrahydrofolate": 3154,
      "##riole": 3155,
      "floral": 3156,
      "efflux": 3157,
      "multivesicular": 3158,
      "4alpha": 3159,
      "dyn": 3160,
      "opt": 3161,
      "reduct": 3162,
      "tw": 3163,
      "vis": 3164,
      "wake": 3165,
      "xy": 3166,
      "##rp": 3167,
      "##uanosine": 3168,
      "##ts": 3169,
      "##tol": 3170,
      "##ting": 3171,
      "##trocyte": 3172,
      "##sin": 3173,
      "##27": 3174,
      "##esinol": 3175,
      "##anone": 3176,
      "inj": 3177,
      "progen": 3178,
      "##ternal": 3179,
      "##ocal": 3180,
      "##yclic": 3181,
      "##uridine": 3182,
      "##opy": 3183,
      "##adip": 3184,
      "astrocyte": 3185,
      "alanyl": 3186,
      "hydroly": 3187,
      "##ialdehyde": 3188,
      "space": 3189,
      "endogenous": 3190,
      "exo": 3191,
      "expression": 3192,
      "external": 3193,
      "conversion": 3194,
      "##ostatin": 3195,
      "##yrist": 3196,
      "##yrrole": 3197,
      "aryl": 3198,
      "##aminyl": 3199,
      "amylop": 3200,
      "chemoreceptor": 3201,
      "nitrate": 3202,
      "estrogen": 3203,
      "phosphatidylserine": 3204,
      "tetrakisphosphate": 3205,
      "unfolded": 3206,
      "metanephros": 3207,
      "deriv": 3208,
      "embryo": 3209,
      "reactive": 3210,
      "vasculature": 3211,
      "ethanolamine": 3212,
      "fermentation": 3213,
      "homoserine": 3214,
      "removal": 3215,
      "glomerulus": 3216,
      "reduction": 3217,
      "h2a": 3218,
      "fucose": 3219,
      "mineralization": 3220,
      "semialdehyde": 3221,
      "gastric": 3222,
      "corticotropin": 3223,
      "antibacterial": 3224,
      "isotype": 3225,
      "sporulation": 3226,
      "pronephric": 3227,
      "dtdp": 3228,
      "novo": 3229,
      "excitatory": 3230,
      "ferredoxin": 3231,
      "##anediol": 3232,
      "tetrapyrrole": 3233,
      "effector": 3234,
      "progenitor": 3235,
      "arom": 3236,
      "dr": 3237,
      "flow": 3238,
      "juv": 3239,
      "lab": 3240,
      "lens": 3241,
      "mis": 3242,
      "term": 3243,
      "uv": 3244,
      "##wann": 3245,
      "##icin": 3246,
      "##ese": 3247,
      "##esulf": 3248,
      "##lor": 3249,
      "biotin": 3250,
      "##enet": 3251,
      "##orin": 3252,
      "activin": 3253,
      "##osterol": 3254,
      "##pterin": 3255,
      "##amid": 3256,
      "##asp": 3257,
      "##rientation": 3258,
      "##odal": 3259,
      "##opent": 3260,
      "##oprop": 3261,
      "##iliary": 3262,
      "##hydroxy": 3263,
      "nucleation": 3264,
      "##ganese": 3265,
      "##eme": 3266,
      "oxal": 3267,
      "hydroxyis": 3268,
      "acetylm": 3269,
      "leaf": 3270,
      "isole": 3271,
      "##etry": 3272,
      "myocyte": 3273,
      "lyso": 3274,
      "peric": 3275,
      "##neur": 3276,
      "control": 3277,
      "phosphatidylglycerol": 3278,
      "retinol": 3279,
      "centriole": 3280,
      "undec": 3281,
      "syncyt": 3282,
      "related": 3283,
      "patch": 3284,
      "genital": 3285,
      "glucuronosyltransferase": 3286,
      "pentose": 3287,
      "isopentenyl": 3288,
      "esterase": 3289,
      "transferring": 3290,
      "capsule": 3291,
      "ammonium": 3292,
      "demethylation": 3293,
      "sexual": 3294,
      "acetylgalactosamine": 3295,
      "ectodermal": 3296,
      "##aroyl": 3297,
      "manganese": 3298,
      "osmotic": 3299,
      "catabolite": 3300,
      "permeability": 3301,
      "##opimelate": 3302,
      "putrescine": 3303,
      "salicylic": 3304,
      "schwann": 3305,
      "##omannan": 3306,
      "jasmonic": 3307,
      "hydrolyzing": 3308,
      "juvenile": 3309,
      "22": 3310,
      "bl": 3311,
      "bulb": 3312,
      "dg": 3313,
      "ds": 3314,
      "mut": 3315,
      "mutase": 3316,
      "pil": 3317,
      "rich": 3318,
      "sen": 3319,
      "sum": 3320,
      "synapt": 3321,
      "sirna": 3322,
      "utilization": 3323,
      "xen": 3324,
      "##ceramide": 3325,
      "##aust": 3326,
      "##si": 3327,
      "##ping": 3328,
      "##mn": 3329,
      "##ioph": 3330,
      "##ionyl": 3331,
      "##lose": 3332,
      "##ules": 3333,
      "##initiation": 3334,
      "##olig": 3335,
      "##ono": 3336,
      "##onase": 3337,
      "##onene": 3338,
      "##isition": 3339,
      "##edral": 3340,
      "##amic": 3341,
      "topo": 3342,
      "##otypic": 3343,
      "##acetic": 3344,
      "cha": 3345,
      "##rile": 3346,
      "enoyl": 3347,
      "anatom": 3348,
      "altern": 3349,
      "##aging": 3350,
      "methoxy": 3351,
      "origin": 3352,
      "nucleot": 3353,
      "##ainst": 3354,
      "##phospho": 3355,
      "therm": 3356,
      "##ocholine": 3357,
      "arm": 3358,
      "special": 3359,
      "'-(": 3360,
      "##methionine": 3361,
      "plus": 3362,
      "meval": 3363,
      "trimeth": 3364,
      "antigenic": 3365,
      "contact": 3366,
      "presynapse": 3367,
      "phosphatidylethanolamine": 3368,
      "##oxylan": 3369,
      "phosphorus": 3370,
      "shape": 3371,
      "integr": 3372,
      "rect": 3373,
      "linear": 3374,
      "phosphohistidine": 3375,
      "select": 3376,
      "hexose": 3377,
      "against": 3378,
      "circulating": 3379,
      "hepatic": 3380,
      "lymphoid": 3381,
      "deacetylation": 3382,
      "##iphenyl": 3383,
      "cytokinin": 3384,
      "##apping": 3385,
      "##uted": 3386,
      "branched": 3387,
      "condensation": 3388,
      "hyal": 3389,
      "phosphoribosyl": 3390,
      "placode": 3391,
      "hindbrain": 3392,
      "tfii": 3393,
      "keratin": 3394,
      "digestive": 3395,
      "acquisition": 3396,
      "anthocyanin": 3397,
      "docking": 3398,
      "lignin": 3399,
      "microvill": 3400,
      "reductive": 3401,
      "anatomical": 3402,
      "selective": 3403,
      "cup": 3404,
      "fc": 3405,
      "gap": 3406,
      "germination": 3407,
      "k4": 3408,
      "oc": 3409,
      "pain": 3410,
      "raffin": 3411,
      "tim": 3412,
      "tap": 3413,
      "tight": 3414,
      "ven": 3415,
      "van": 3416,
      "##cna": 3417,
      "##15": 3418,
      "##oat": 3419,
      "##her": 3420,
      "##yth": 3421,
      "##63": 3422,
      "##ioral": 3423,
      "##atidyl": 3424,
      "##atopoi": 3425,
      "##anal": 3426,
      "##onit": 3427,
      "##orib": 3428,
      "##osylation": 3429,
      "##ased": 3430,
      "##amolec": 3431,
      "phenol": 3432,
      "##ocitrate": 3433,
      "animal": 3434,
      "anergy": 3435,
      "##oper": 3436,
      "stalk": 3437,
      "exonuclease": 3438,
      "##apeptide": 3439,
      "##phosphatidyl": 3440,
      "##reased": 3441,
      "neutral": 3442,
      "##ulfate": 3443,
      "epoxide": 3444,
      "sulfo": 3445,
      "glucosinol": 3446,
      "##aminate": 3447,
      "##aturated": 3448,
      "##allium": 3449,
      "fibril": 3450,
      "smoothened": 3451,
      "##robial": 3452,
      "polyamine": 3453,
      "rhyth": 3454,
      "sensitive": 3455,
      "symm": 3456,
      "rever": 3457,
      "hematopoi": 3458,
      "##enolpyruvate": 3459,
      "phosphoenolpyruvate": 3460,
      "behavioral": 3461,
      "mesonephros": 3462,
      "collateral": 3463,
      "##benzoyl": 3464,
      "ribonucleoprotein": 3465,
      "##ancy": 3466,
      "artery": 3467,
      "dopamin": 3468,
      "octopamine": 3469,
      "thymocyte": 3470,
      "deoxyribonucleotide": 3471,
      "microgl": 3472,
      "periphery": 3473,
      "melanocyte": 3474,
      "spliceosomal": 3475,
      "dinucleotide": 3476,
      "fumarate": 3477,
      "field": 3478,
      "catecholamine": 3479,
      "stomatal": 3480,
      "##ifier": 3481,
      "##iazole": 3482,
      "arachidonic": 3483,
      "lamell": 3484,
      "limonene": 3485,
      "dioxide": 3486,
      "snorna": 3487,
      "ecdysone": 3488,
      "xylog": 3489,
      "##opyran": 3490,
      "aromatic": 3491,
      "##esulfonate": 3492,
      "isoleucine": 3493,
      "pilus": 3494,
      "senescence": 3495,
      "raffinose": 3496,
      "##amolecular": 3497,
      "glucosinolate": 3498,
      "rhythm": 3499,
      "hematopoietic": 3500,
      "2s": 3501,
      "5alpha": 3502,
      "a2": 3503,
      "ct": 3504,
      "citr": 3505,
      "k9": 3506,
      "myrist": 3507,
      "n1": 3508,
      "oth": 3509,
      "orientation": 3510,
      "proc": 3511,
      "tor": 3512,
      "tang": 3513,
      "##c1": 3514,
      "##gut": 3515,
      "##sal": 3516,
      "##pent": 3517,
      "##mod": 3518,
      "##flow": 3519,
      "##icrobial": 3520,
      "##logen": 3521,
      "##onyltransferase": 3522,
      "##idge": 3523,
      "##isol": 3524,
      "##odend": 3525,
      "##urin": 3526,
      "catenin": 3527,
      "##ized": 3528,
      "##adherin": 3529,
      "##ubiqu": 3530,
      "endos": 3531,
      "endodermal": 3532,
      "##ypes": 3533,
      "stabilization": 3534,
      "##ysteroid": 3535,
      "epox": 3536,
      "cyclop": 3537,
      "repressor": 3538,
      "methyln": 3539,
      "methylbut": 3540,
      "amide": 3541,
      "##glycine": 3542,
      "hydroxylation": 3543,
      "mannan": 3544,
      "##estosterone": 3545,
      "polyphosphate": 3546,
      "motile": 3547,
      "##dextrin": 3548,
      "virion": 3549,
      "postsynapse": 3550,
      "##ycinn": 3551,
      "somat": 3552,
      "somit": 3553,
      "oligodend": 3554,
      "propionate": 3555,
      "preinitiation": 3556,
      "guided": 3557,
      "rhamnosyltransferase": 3558,
      "xylan": 3559,
      "phagocytosis": 3560,
      "brass": 3561,
      "bounded": 3562,
      "nicotinamide": 3563,
      "selenocysteine": 3564,
      "cellob": 3565,
      "palmitoyltransferase": 3566,
      "mucos": 3567,
      "ecdysteroid": 3568,
      "isotypes": 3569,
      "##geran": 3570,
      "icosah": 3571,
      "polypeptide": 3572,
      "outflow": 3573,
      "photosynthesis": 3574,
      "##iterpenoid": 3575,
      "progesterone": 3576,
      "antimicrobial": 3577,
      "furrow": 3578,
      "gpi": 3579,
      "pseudouridine": 3580,
      "derivative": 3581,
      "chamber": 3582,
      "specialization": 3583,
      "rectifier": 3584,
      "microvillus": 3585,
      "##oribonuclease": 3586,
      "other": 3587,
      "oligodendrocyte": 3588,
      "icosahedral": 3589,
      "+-": 3590,
      "blast": 3591,
      "betw": 3592,
      "cur": 3593,
      "ev": 3594,
      "emeric": 3595,
      "fo": 3596,
      "fission": 3597,
      "fmn": 3598,
      "har": 3599,
      "joint": 3600,
      "pectin": 3601,
      "tel": 3602,
      "troph": 3603,
      "testosterone": 3604,
      "ver": 3605,
      "yl": 3606,
      "##ricle": 3607,
      "##een": 3608,
      "##ning": 3609,
      "##saturated": 3610,
      "##pene": 3611,
      "##pinal": 3612,
      "##vent": 3613,
      "##vest": 3614,
      "##inergic": 3615,
      "##aryl": 3616,
      "##enoid": 3617,
      "##onstriction": 3618,
      "##ospor": 3619,
      "##ranil": 3620,
      "##yllo": 3621,
      "##phth": 3622,
      "intrac": 3623,
      "##able": 3624,
      "deoxyc": 3625,
      "##ynur": 3626,
      "##otrans": 3627,
      "acute": 3628,
      "phyc": 3629,
      "##ocil": 3630,
      "##oconstriction": 3631,
      "receptors": 3632,
      "##triose": 3633,
      "invas": 3634,
      "##aglomer": 3635,
      "endonucleolytic": 3636,
      "stage": 3637,
      "##ipodium": 3638,
      "adher": 3639,
      "exosome": 3640,
      "##aps": 3641,
      "##revin": 3642,
      "monom": 3643,
      "glyceral": 3644,
      "hydroxybenzoate": 3645,
      "monogalactosyl": 3646,
      "leuc": 3647,
      "##methan": 3648,
      "amidase": 3649,
      "hydroxycinn": 3650,
      "myot": 3651,
      "subp": 3652,
      "##uloyl": 3653,
      "shoot": 3654,
      "##ronectin": 3655,
      "mature": 3656,
      "ventricle": 3657,
      "desulf": 3658,
      "tricistronic": 3659,
      "plasticity": 3660,
      "phagocytic": 3661,
      "fluor": 3662,
      "midbrain": 3663,
      "vasoconstriction": 3664,
      "geranylgeranyl": 3665,
      "##nesium": 3666,
      "neurotrophin": 3667,
      "mechanical": 3668,
      "##enicillin": 3669,
      "cystine": 3670,
      "placent": 3671,
      "##adiene": 3672,
      "glyoxylate": 3673,
      "magnesium": 3674,
      "centromeric": 3675,
      "##lucan": 3676,
      "locomotion": 3677,
      "stere": 3678,
      "prospore": 3679,
      "cgmp": 3680,
      "##osensory": 3681,
      "podocyte": 3682,
      "protocadherin": 3683,
      "number": 3684,
      "acetylmur": 3685,
      "alternative": 3686,
      "keratinocyte": 3687,
      "lamellipodium": 3688,
      "between": 3689,
      "emericell": 3690,
      "harvest": 3691,
      "##ranilate": 3692,
      "adherens": 3693,
      "glyceraldehyde": 3694,
      "monogalactosyldiacylglycerol": 3695,
      "harvesting": 3696,
      "34": 3697,
      "bmp": 3698,
      "baro": 3699,
      "delet": 3700,
      "ger": 3701,
      "holo": 3702,
      "mism": 3703,
      "pant": 3704,
      "rdna": 3705,
      "tyr": 3706,
      "uter": 3707,
      "##ra": 3708,
      "##rid": 3709,
      "##rite": 3710,
      "##receptor": 3711,
      "##aa": 3712,
      "##ail": 3713,
      "##diol": 3714,
      "##ble": 3715,
      "##ming": 3716,
      "##mot": 3717,
      "##winding": 3718,
      "##atan": 3719,
      "##atine": 3720,
      "##atch": 3721,
      "##itation": 3722,
      "##ening": 3723,
      "##idol": 3724,
      "##iding": 3725,
      "##phyrin": 3726,
      "##ynucleotide": 3727,
      "##uccin": 3728,
      "pharyn": 3729,
      "glia": 3730,
      "##acylase": 3731,
      "anne": 3732,
      "hydrop": 3733,
      "nucleosidase": 3734,
      "##iplasm": 3735,
      "##ifungal": 3736,
      "##imilation": 3737,
      "glycerophosph": 3738,
      "##retion": 3739,
      "hydroxybut": 3740,
      "antifungal": 3741,
      "atg": 3742,
      "lipase": 3743,
      "acetylneur": 3744,
      "tris": 3745,
      "##rophore": 3746,
      "amph": 3747,
      "amyrin": 3748,
      "chemorep": 3749,
      "##obiotic": 3750,
      "galactosidase": 3751,
      "subc": 3752,
      "trihydroxy": 3753,
      "mannitol": 3754,
      "mannosidase": 3755,
      "##glucose": 3756,
      "mesenchyme": 3757,
      "capping": 3758,
      "tubular": 3759,
      "##cinol": 3760,
      "reaction": 3761,
      "assimilation": 3762,
      "bacterio": 3763,
      "##idino": 3764,
      "recombinase": 3765,
      "##acement": 3766,
      "butyrate": 3767,
      "aldosterone": 3768,
      "groups": 3769,
      "dopa": 3770,
      "follicular": 3771,
      "excretion": 3772,
      "conjugate": 3773,
      "kinin": 3774,
      "flavin": 3775,
      "thymine": 3776,
      "sphingosine": 3777,
      "retina": 3778,
      "cortisol": 3779,
      "nicotinate": 3780,
      "anchoring": 3781,
      "dichloro": 3782,
      "trichome": 3783,
      "##oflavin": 3784,
      "urea": 3785,
      "colle": 3786,
      "flavonol": 3787,
      "flavonoid": 3788,
      "sheath": 3789,
      "chorion": 3790,
      "diaminopimelate": 3791,
      "cobalt": 3792,
      "phenanthrene": 3793,
      "dynein": 3794,
      "optic": 3795,
      "sumo": 3796,
      "xenobiotic": 3797,
      "topoisomerase": 3798,
      "dopaminergic": 3799,
      "ctd": 3800,
      "mucosal": 3801,
      "stereocil": 3802,
      "baroreceptor": 3803,
      "deletion": 3804,
      "mismatch": 3805,
      "annealing": 3806,
      "aortic": 3807,
      "band": 3808,
      "bcl": 3809,
      "c5": 3810,
      "cin": 3811,
      "cmp": 3812,
      "dide": 3813,
      "dorm": 3814,
      "eif": 3815,
      "fre": 3816,
      "hum": 3817,
      "humor": 3818,
      "iod": 3819,
      "kynur": 3820,
      "merc": 3821,
      "nk": 3822,
      "p4": 3823,
      "pter": 3824,
      "sac": 3825,
      "trop": 3826,
      "u2": 3827,
      "viol": 3828,
      "wob": 3829,
      "##ca": 3830,
      "##go": 3831,
      "##uit": 3832,
      "##tib": 3833,
      "##ogluc": 3834,
      "##sp": 3835,
      "##sulf": 3836,
      "##h2": 3837,
      "##xual": 3838,
      "##family": 3839,
      "##furan": 3840,
      "##jal": 3841,
      "##ioid": 3842,
      "##iocyte": 3843,
      "##icir": 3844,
      "##rocal": 3845,
      "##rocin": 3846,
      "##ctive": 3847,
      "##inosteroid": 3848,
      "##olus": 3849,
      "##itinase": 3850,
      "##anoyltransferase": 3851,
      "##ons": 3852,
      "##onadec": 3853,
      "##orrin": 3854,
      "inf": 3855,
      "##abec": 3856,
      "deimin": 3857,
      "metabol": 3858,
      "##amet": 3859,
      "##porphyrin": 3860,
      "##ria": 3861,
      "diap": 3862,
      "recip": 3863,
      "##athionine": 3864,
      "##uclear": 3865,
      "##opeptide": 3866,
      "##emp": 3867,
      "organizing": 3868,
      "cargo": 3869,
      "exon": 3870,
      "exogenous": 3871,
      "##ime": 3872,
      "thin": 3873,
      "thior": 3874,
      "##annabin": 3875,
      "##rost": 3876,
      "##othione": 3877,
      "monoxide": 3878,
      "##ithelial": 3879,
      "glycan": 3880,
      "arb": 3881,
      "hydroxym": 3882,
      "aminoglyc": 3883,
      "aminoadip": 3884,
      "trabec": 3885,
      "ribitol": 3886,
      "vestib": 3887,
      "lectin": 3888,
      "carboxylic": 3889,
      "axial": 3890,
      "myelin": 3891,
      "androgen": 3892,
      "periplasm": 3893,
      "glutamat": 3894,
      "trip": 3895,
      "malonyltransferase": 3896,
      "nitrite": 3897,
      "decay": 3898,
      "dihydrox": 3899,
      "dihydrodiol": 3900,
      "fibronectin": 3901,
      "phosphoryl": 3902,
      "acylglycerol": 3903,
      "cytoskeletal": 3904,
      "unwinding": 3905,
      "##geal": 3906,
      "sensing": 3907,
      "photoper": 3908,
      "nonadec": 3909,
      "fertilization": 3910,
      "lactose": 3911,
      "diver": 3912,
      "basement": 3913,
      "homocysteine": 3914,
      "cajal": 3915,
      "cholest": 3916,
      "basophil": 3917,
      "hexadec": 3918,
      "##angium": 3919,
      "oligomerization": 3920,
      "butyryl": 3921,
      "germline": 3922,
      "##adecane": 3923,
      "##iospore": 3924,
      "taurine": 3925,
      "respiration": 3926,
      "h3k9": 3927,
      "heptapeptide": 3928,
      "trigemin": 3929,
      "phenotypic": 3930,
      "iga": 3931,
      "geranylgeran": 3932,
      "ureter": 3933,
      "##ylceramide": 3934,
      "guanylyltransferase": 3935,
      "asymmetry": 3936,
      "pyrophosphate": 3937,
      "reproduction": 3938,
      "antibiotic": 3939,
      "##olactone": 3940,
      "##ohept": 3941,
      "superfamily": 3942,
      "xylosyltransferase": 3943,
      "zeatin": 3944,
      "hypoxia": 3945,
      "coumaroyl": 3946,
      "opioid": 3947,
      "maternal": 3948,
      "caffeoyl": 3949,
      "autophosphorylation": 3950,
      "amylopectin": 3951,
      "genitalia": 3952,
      "##oligosaccharide": 3953,
      "timing": 3954,
      "xyloglucan": 3955,
      "##logenesis": 3956,
      "epoxidase": 3957,
      "methylnonadec": 3958,
      "brassinosteroid": 3959,
      "cellobiose": 3960,
      "##methanopterin": 3961,
      "placenta": 3962,
      "tyramine": 3963,
      "subcomp": 3964,
      "cinn": 3965,
      "dormancy": 3966,
      "humoral": 3967,
      "wobble": 3968,
      "##iciresinol": 3969,
      "deiminase": 3970,
      "reciprocal": 3971,
      "thioredoxin": 3972,
      "photoperiod": 3973,
      "1d": 3974,
      "26": 3975,
      "ase": 3976,
      "c4": 3977,
      "cran": 3978,
      "dct": 3979,
      "derm": 3980,
      "fac": 3981,
      "gent": 3982,
      "ige": 3983,
      "jak": 3984,
      "jux": 3985,
      "k63": 3986,
      "lat": 3987,
      "od": 3988,
      "pp": 3989,
      "p2": 3990,
      "pup": 3991,
      "rot": 3992,
      "si": 3993,
      "ses": 3994,
      "##cumin": 3995,
      "##14": 3996,
      "##ging": 3997,
      "##utein": 3998,
      "##ler": 3999,
      "##lusion": 4000,
      "##tri": 4001,
      "##net": 4002,
      "##pigh": 4003,
      "##bactin": 4004,
      "##zone": 4005,
      "##icative": 4006,
      "biotic": 4007,
      "##are": 4008,
      "##oluted": 4009,
      "##itory": 4010,
      "##itonin": 4011,
      "##enine": 4012,
      "##enger": 4013,
      "##anil": 4014,
      "##omyc": 4015,
      "##idation": 4016,
      "##idaz": 4017,
      "##lear": 4018,
      "deamination": 4019,
      "toward": 4020,
      "##oclast": 4021,
      "diphosph": 4022,
      "diacetyl": 4023,
      "##ured": 4024,
      "entero": 4025,
      "anhydro": 4026,
      "##opodium": 4027,
      "methanol": 4028,
      "spok": 4029,
      "##ube": 4030,
      "endodeoxyribonuclease": 4031,
      "glucagon": 4032,
      "##lyoxal": 4033,
      "conid": 4034,
      "beta2": 4035,
      "##imar": 4036,
      "cytidylyltransferase": 4037,
      "##apterin": 4038,
      "alpha9": 4039,
      "##ochel": 4040,
      "aminoc": 4041,
      "apolip": 4042,
      "glycosyltransferase": 4043,
      "prolactin": 4044,
      "sulfatase": 4045,
      "tryp": 4046,
      "trail": 4047,
      "amido": 4048,
      "calcitonin": 4049,
      "disaccharide": 4050,
      "microp": 4051,
      "##obrevin": 4052,
      "##ismate": 4053,
      "malpigh": 4054,
      "nitros": 4055,
      "linole": 4056,
      "replicative": 4057,
      "pyrene": 4058,
      "pyridine": 4059,
      "##oxylating": 4060,
      "teichoic": 4061,
      "classical": 4062,
      "macropin": 4063,
      "##encephal": 4064,
      "snare": 4065,
      "salt": 4066,
      "proteas": 4067,
      "decarboxylating": 4068,
      "adenylyl": 4069,
      "hexakisphosphate": 4070,
      "##oglobin": 4071,
      "cyclohydrolase": 4072,
      "conjugating": 4073,
      "paraxial": 4074,
      "reduced": 4075,
      "precorrin": 4076,
      "phagosome": 4077,
      "melanosome": 4078,
      "sequestered": 4079,
      "proto": 4080,
      "convoluted": 4081,
      "##obutyrate": 4082,
      "abscission": 4083,
      "gonadotropin": 4084,
      "##ified": 4085,
      "methylglyoxal": 4086,
      "centromere": 4087,
      "osteoclast": 4088,
      ")+]": 4089,
      "producing": 4090,
      "dipeptide": 4091,
      "kaemp": 4092,
      "##austor": 4093,
      "trimethylation": 4094,
      "reverse": 4095,
      "microglial": 4096,
      "intraciliary": 4097,
      "myotube": 4098,
      "subpallium": 4099,
      "##motor": 4100,
      "hydroperoxide": 4101,
      "collecting": 4102,
      "##annabinoid": 4103,
      "periplasmic": 4104,
      "diversification": 4105,
      "trigeminal": 4106,
      "juxt": 4107,
      "spoke": 4108,
      "apolipoprotein": 4109,
      "malpighian": 4110,
      "))-": 4111,
      "27": 4112,
      "3r": 4113,
      "az": 4114,
      "aor": 4115,
      "aud": 4116,
      "b4": 4117,
      "bur": 4118,
      "bil": 4119,
      "bout": 4120,
      "ce": 4121,
      "c2": 4122,
      "ctp": 4123,
      "dn": 4124,
      "function": 4125,
      "folic": 4126,
      "fung": 4127,
      "kary": 4128,
      "leg": 4129,
      "lutein": 4130,
      "mar": 4131,
      "n2": 4132,
      "nor": 4133,
      "pel": 4134,
      "pirna": 4135,
      "pack": 4136,
      "penicillin": 4137,
      "ru": 4138,
      "sa": 4139,
      "sna": 4140,
      "tens": 4141,
      "uro": 4142,
      "utp": 4143,
      "##rag": 4144,
      "##eam": 4145,
      "##lact": 4146,
      "##lut": 4147,
      "##ae": 4148,
      "##aqu": 4149,
      "##sa": 4150,
      "##mium": 4151,
      "##f1": 4152,
      "##ferol": 4153,
      "##36": 4154,
      "##k2": 4155,
      "##75": 4156,
      "##iopterin": 4157,
      "##ropt": 4158,
      "##rous": 4159,
      "##ick": 4160,
      "##icot": 4161,
      "##iculin": 4162,
      "##icty": 4163,
      "##ulpt": 4164,
      "##aring": 4165,
      "##oluene": 4166,
      "##itob": 4167,
      "##ecium": 4168,
      "##orbic": 4169,
      "inward": 4170,
      "position": 4171,
      "##ign": 4172,
      "toxin": 4173,
      "acin": 4174,
      "phlo": 4175,
      "##acid": 4176,
      "##acyt": 4177,
      "dimer": 4178,
      "energy": 4179,
      "##adr": 4180,
      "##adenyl": 4181,
      "astral": 4182,
      "##hydrogenase": 4183,
      "stability": 4184,
      "adip": 4185,
      "conduction": 4186,
      "##imidazole": 4187,
      "interphase": 4188,
      "##rosomal": 4189,
      "monoc": 4190,
      "glycoside": 4191,
      "##rotoluene": 4192,
      "growing": 4193,
      "arch": 4194,
      "glucosyl": 4195,
      "lipoxygenase": 4196,
      "lear": 4197,
      "carbamoyl": 4198,
      "apoptosis": 4199,
      "isocitrate": 4200,
      "##ophen": 4201,
      "microtub": 4202,
      "unlo": 4203,
      "unco": 4204,
      "protease": 4205,
      "##glutamate": 4206,
      "lactonase": 4207,
      "phosphoglycerate": 4208,
      "self": 4209,
      "sculpt": 4210,
      "escr": 4211,
      "##aphorin": 4212,
      "phenylprop": 4213,
      "ossification": 4214,
      "benzyl": 4215,
      "circulation": 4216,
      "ketone": 4217,
      "thymus": 4218,
      "appressor": 4219,
      "fucosyltransferase": 4220,
      "medium": 4221,
      "multi": 4222,
      "semaphorin": 4223,
      "##ency": 4224,
      "cytotoxic": 4225,
      "editing": 4226,
      "adenosylmethionine": 4227,
      "allant": 4228,
      "trimethylamine": 4229,
      "cystathionine": 4230,
      "stomach": 4231,
      "magnet": 4232,
      "sliding": 4233,
      "sarcoplasmic": 4234,
      "cobalamin": 4235,
      "cadmium": 4236,
      "intercon": 4237,
      "connective": 4238,
      "##ogalacturonan": 4239,
      "tetracistronic": 4240,
      "acetylgalactosaminyltransferase": 4241,
      "arrest": 4242,
      "myofibril": 4243,
      "creatine": 4244,
      "stroma": 4245,
      "oxaloacetate": 4246,
      "integrity": 4247,
      "tangential": 4248,
      "somatostatin": 4249,
      "hydroxycinnamoyltransferase": 4250,
      "uterine": 4251,
      "asexual": 4252,
      "##omycet": 4253,
      "proteasomal": 4254,
      "aorta": 4255,
      "auditory": 4256,
      "bouton": 4257,
      "packaging": 4258,
      "snap": 4259,
      "##ragm": 4260,
      "escrt": 4261,
      "appressorium": 4262,
      "af": 4263,
      "bor": 4264,
      "cul": 4265,
      "cost": 4266,
      "dc": 4267,
      "drop": 4268,
      "dest": 4269,
      "elast": 4270,
      "fid": 4271,
      "gal": 4272,
      "hor": 4273,
      "haustor": 4274,
      "join": 4275,
      "lute": 4276,
      "men": 4277,
      "mand": 4278,
      "oomycet": 4279,
      "pm": 4280,
      "ro": 4281,
      "roll": 4282,
      "sim": 4283,
      "tar": 4284,
      "uf": 4285,
      "u6": 4286,
      "##renol": 4287,
      "##eb": 4288,
      "##uth": 4289,
      "##arot": 4290,
      "##aff": 4291,
      "##nary": 4292,
      "##50": 4293,
      "##she": 4294,
      "##sperm": 4295,
      "##d1": 4296,
      "##yx": 4297,
      "##m1": 4298,
      "##mutase": 4299,
      "##wy": 4300,
      "##ional": 4301,
      "##atoxin": 4302,
      "##ulan": 4303,
      "##ulse": 4304,
      "##enoate": 4305,
      "##onium": 4306,
      "##elity": 4307,
      "##etative": 4308,
      "##omutase": 4309,
      "##phen": 4310,
      "init": 4311,
      "inact": 4312,
      "inosine": 4313,
      "pron": 4314,
      "deadenylation": 4315,
      "deubiqu": 4316,
      "deacylase": 4317,
      "##asaccharide": 4318,
      "##asulfide": 4319,
      "tooth": 4320,
      "acp": 4321,
      "##riz": 4322,
      "diadenosine": 4323,
      "##veill": 4324,
      "phosphom": 4325,
      "phosphocysteine": 4326,
      "enshe": 4327,
      "##ilage": 4328,
      "##romycin": 4329,
      "acidification": 4330,
      "##ipin": 4331,
      "polynucleotide": 4332,
      "oxopent": 4333,
      "##endon": 4334,
      "imm": 4335,
      "thick": 4336,
      "##reading": 4337,
      "factory": 4338,
      "glycero": 4339,
      "##roton": 4340,
      "##yruvate": 4341,
      "anten": 4342,
      "sulfite": 4343,
      "sulfoxide": 4344,
      "methylenet": 4345,
      "##ropine": 4346,
      "triterpenoid": 4347,
      "riboside": 4348,
      "ribulose": 4349,
      "plasmacyt": 4350,
      "calmod": 4351,
      "##rophenol": 4352,
      "carbox": 4353,
      "isoflav": 4354,
      "chemoat": 4355,
      "##glycerophosph": 4356,
      "##obilin": 4357,
      "##allate": 4358,
      "modified": 4359,
      "glutamic": 4360,
      "galacturonate": 4361,
      "##acetaldehyde": 4362,
      "malonyl": 4363,
      "granzyme": 4364,
      "organismal": 4365,
      "fibrin": 4366,
      "##gluconate": 4367,
      "shap": 4368,
      "endothelin": 4369,
      "unsaturated": 4370,
      "rho": 4371,
      "##anthine": 4372,
      "##valent": 4373,
      "quadr": 4374,
      "lumenal": 4375,
      "delamination": 4376,
      "##benzene": 4377,
      "deoxyribose": 4378,
      "oligopeptide": 4379,
      "benzoate": 4380,
      "##adenine": 4381,
      "copii": 4382,
      "intermembrane": 4383,
      "cuticulin": 4384,
      "parath": 4385,
      "siderophore": 4386,
      "##eryth": 4387,
      "deglyc": 4388,
      "surveill": 4389,
      "melanin": 4390,
      "midzone": 4391,
      "insect": 4392,
      "bridge": 4393,
      "branchio": 4394,
      "epidermis": 4395,
      "minus": 4396,
      "absence": 4397,
      "palmitoylation": 4398,
      "h4k": 4399,
      "mucilage": 4400,
      "mechanism": 4401,
      "strip": 4402,
      "hydroxyproline": 4403,
      "phosphoribosyltransferase": 4404,
      "xanthine": 4405,
      "racemization": 4406,
      "intramolecular": 4407,
      "catabolism": 4408,
      "dienoate": 4409,
      "cellotriose": 4410,
      "paired": 4411,
      "vegetative": 4412,
      "array": 4413,
      "dimethyltransferase": 4414,
      "dicarboxylate": 4415,
      "sorbose": 4416,
      "two": 4417,
      "mevalonate": 4418,
      "##phosphatidylinositol": 4419,
      "symmetric": 4420,
      "somitogenesis": 4421,
      "acetylneuraminate": 4422,
      "free": 4423,
      "iodide": 4424,
      "##porphyrinogen": 4425,
      "aminoglycoside": 4426,
      "trabecula": 4427,
      "subcomplex": 4428,
      "photoperiodism": 4429,
      "cranial": 4430,
      "##ochelatin": 4431,
      "kaempferol": 4432,
      "microtubules": 4433,
      "sculpted": 4434,
      "droplet": 4435,
      "fidelity": 4436,
      "haustorium": 4437,
      "joining": 4438,
      "rolling": 4439,
      "deubiquitinase": 4440,
      "ensheath": 4441,
      "plasmacytoid": 4442,
      "calmodulin": 4443,
      "chemoattr": 4444,
      "surveillance": 4445,
      ")]": 4446,
      "35": 4447,
      "97": 4448,
      "b6": 4449,
      "c3": 4450,
      "cas": 4451,
      "cum": 4452,
      "kv": 4453,
      "k27": 4454,
      "nodal": 4455,
      "plex": 4456,
      "pip": 4457,
      "renin": 4458,
      "slow": 4459,
      "sort": 4460,
      "tendon": 4461,
      "up": 4462,
      "u4": 4463,
      "vag": 4464,
      "zo": 4465,
      "##gth": 4466,
      "##lication": 4467,
      "##aquinone": 4468,
      "##tetr": 4469,
      "##tetrahydrofolate": 4470,
      "##oct": 4471,
      "##ois": 4472,
      "##py": 4473,
      "##peptidase": 4474,
      "##blast": 4475,
      "##kapp": 4476,
      "##iot": 4477,
      "##ald": 4478,
      "##rocarb": 4479,
      "##ulsion": 4480,
      "##inidin": 4481,
      "##oly": 4482,
      "##iven": 4483,
      "##enite": 4484,
      "##ength": 4485,
      "##oss": 4486,
      "##osition": 4487,
      "##etch": 4488,
      "##omous": 4489,
      "##idity": 4490,
      "##idue": 4491,
      "##isate": 4492,
      "##thalate": 4493,
      "##edin": 4494,
      "##abotropic": 4495,
      "metabotropic": 4496,
      "##otr": 4497,
      "##otanin": 4498,
      "aca": 4499,
      "phyllo": 4500,
      "##ocamp": 4501,
      "restr": 4502,
      "residue": 4503,
      "chronic": 4504,
      "##ume": 4505,
      "dibenz": 4506,
      "##trate": 4507,
      "##lopodium": 4508,
      "##ader": 4509,
      "##adiol": 4510,
      "asper": 4511,
      "allose": 4512,
      "##hydrox": 4513,
      "##ronate": 4514,
      "##ronary": 4515,
      "##ible": 4516,
      "coating": 4517,
      "covalent": 4518,
      "coronary": 4519,
      "endosomal": 4520,
      "formaldehyde": 4521,
      "nucleolar": 4522,
      "adam": 4523,
      "organellar": 4524,
      "oxalate": 4525,
      "exonucleolytic": 4526,
      "mitophagy": 4527,
      "imidazole": 4528,
      "alpha4": 4529,
      "##ochord": 4530,
      "monop": 4531,
      "mononucle": 4532,
      "epic": 4533,
      "epsi": 4534,
      "##rotrans": 4535,
      "hydroxys": 4536,
      "##kinin": 4537,
      "##article": 4538,
      "histidino": 4539,
      "secreting": 4540,
      "methylc": 4541,
      "##ropane": 4542,
      "trin": 4543,
      "ribosyl": 4544,
      "riboflavin": 4545,
      "stretch": 4546,
      "diss": 4547,
      "##obactin": 4548,
      "hydroxyn": 4549,
      "##axanthin": 4550,
      "##osylceramide": 4551,
      "chromat": 4552,
      "guide": 4553,
      "##arbonate": 4554,
      "inducing": 4555,
      "nitri": 4556,
      "manno": 4557,
      "decapping": 4558,
      "retrotrans": 4559,
      "##ressin": 4560,
      "tetrach": 4561,
      "uniporter": 4562,
      "##osinolate": 4563,
      "##ikimate": 4564,
      "##perature": 4565,
      "cd2": 4566,
      "gener": 4567,
      "sulfurtransferase": 4568,
      "hemocyte": 4569,
      "hemoglobin": 4570,
      "lactam": 4571,
      "lactone": 4572,
      "alkane": 4573,
      "volume": 4574,
      "##olysosome": 4575,
      "increased": 4576,
      "inclusion": 4577,
      "##aceol": 4578,
      "agg": 4579,
      "propion": 4580,
      "pentakisphosphate": 4581,
      "tricarboxylic": 4582,
      "radiation": 4583,
      "hydrocarb": 4584,
      "ascorbic": 4585,
      "sphingomy": 4586,
      "h3k4": 4587,
      "medul": 4588,
      "temperature": 4589,
      "chlorophenyl": 4590,
      "anther": 4591,
      "anthranilate": 4592,
      "igg": 4593,
      "ganglioside": 4594,
      "carotenoid": 4595,
      "##phalospor": 4596,
      "guanylate": 4597,
      "lipopeptide": 4598,
      "##orbate": 4599,
      "dichlo": 4600,
      "tert": 4601,
      "sporangium": 4602,
      "##order": 4603,
      "pronephros": 4604,
      "icosanoid": 4605,
      "feed": 4606,
      "fever": 4607,
      "filopodium": 4608,
      "glycosylphosphatidylinositol": 4609,
      "erbb4": 4610,
      "encaps": 4611,
      "superior": 4612,
      "shear": 4613,
      "hypoxanthine": 4614,
      "farnesyl": 4615,
      "arsenite": 4616,
      "sinapoyl": 4617,
      "vegf": 4618,
      "##fruct": 4619,
      "impulse": 4620,
      "soluble": 4621,
      "##robenzene": 4622,
      "##yclohexane": 4623,
      "myofibroblast": 4624,
      "sorbitol": 4625,
      "benzoquinone": 4626,
      "pyridoxine": 4627,
      "injured": 4628,
      "driven": 4629,
      "##aspart": 4630,
      "lysophosph": 4631,
      "undecaprenyl": 4632,
      "syncytial": 4633,
      "blue": 4634,
      "##ventricular": 4635,
      "emericellamide": 4636,
      "stereocilium": 4637,
      "eif2": 4638,
      "humidity": 4639,
      "kynurenine": 4640,
      "pteridine": 4641,
      "violaceol": 4642,
      "odont": 4643,
      "rotation": 4644,
      "sesqu": 4645,
      "amidohydrolase": 4646,
      "##encephalon": 4647,
      "juxtaglomer": 4648,
      "marrow": 4649,
      "tensidol": 4650,
      "phloem": 4651,
      "learning": 4652,
      "interconversion": 4653,
      "tartrate": 4654,
      "methylenetetrahydrofolate": 4655,
      "shaped": 4656,
      "ensheathment": 4657,
      "9775": 4658,
      "kv4": 4659,
      "sorting": 4660,
      "zoospore": 4661,
      "epsilon": 4662,
      "hydrocarbon": 4663,
      "sphingomyelin": 4664,
      "1a": 4665,
      "anal": 4666,
      "bending": 4667,
      "border": 4668,
      "cx": 4669,
      "cable": 4670,
      "dent": 4671,
      "dione": 4672,
      "dau": 4673,
      "equ": 4674,
      "fast": 4675,
      "focal": 4676,
      "herc": 4677,
      "hipp": 4678,
      "ir": 4679,
      "ix": 4680,
      "lept": 4681,
      "meg": 4682,
      "nl": 4683,
      "noc": 4684,
      "nur": 4685,
      "pri": 4686,
      "petal": 4687,
      "pimar": 4688,
      "r8": 4689,
      "rip": 4690,
      "sut": 4691,
      "syr": 4692,
      "sacch": 4693,
      "sour": 4694,
      "tat": 4695,
      "tag": 4696,
      "utr": 4697,
      "vein": 4698,
      "##rh": 4699,
      "##r2": 4700,
      "##ryl": 4701,
      "##rivation": 4702,
      "##cf": 4703,
      "##17": 4704,
      "##ex": 4705,
      "##gulf": 4706,
      "##guanosine": 4707,
      "##lav": 4708,
      "##lulan": 4709,
      "##afl": 4710,
      "##aropine": 4711,
      "##tetrahydro": 4712,
      "##iib": 4713,
      "##oro": 4714,
      "##oum": 4715,
      "##hr": 4716,
      "##hept": 4717,
      "##yroid": 4718,
      "##mic": 4719,
      "##mosome": 4720,
      "##mming": 4721,
      "##fin": 4722,
      "##flex": 4723,
      "##icirc": 4724,
      "##esin": 4725,
      "##alc": 4726,
      "##alam": 4727,
      "##olateral": 4728,
      "##itter": 4729,
      "##enoic": 4730,
      "##ecin": 4731,
      "##sel": 4732,
      "##erit": 4733,
      "##eryl": 4734,
      "##erib": 4735,
      "##unk": 4736,
      "##osc": 4737,
      "##idyltransferase": 4738,
      "##phinidin": 4739,
      "##isc": 4740,
      "transhydrogenase": 4741,
      "deox": 4742,
      "deamin": 4743,
      "##otetr": 4744,
      "##otoxin": 4745,
      "acrosome": 4746,
      "phthalate": 4747,
      "##ocrine": 4748,
      "chylo": 4749,
      "##rium": 4750,
      "##umulation": 4751,
      "##yclop": 4752,
      "##ycline": 4753,
      "##odec": 4754,
      "##odop": 4755,
      "##odilation": 4756,
      "##actic": 4757,
      "phosphop": 4758,
      "phosphocholine": 4759,
      "engulf": 4760,
      "##ucleus": 4761,
      "##opressin": 4762,
      "##oneme": 4763,
      "##ysis": 4764,
      "ala": 4765,
      "hydrogenase": 4766,
      "##ytene": 4767,
      "##ibiose": 4768,
      "spreading": 4769,
      "##ubin": 4770,
      "glucarate": 4771,
      "nucleic": 4772,
      "nucleosome": 4773,
      "nucleoid": 4774,
      "##imeric": 4775,
      "##phosphotransferase": 4776,
      "##phosphonate": 4777,
      "thiol": 4778,
      "interstit": 4779,
      "##rein": 4780,
      "deprivation": 4781,
      "monosaccharide": 4782,
      "epi": 4783,
      "glycolipid": 4784,
      "intron": 4785,
      "hydroxyacyl": 4786,
      "repression": 4787,
      "##iferin": 4788,
      "methylamine": 4789,
      "methylmal": 4790,
      "methylesterase": 4791,
      "preme": 4792,
      "prerib": 4793,
      "trunk": 4794,
      "lewy": 4795,
      "carbamoyltransferase": 4796,
      "##obenz": 4797,
      "##oidal": 4798,
      "smad": 4799,
      "guan": 4800,
      "subd": 4801,
      "##eralocorticoid": 4802,
      "symbiotic": 4803,
      "replacement": 4804,
      "##udal": 4805,
      "seryl": 4806,
      "pyruv": 4807,
      "compounds": 4808,
      "##esters": 4809,
      "erad": 4810,
      "##iolipin": 4811,
      "##cinapterin": 4812,
      "nonhom": 4813,
      "general": 4814,
      "reflex": 4815,
      "##valerate": 4816,
      "frag": 4817,
      "fruit": 4818,
      "cave": 4819,
      "spermine": 4820,
      "scaff": 4821,
      "accumulation": 4822,
      "delphinidin": 4823,
      "estr": 4824,
      "deform": 4825,
      "aspartyl": 4826,
      "benzoyl": 4827,
      "penta": 4828,
      "lymphatic": 4829,
      "uridylyltransferase": 4830,
      "##hrome": 4831,
      "succinyltransferase": 4832,
      "isopren": 4833,
      "##monary": 4834,
      "cyanelle": 4835,
      "phytochelatin": 4836,
      "dimethylall": 4837,
      "rhamnogalacturonan": 4838,
      "octadec": 4839,
      "indoleacetic": 4840,
      "xylene": 4841,
      "##phosphorylase": 4842,
      "mouth": 4843,
      "##agellate": 4844,
      "midgut": 4845,
      "acetylglucosaminyl": 4846,
      "grav": 4847,
      "mineralocorticoid": 4848,
      "semicirc": 4849,
      "##matine": 4850,
      "vasodilation": 4851,
      "vasopressin": 4852,
      "##oflagellate": 4853,
      "peptides": 4854,
      "tetrahydromethanopterin": 4855,
      "segmentation": 4856,
      "notochord": 4857,
      "granulosa": 4858,
      "cardiolipin": 4859,
      "dinit": 4860,
      "dinoflagellate": 4861,
      "dolichol": 4862,
      "hydroxyphenylacetate": 4863,
      "autophagic": 4864,
      "permeabilization": 4865,
      "colum": 4866,
      "sialyltransferase": 4867,
      "sialidase": 4868,
      "##ohy": 4869,
      "methylguanosine": 4870,
      "heterod": 4871,
      "xylosyl": 4872,
      "osteoblast": 4873,
      "photosynthetic": 4874,
      "phenanthrol": 4875,
      "connecting": 4876,
      "bicarbonate": 4877,
      "dimethylation": 4878,
      "olefin": 4879,
      "pulmonary": 4880,
      "phosphatidyltransferase": 4881,
      "injury": 4882,
      "synaptobrevin": 4883,
      "##onoesters": 4884,
      "##opyranosyl": 4885,
      "endosperm": 4886,
      "food": 4887,
      "trophoblast": 4888,
      "acetylmuramoyl": 4889,
      "pantoth": 4890,
      "hydroxybutyrate": 4891,
      "chemorepulsion": 4892,
      "glutamatergic": 4893,
      "towards": 4894,
      "enterobactin": 4895,
      "burst": 4896,
      "##itobiose": 4897,
      "unloading": 4898,
      "after": 4899,
      "destabilization": 4900,
      "rough": 4901,
      "phosphomonoesters": 4902,
      "quadruplex": 4903,
      "parathyroid": 4904,
      "plexin": 4905,
      "vagus": 4906,
      "##otriose": 4907,
      "restriction": 4908,
      "monopolar": 4909,
      "hydroxysteroid": 4910,
      "chromatophore": 4911,
      "retrotranspos": 4912,
      "dauer": 4913,
      "hercyn": 4914,
      "suture": 4915,
      "syring": 4916,
      "saccharopine": 4917,
      "##micron": 4918,
      "##alamus": 4919,
      "chylomicron": 4920,
      "##odopsin": 4921,
      "engulfment": 4922,
      "interstitial": 4923,
      "premeiotic": 4924,
      "preribosome": 4925,
      "nonhomologous": 4926,
      "scaffold": 4927,
      "isoprenoid": 4928,
      "semicircular": 4929,
      "--": 4930,
      "a4": 4931,
      "bron": 4932,
      "back": 4933,
      "cp": 4934,
      "conse": 4935,
      "cold": 4936,
      "d3": 4937,
      "day": 4938,
      "em": 4939,
      "friz": 4940,
      "g0": 4941,
      "gallate": 4942,
      "imin": 4943,
      "jun": 4944,
      "lith": 4945,
      "length": 4946,
      "myd": 4947,
      "mother": 4948,
      "oper": 4949,
      "ps": 4950,
      "pap": 4951,
      "point": 4952,
      "tur": 4953,
      "tax": 4954,
      "tcf": 4955,
      "urate": 4956,
      "u12": 4957,
      "wh": 4958,
      "zym": 4959,
      "##rase": 4960,
      "##ritol": 4961,
      "##cysteine": 4962,
      "##cending": 4963,
      "##18": 4964,
      "##eve": 4965,
      "##umb": 4966,
      "##uanine": 4967,
      "##lary": 4968,
      "##tte": 4969,
      "##ix": 4970,
      "##iral": 4971,
      "##ietal": 4972,
      "##oy": 4973,
      "##oine": 4974,
      "##ohydrolase": 4975,
      "##pp": 4976,
      "##plast": 4977,
      "##propyl": 4978,
      "##ykinin": 4979,
      "##zled": 4980,
      "##fib": 4981,
      "##88": 4982,
      "##ioventricular": 4983,
      "##icidin": 4984,
      "##esion": 4985,
      "##atechol": 4986,
      "##atonin": 4987,
      "##ulate": 4988,
      "##its": 4989,
      "##itch": 4990,
      "##itrile": 4991,
      "##iver": 4992,
      "##ivision": 4993,
      "##ecution": 4994,
      "##anate": 4995,
      "##onine": 4996,
      "##onidin": 4997,
      "##eramidase": 4998,
      "##unt": 4999,
      "##orten": 5000,
      "##ospinal": 5001,
      "##ellus": 5002,
      "##omorph": 5003,
      "##entisate": 5004,
      "##ylin": 5005,
      "##ylmalate": 5006,
      "##idec": 5007,
      "##lerot": 5008,
      "##phenone": 5009,
      "infer": 5010,
      "##ineurin": 5011,
      "dex": 5012,
      "meta": 5013,
      "##amy": 5014,
      "##amyl": 5015,
      "##amerization": 5016,
      "##amido": 5017,
      "toc": 5018,
      "compet": 5019,
      "##usarin": 5020,
      "resol": 5021,
      "dihyd": 5022,
      "dikinase": 5023,
      "##odes": 5024,
      "##tration": 5025,
      "##trum": 5026,
      "involution": 5027,
      "antrum": 5028,
      "##ilar": 5029,
      "alve": 5030,
      "spac": 5031,
      "endoribonuclease": 5032,
      "##ogenic": 5033,
      "nucleolus": 5034,
      "polytene": 5035,
      "adr": 5036,
      "organo": 5037,
      "oxobut": 5038,
      "exodeoxyribonuclease": 5039,
      "execution": 5040,
      "##endage": 5041,
      "##imulation": 5042,
      "imidaz": 5043,
      "acetaldehyde": 5044,
      "thios": 5045,
      "##idylate": 5046,
      "##othiazole": 5047,
      "##rection": 5048,
      "##eroid": 5049,
      "##ochlear": 5050,
      "locus": 5051,
      "##ensin": 5052,
      "##uplication": 5053,
      "arab": 5054,
      "antagon": 5055,
      "prenyl": 5056,
      "corne": 5057,
      "##avy": 5058,
      "plasmodes": 5059,
      "mitochondria": 5060,
      "heavy": 5061,
      "amylase": 5062,
      "amylin": 5063,
      "calcineurin": 5064,
      "plaqu": 5065,
      "##ophyll": 5066,
      "##ollagen": 5067,
      "myoc": 5068,
      "galactonate": 5069,
      "trimming": 5070,
      "##ogentisate": 5071,
      "inhibin": 5072,
      "sertol": 5073,
      "##urea": 5074,
      "##illa": 5075,
      "dihydrouridine": 5076,
      "flipp": 5077,
      "olivary": 5078,
      "polyket": 5079,
      "filtration": 5080,
      "shikimate": 5081,
      "shorten": 5082,
      "pyrone": 5083,
      "rhodopsin": 5084,
      "supr": 5085,
      "cdc": 5086,
      "protection": 5087,
      "##anthrene": 5088,
      "descending": 5089,
      "hemopoi": 5090,
      "feruloyl": 5091,
      "##glutaryl": 5092,
      "phosphofruct": 5093,
      "homogentisate": 5094,
      "caudal": 5095,
      "sclerot": 5096,
      "adenylylation": 5097,
      "threonylc": 5098,
      "##argonidin": 5099,
      "glucuronidation": 5100,
      "##anging": 5101,
      "benzene": 5102,
      "propanoate": 5103,
      "propanediol": 5104,
      "circle": 5105,
      "arterios": 5106,
      "copi": 5107,
      "isoprene": 5108,
      "##hexanoate": 5109,
      "dihydroxyphenyl": 5110,
      "cyano": 5111,
      "parietal": 5112,
      "swim": 5113,
      "hyperp": 5114,
      "ascus": 5115,
      "ascorbate": 5116,
      "maltohept": 5117,
      "taut": 5118,
      "##pyridine": 5119,
      "transformation": 5120,
      "nitrogenous": 5121,
      "midline": 5122,
      "appendage": 5123,
      "##ethylamine": 5124,
      "ampa": 5125,
      "palmitoyl": 5126,
      "sinus": 5127,
      "pseudopodium": 5128,
      "pseudohy": 5129,
      "terpenoid": 5130,
      "exchanging": 5131,
      "##olactate": 5132,
      "methanofuran": 5133,
      "wounding": 5134,
      "cellodextrin": 5135,
      "##ause": 5136,
      "chorismate": 5137,
      "tetrairon": 5138,
      "gabaergic": 5139,
      "##robenzoate": 5140,
      "atrioventricular": 5141,
      "##lorophyll": 5142,
      "pyridoxamine": 5143,
      "twitch": 5144,
      "visc": 5145,
      "##tsh": 5146,
      "flowering": 5147,
      "dgtp": 5148,
      "##iophene": 5149,
      "nucleotidyltransferase": 5150,
      "ocellus": 5151,
      "procollagen": 5152,
      "curcumin": 5153,
      "invasive": 5154,
      "geran": 5155,
      "holoenzyme": 5156,
      "aminoadipate": 5157,
      "dermatan": 5158,
      "microparticle": 5159,
      "fungus": 5160,
      "pelargonidin": 5161,
      "uncoating": 5162,
      "costimulation": 5163,
      "immature": 5164,
      "deglycation": 5165,
      "stripe": 5166,
      "chemoattraction": 5167,
      "##pyrimidine": 5168,
      "##ocampal": 5169,
      "trinit": 5170,
      "##phalosporin": 5171,
      "pimara": 5172,
      "##lavine": 5173,
      "subdivision": 5174,
      "estradiol": 5175,
      "retrotransposon": 5176,
      "bronch": 5177,
      "conser": 5178,
      "frizzled": 5179,
      "myd88": 5180,
      "##fibril": 5181,
      "inferior": 5182,
      "##usarinine": 5183,
      "thiosulfate": 5184,
      "antagonist": 5185,
      "sertoli": 5186,
      "flippase": 5187,
      "polyketide": 5188,
      "shortening": 5189,
      "hemopoiesis": 5190,
      "threonylcarb": 5191,
      "arteriosus": 5192,
      "maltoheptaose": 5193,
      "pseudohyphal": 5194,
      "33": 5195,
      "37": 5196,
      "a1": 5197,
      "aaa": 5198,
      "ble": 5199,
      "coc": 5200,
      "dd": 5201,
      "dol": 5202,
      "dedi": 5203,
      "duplex": 5204,
      "dodec": 5205,
      "eph": 5206,
      "euc": 5207,
      "fas": 5208,
      "flop": 5209,
      "gut": 5210,
      "jkapp": 5211,
      "kain": 5212,
      "kall": 5213,
      "luc": 5214,
      "mc": 5215,
      "mess": 5216,
      "ment": 5217,
      "mam": 5218,
      "mur": 5219,
      "mad": 5220,
      "net": 5221,
      "pit": 5222,
      "penet": 5223,
      "r7": 5224,
      "rbp": 5225,
      "ss": 5226,
      "sre": 5227,
      "tung": 5228,
      "xx": 5229,
      "zon": 5230,
      "##1p": 5231,
      "##16": 5232,
      "##eet": 5233,
      "##eine": 5234,
      "##erone": 5235,
      "##l2": 5236,
      "##aine": 5237,
      "##ological": 5238,
      "##51": 5239,
      "##p2": 5240,
      "##pase": 5241,
      "##path": 5242,
      "##der": 5243,
      "##duc": 5244,
      "##bon": 5245,
      "##biphenyl": 5246,
      "##mann": 5247,
      "##mitol": 5248,
      "##fusarinine": 5249,
      "##kk": 5250,
      "##wn": 5251,
      "##iox": 5252,
      "##iogenesis": 5253,
      "##ioplast": 5254,
      "##rod": 5255,
      "##ality": 5256,
      "##ata": 5257,
      "##atac": 5258,
      "##atech": 5259,
      "##arium": 5260,
      "##olyl": 5261,
      "##enesulfonate": 5262,
      "##ecarboxylate": 5263,
      "##sette": 5264,
      "##onal": 5265,
      "##erine": 5266,
      "##elination": 5267,
      "##orization": 5268,
      "##orub": 5269,
      "##omethyl": 5270,
      "##idone": 5271,
      "##idylation": 5272,
      "##phenate": 5273,
      "##isop": 5274,
      "##teichoic": 5275,
      "##edd": 5276,
      "##abd": 5277,
      "deaz": 5278,
      "##amph": 5279,
      "##asion": 5280,
      "aconit": 5281,
      "acrosomal": 5282,
      "glcna": 5283,
      "proteins": 5284,
      "proteinase": 5285,
      "##ump": 5286,
      "diamine": 5287,
      "diaph": 5288,
      "##urtsh": 5289,
      "enucle": 5290,
      "invag": 5291,
      "##opine": 5292,
      "##opene": 5293,
      "##adder": 5294,
      "##ilt": 5295,
      "##ilb": 5296,
      "##agy": 5297,
      "##ytosis": 5298,
      "courtsh": 5299,
      "acids": 5300,
      "formic": 5301,
      "store": 5302,
      "exoribonuclease": 5303,
      "constriction": 5304,
      "##epithelial": 5305,
      "##endopeptidase": 5306,
      "mitosis": 5307,
      "##glcna": 5308,
      "alpha3": 5309,
      "alpha6": 5310,
      "alphaiib": 5311,
      "##rosterone": 5312,
      "##ethane": 5313,
      "##ethionine": 5314,
      "secois": 5315,
      "deposition": 5316,
      "intensity": 5317,
      "atom": 5318,
      "atrium": 5319,
      "prun": 5320,
      "transcytosis": 5321,
      "glucosaminyl": 5322,
      "glucosylceramide": 5323,
      "monoter": 5324,
      "monoamine": 5325,
      "acetyllact": 5326,
      "isobut": 5327,
      "immunological": 5328,
      "##akis": 5329,
      "##etra": 5330,
      "myelination": 5331,
      "perin": 5332,
      "potentiation": 5333,
      "galactitol": 5334,
      "triacetyl": 5335,
      "granular": 5336,
      "decaprenyl": 5337,
      "pyrroline": 5338,
      "pyramid": 5339,
      "##illary": 5340,
      "clamp": 5341,
      "##robilin": 5342,
      "polyubiquitin": 5343,
      "tetrasulfide": 5344,
      "axonogenesis": 5345,
      "##olariciresinol": 5346,
      "unid": 5347,
      "regulated": 5348,
      "##ikrein": 5349,
      "cdk": 5350,
      "polarization": 5351,
      "genes": 5352,
      "reassembly": 5353,
      "##glucosamine": 5354,
      "scra": 5355,
      "basic": 5356,
      "basolateral": 5357,
      "association": 5358,
      "primord": 5359,
      "alkan": 5360,
      "propan": 5361,
      "##okinin": 5362,
      "butyl": 5363,
      "deacetyl": 5364,
      "germarium": 5365,
      "##atidic": 5366,
      "prephenate": 5367,
      "regionalization": 5368,
      "cyclodextrin": 5369,
      "sweet": 5370,
      "dimethylamine": 5371,
      "melatonin": 5372,
      "carboxymethyl": 5373,
      "carboxypeptidase": 5374,
      "gastrin": 5375,
      "tau": 5376,
      "h3k36": 5377,
      "distrib": 5378,
      "retinyl": 5379,
      "gibberellic": 5380,
      "heptose": 5381,
      "##alkanoate": 5382,
      "multip": 5383,
      "egfr": 5384,
      "igd": 5385,
      "igm": 5386,
      "icn": 5387,
      "segmental": 5388,
      "carotid": 5389,
      "corticospinal": 5390,
      "##ylcysteine": 5391,
      "ketoglutarate": 5392,
      "laminar": 5393,
      "trichloro": 5394,
      "chlorophyllide": 5395,
      "necropt": 5396,
      "##me2": 5397,
      "##me3": 5398,
      "intra": 5399,
      "mannosylglyc": 5400,
      "fear": 5401,
      "glyoxal": 5402,
      "methanophen": 5403,
      "ergic": 5404,
      "##quinov": 5405,
      "nitrogenase": 5406,
      "cellooligosaccharide": 5407,
      "zeaxanthin": 5408,
      "arachidonate": 5409,
      "farnesol": 5410,
      "sarcosine": 5411,
      "##iterpene": 5412,
      "lipoteichoic": 5413,
      "pullulan": 5414,
      "material": 5415,
      "kaur": 5416,
      "metalloendopeptidase": 5417,
      "visual": 5418,
      "flower": 5419,
      "misfolded": 5420,
      "pericent": 5421,
      "syncytium": 5422,
      "nucleotidase": 5423,
      "k48": 5424,
      "venous": 5425,
      "citram": 5426,
      "evasion": 5427,
      "deoxycyt": 5428,
      "phyco": 5429,
      "monometh": 5430,
      "fluoride": 5431,
      "##uccinate": 5432,
      "pharyngeal": 5433,
      "bacteriocin": 5434,
      "p450": 5435,
      "##furanone": 5436,
      "metabolite": 5437,
      "diapause": 5438,
      "arborization": 5439,
      "hexadecanal": 5440,
      "geranylgeranyltransferase": 5441,
      "latency": 5442,
      "p2y": 5443,
      "aminocyclop": 5444,
      "luteinizing": 5445,
      "monocarboxylic": 5446,
      "elastin": 5447,
      "luteolin": 5448,
      "menaquinone": 5449,
      "mandelate": 5450,
      "oomycetes": 5451,
      "pmt": 5452,
      "similar": 5453,
      "##spermidine": 5454,
      "branchiomotor": 5455,
      "cassette": 5456,
      "mononuclear": 5457,
      "epicardium": 5458,
      "cd25": 5459,
      "rotational": 5460,
      "juxtaglomerulus": 5461,
      "cxcr": 5462,
      "hippocampal": 5463,
      "nlrp": 5464,
      "primer": 5465,
      "deformylase": 5466,
      "column": 5467,
      "pantothenate": 5468,
      "syringal": 5469,
      "operated": 5470,
      "##omorphogenesis": 5471,
      "arabitol": 5472,
      "plaque": 5473,
      "threonylcarbamoyl": 5474,
      "dedifferentiation": 5475,
      "euchromatin": 5476,
      "floppase": 5477,
      "jkappa": 5478,
      "kallikrein": 5479,
      "luciferin": 5480,
      "messenger": 5481,
      "penetration": 5482,
      "srebp": 5483,
      "tungst": 5484,
      "##pathetic": 5485,
      "##mitole": 5486,
      "##orubicin": 5487,
      "glcnac": 5488,
      "diaphragm": 5489,
      "invagination": 5490,
      "courtship": 5491,
      "##glcnac2": 5492,
      "secoisolariciresinol": 5493,
      "triacetylfusarinine": 5494,
      "scramb": 5495,
      "methanophenazine": 5496,
      "aminocyclopropane": 5497,
      "28": 5498,
      "3s": 5499,
      "32": 5500,
      "3alpha": 5501,
      "4s": 5502,
      "7alpha": 5503,
      "afl": 5504,
      "b1": 5505,
      "bi": 5506,
      "barb": 5507,
      "brow": 5508,
      "biphenyl": 5509,
      "bitter": 5510,
      "clo": 5511,
      "cen": 5512,
      "cav": 5513,
      "cotrans": 5514,
      "dat": 5515,
      "et": 5516,
      "fus": 5517,
      "fir": 5518,
      "folate": 5519,
      "gyr": 5520,
      "glob": 5521,
      "ho": 5522,
      "hype": 5523,
      "ire": 5524,
      "lag": 5525,
      "lob": 5526,
      "memb": 5527,
      "ns": 5528,
      "n7": 5529,
      "nod": 5530,
      "nh2": 5531,
      "nedd": 5532,
      "otic": 5533,
      "over": 5534,
      "otol": 5535,
      "po": 5536,
      "pell": 5537,
      "plas": 5538,
      "pof": 5539,
      "r2": 5540,
      "round": 5541,
      "sul": 5542,
      "tran": 5543,
      "ul": 5544,
      "vul": 5545,
      "we": 5546,
      "xv": 5547,
      "##rad": 5548,
      "##cury": 5549,
      "##uor": 5550,
      "##uate": 5551,
      "##ulogenesis": 5552,
      "##ote": 5553,
      "##over": 5554,
      "##oactive": 5555,
      "##nf": 5556,
      "##sph": 5557,
      "##pair": 5558,
      "##vt": 5559,
      "##ving": 5560,
      "##b2": 5561,
      "##80": 5562,
      "##'-": 5563,
      "##rog": 5564,
      "##rox": 5565,
      "##icon": 5566,
      "##esol": 5567,
      "##atri": 5568,
      "##atetra": 5569,
      "##ulatory": 5570,
      "##arabin": 5571,
      "##enoxy": 5572,
      "##ecation": 5573,
      "##ecyst": 5574,
      "##eception": 5575,
      "##anothione": 5576,
      "##selen": 5577,
      "##onoid": 5578,
      "##elay": 5579,
      "##oreception": 5580,
      "molecules": 5581,
      "##osp": 5582,
      "##enting": 5583,
      "##phagy": 5584,
      "prob": 5585,
      "##about": 5586,
      "dephospho": 5587,
      "##ynaphth": 5588,
      "##feruloyl": 5589,
      "##igmat": 5590,
      "##uconate": 5591,
      "##amen": 5592,
      "##otomous": 5593,
      "compensation": 5594,
      "##naphth": 5595,
      "##osphing": 5596,
      "##acrene": 5597,
      "change": 5598,
      "##ycopene": 5599,
      "dif": 5600,
      "##odine": 5601,
      "phosphos": 5602,
      "##lopeptidase": 5603,
      "enoate": 5604,
      "methionyl": 5605,
      "orcinol": 5606,
      "orsel": 5607,
      "##minogen": 5608,
      "endochond": 5609,
      "endospore": 5610,
      "##uctance": 5611,
      "##chitobiose": 5612,
      "##chlorophyll": 5613,
      "##emia": 5614,
      "add": 5615,
      "##oxane": 5616,
      "##oxime": 5617,
      "exocyst": 5618,
      "##imide": 5619,
      "##aprenol": 5620,
      "acetoin": 5621,
      "acetamid": 5622,
      "cytolysis": 5623,
      "##istic": 5624,
      "alpha5": 5625,
      "##anning": 5626,
      "##rospor": 5627,
      "##othiophene": 5628,
      "##ulfan": 5629,
      "apc": 5630,
      "monod": 5631,
      "epigen": 5632,
      "epoxygenase": 5633,
      "glycolate": 5634,
      "ionotropic": 5635,
      "arg": 5636,
      "hydroxyalkanoate": 5637,
      "antis": 5638,
      "antip": 5639,
      "aminoacyl": 5640,
      "atf": 5641,
      "atrophy": 5642,
      "sulfonate": 5643,
      "methylcyt": 5644,
      "mesend": 5645,
      "trk": 5646,
      "tridec": 5647,
      "ribbon": 5648,
      "leafl": 5649,
      "isg": 5650,
      "##aneous": 5651,
      "dismutase": 5652,
      "##ophysis": 5653,
      "##obil": 5654,
      "##mercury": 5655,
      "hydroxyd": 5656,
      "androst": 5657,
      "chromoplast": 5658,
      "galactoside": 5659,
      "seb": 5660,
      "sever": 5661,
      "malonate": 5662,
      "##rimidin": 5663,
      "common": 5664,
      "inherit": 5665,
      "##ogamy": 5666,
      "decreased": 5667,
      "presenting": 5668,
      "##ulokinase": 5669,
      "phosphorelay": 5670,
      "polyubiquitination": 5671,
      "abi": 5672,
      "rhabd": 5673,
      "##odeoxyc": 5674,
      "genetic": 5675,
      "glandular": 5676,
      "hypoth": 5677,
      "vasculogenesis": 5678,
      "desmosome": 5679,
      "quinol": 5680,
      "quinate": 5681,
      "quality": 5682,
      "lactosylceramide": 5683,
      "phosphogluc": 5684,
      "phosphoethanolamine": 5685,
      "##rogenesis": 5686,
      "bacteria": 5687,
      "homo": 5688,
      "homod": 5689,
      "spermatid": 5690,
      "cholang": 5691,
      "cholecyst": 5692,
      "basid": 5693,
      "priming": 5694,
      "glucuronyl": 5695,
      "glucuronoxylan": 5696,
      "##ianamine": 5697,
      "defecation": 5698,
      "##ystment": 5699,
      "##strept": 5700,
      "propionyl": 5701,
      "circular": 5702,
      "pentadecane": 5703,
      "butanol": 5704,
      "aldose": 5705,
      "fructan": 5706,
      "##hexa": 5707,
      "arabinitol": 5708,
      "radical": 5709,
      "rad51": 5710,
      "cyanide": 5711,
      "melibiose": 5712,
      "transferrin": 5713,
      "octaprenyl": 5714,
      "octulos": 5715,
      "environ": 5716,
      "cresol": 5717,
      "palmitole": 5718,
      "angioblast": 5719,
      "erythro": 5720,
      "##pyrene": 5721,
      "neuromedin": 5722,
      "metallopeptidase": 5723,
      "deglut": 5724,
      "degrad": 5725,
      "sphinganine": 5726,
      "h3k27": 5727,
      "pancreas": 5728,
      "endocannabinoid": 5729,
      "'''-": 5730,
      "heptadecane": 5731,
      "##alkyl": 5732,
      "nicotine": 5733,
      "methylthiopropyl": 5734,
      "grb2": 5735,
      "vasoactive": 5736,
      "selenium": 5737,
      "digluc": 5738,
      "tetrahydrofolate": 5739,
      "sepal": 5740,
      "corticosterone": 5741,
      "corticosteroid": 5742,
      "conductance": 5743,
      "dichotomous": 5744,
      "ovulation": 5745,
      "##filament": 5746,
      "telophase": 5747,
      "hyphal": 5748,
      "sarcinapterin": 5749,
      "ternary": 5750,
      "osmosensory": 5751,
      "heparin": 5752,
      "formyltetrahydrofolate": 5753,
      "polyprenyl": 5754,
      "alkaline": 5755,
      "ergosterol": 5756,
      "##ofuranose": 5757,
      "nitroimidazole": 5758,
      "erbb3": 5759,
      "encystment": 5760,
      "ferrichrome": 5761,
      "hindgut": 5762,
      "pinene": 5763,
      "tfi": 5764,
      "locomotory": 5765,
      "arsenic": 5766,
      "arsenate": 5767,
      "23s": 5768,
      "intercellular": 5769,
      "digestion": 5770,
      "##ocystin": 5771,
      "##ogalactan": 5772,
      "acetylgalactosaminyl": 5773,
      "progression": 5774,
      "lipoamide": 5775,
      "isoquinoline": 5776,
      "step": 5777,
      "stev": 5778,
      "isopropylmalate": 5779,
      "zygote": 5780,
      "stromal": 5781,
      "mispair": 5782,
      "##lorinase": 5783,
      "##lorescence": 5784,
      "bladder": 5785,
      "##iophore": 5786,
      "sulfoquinov": 5787,
      "endosulfan": 5788,
      "cyclopent": 5789,
      "invasion": 5790,
      "pharynx": 5791,
      "amphid": 5792,
      "bacteriochlorophyll": 5793,
      "chorionic": 5794,
      "mercapt": 5795,
      "mercury": 5796,
      "##oglucosinolate": 5797,
      "inflorescence": 5798,
      "vestibular": 5799,
      "nonadeca": 5800,
      "sieve": 5801,
      "##anilide": 5802,
      "diacetylchitobiose": 5803,
      "conidiophore": 5804,
      "trypanothione": 5805,
      "##aringenin": 5806,
      "magnetoreception": 5807,
      "##phenanthrene": 5808,
      "initi": 5809,
      "antennal": 5810,
      "##glycerophosphocholine": 5811,
      "upon": 5812,
      "##hydroximate": 5813,
      "medulla": 5814,
      "encapsulation": 5815,
      "##aspartate": 5816,
      "odontogenesis": 5817,
      "dentin": 5818,
      "nurse": 5819,
      "source": 5820,
      "tatiopterin": 5821,
      "##oumarin": 5822,
      "deaminating": 5823,
      "phosphopant": 5824,
      "methylmalonyl": 5825,
      "fragmentation": 5826,
      "octadecene": 5827,
      "papilla": 5828,
      "zymogen": 5829,
      "imidazol": 5830,
      "myocardium": 5831,
      "phosphofructokinase": 5832,
      "visceral": 5833,
      "ephrin": 5834,
      "netrin": 5835,
      "aconitate": 5836,
      "pruning": 5837,
      "primordium": 5838,
      "alkanesulfonate": 5839,
      "distribution": 5840,
      "multiple": 5841,
      "necroptotic": 5842,
      "mannosylglycoprotein": 5843,
      "aflatoxin": 5844,
      "brown": 5845,
      "cenp": 5846,
      "datp": 5847,
      "ire1": 5848,
      "lagging": 5849,
      "member": 5850,
      "otolith": 5851,
      "plasminogen": 5852,
      "roundabout": 5853,
      "vulval": 5854,
      "##sphing": 5855,
      "##ynaphthalene": 5856,
      "##igmatocystin": 5857,
      "orsellin": 5858,
      "endochondral": 5859,
      "epigenetic": 5860,
      "tridecane": 5861,
      "leaflet": 5862,
      "severing": 5863,
      "inheritance": 5864,
      "rhabdomere": 5865,
      "cholangiocyte": 5866,
      "cholecystokinin": 5867,
      "environment": 5868,
      "1b": 5869,
      "5beta": 5870,
      "aero": 5871,
      "b2": 5872,
      "bac": 5873,
      "bicellular": 5874,
      "cib": 5875,
      "cannabinoid": 5876,
      "den": 5877,
      "dos": 5878,
      "deth": 5879,
      "el": 5880,
      "e2": 5881,
      "e3": 5882,
      "ehr": 5883,
      "foc": 5884,
      "gi": 5885,
      "grain": 5886,
      "gemin": 5887,
      "hop": 5888,
      "herm": 5889,
      "ip": 5890,
      "lytic": 5891,
      "liver": 5892,
      "lycopene": 5893,
      "mi": 5894,
      "n5": 5895,
      "nh": 5896,
      "nm": 5897,
      "nonse": 5898,
      "npl": 5899,
      "naringenin": 5900,
      "oh": 5901,
      "p3": 5902,
      "por": 5903,
      "pum": 5904,
      "pass": 5905,
      "pons": 5906,
      "que": 5907,
      "rab": 5908,
      "rig": 5909,
      "ras": 5910,
      "retr": 5911,
      "ryan": 5912,
      "sk": 5913,
      "soc": 5914,
      "sag": 5915,
      "urop": 5916,
      "ump": 5917,
      "vc": 5918,
      "##rc": 5919,
      "##cob": 5920,
      "##uosine": 5921,
      "##lf": 5922,
      "##lysine": 5923,
      "##ave": 5924,
      "##aut": 5925,
      "##ilo": 5926,
      "##ness": 5927,
      "##56": 5928,
      "##sil": 5929,
      "##some": 5930,
      "##sense": 5931,
      "##pr": 5932,
      "##pithelial": 5933,
      "##2p": 5934,
      "##ying": 5935,
      "##fural": 5936,
      "##kar": 5937,
      "##79": 5938,
      "##60": 5939,
      "##alin": 5940,
      "##alyl": 5941,
      "##alamic": 5942,
      "##ates": 5943,
      "##essory": 5944,
      "##ulline": 5945,
      "##ctor": 5946,
      "##inic": 5947,
      "##inene": 5948,
      "##arial": 5949,
      "##argin": 5950,
      "##ola": 5951,
      "##ites": 5952,
      "##anoc": 5953,
      "##sed": 5954,
      "##sepithelial": 5955,
      "##egn": 5956,
      "##egate": 5957,
      "##oresinol": 5958,
      "##osperm": 5959,
      "##ellum": 5960,
      "##omer": 5961,
      "##idiol": 5962,
      "##isomal": 5963,
      "##thetic": 5964,
      "transester": 5965,
      "transglut": 5966,
      "transpos": 5967,
      "##oting": 5968,
      "##otene": 5969,
      "##ocin": 5970,
      "##acin": 5971,
      "##indole": 5972,
      "chr": 5973,
      "chalc": 5974,
      "dib": 5975,
      "diamet": 5976,
      "##oded": 5977,
      "##actone": 5978,
      "##activation": 5979,
      "phosphoc": 5980,
      "##athym": 5981,
      "antral": 5982,
      "##opyruvate": 5983,
      "##utive": 5984,
      "##adp": 5985,
      "##adrenergic": 5986,
      "##illo": 5987,
      "align": 5988,
      "hydroquinone": 5989,
      "methylo": 5990,
      "orth": 5991,
      "spect": 5992,
      "spont": 5993,
      "glucomannan": 5994,
      "new": 5995,
      "formin": 5996,
      "nuclease": 5997,
      "stig": 5998,
      "start": 5999,
      "vii": 6000,
      "polyc": 6001,
      "adhes": 6002,
      "organom": 6003,
      "exp": 6004,
      "exocytic": 6005,
      "beta4": 6006,
      "##iform": 6007,
      "##endocrine": 6008,
      "dnaa": 6009,
      "morphine": 6010,
      "##imens": 6011,
      "dehydrop": 6012,
      "aceto": 6013,
      "thiazole": 6014,
      "##ondin": 6015,
      "aminomutase": 6016,
      "##quinol": 6017,
      "epib": 6018,
      "glycyl": 6019,
      "##rotic": 6020,
      "##rotate": 6021,
      "intronic": 6022,
      "hydroxybenz": 6023,
      "hydroxyglutarate": 6024,
      "hydroxyvalerate": 6025,
      "aminobenz": 6026,
      "##ired": 6027,
      "##irubin": 6028,
      "##iferyl": 6029,
      "methyladenosine": 6030,
      "monoubiquitination": 6031,
      "glutaminyl": 6032,
      "##ticular": 6033,
      "lipoate": 6034,
      "lipoxin": 6035,
      "corrin": 6036,
      "plasmid": 6037,
      "##rophin": 6038,
      "strept": 6039,
      "stream": 6040,
      "amn": 6041,
      "##ophyt": 6042,
      "##opherol": 6043,
      "##opharyn": 6044,
      "galactarate": 6045,
      "galactosamin": 6046,
      "galactomannan": 6047,
      "##arboxy": 6048,
      "##lonate": 6049,
      "##ascic": 6050,
      "indol": 6051,
      "chlor": 6052,
      "nitrile": 6053,
      "##uronide": 6054,
      "##lational": 6055,
      "deoxyuridine": 6056,
      "deoxyguanosine": 6057,
      "pyrrol": 6058,
      "dihydrol": 6059,
      "old": 6060,
      "##ressive": 6061,
      "##lich": 6062,
      "phosphorylceramide": 6063,
      "shunt": 6064,
      "units": 6065,
      "##oinositol": 6066,
      "lipidation": 6067,
      "##ffle": 6068,
      "##iolateral": 6069,
      "tubulation": 6070,
      "sno": 6071,
      "##ensed": 6072,
      "nonsense": 6073,
      "polarized": 6074,
      "hypot": 6075,
      "tyrosyl": 6076,
      "elongase": 6077,
      "ferrous": 6078,
      "ferulate": 6079,
      "##glutathione": 6080,
      "lactaldehyde": 6081,
      "##rogenate": 6082,
      "septation": 6083,
      "accessory": 6084,
      "collar": 6085,
      "esc": 6086,
      "cholinergic": 6087,
      "##aphrod": 6088,
      "##ectodermal": 6089,
      "prostatic": 6090,
      "phenylpyruvate": 6091,
      "phenylethylamine": 6092,
      "primitive": 6093,
      "foraging": 6094,
      "hexa": 6095,
      "hexaprenyl": 6096,
      "glucuronidase": 6097,
      "##ystal": 6098,
      "##stream": 6099,
      "agmatine": 6100,
      "osc": 6101,
      "oskar": 6102,
      "circulatory": 6103,
      "lariciresinol": 6104,
      "##okinesis": 6105,
      "cerebellum": 6106,
      "##achlo": 6107,
      "nephrocyte": 6108,
      "arabinan": 6109,
      "arabinogalactan": 6110,
      "dihydroxybenzoate": 6111,
      "cyanate": 6112,
      "phytyl": 6113,
      "kinesin": 6114,
      "crystal": 6115,
      "h2ak": 6116,
      "thymic": 6117,
      "thymidine": 6118,
      "erythromycin": 6119,
      "##iii": 6120,
      "promoting": 6121,
      "idonate": 6122,
      "cleaving": 6123,
      "extra": 6124,
      "extrathym": 6125,
      "acetylglucosaminidase": 6126,
      "brca": 6127,
      "'',": 6128,
      "##olecarboxylic": 6129,
      "##alkane": 6130,
      "nicotianamine": 6131,
      "silver": 6132,
      "semi": 6133,
      "cd47": 6134,
      "campest": 6135,
      "edg": 6136,
      "adenosylcob": 6137,
      "sinoat": 6138,
      "mucus": 6139,
      "##yrinth": 6140,
      "mechanosensory": 6141,
      "ectoderm": 6142,
      "ectoine": 6143,
      "condition": 6144,
      "condensed": 6145,
      "aggregate": 6146,
      "foreign": 6147,
      "dichloroph": 6148,
      "pyrophosphatase": 6149,
      "pyrophosphorylase": 6150,
      "##folding": 6151,
      "hydroxyprop": 6152,
      "hydroxymethylglutaryl": 6153,
      "xanthosine": 6154,
      "##omotor": 6155,
      "intram": 6156,
      "mannosylglycerate": 6157,
      "ureid": 6158,
      "halide": 6159,
      "trachea": 6160,
      "ergothione": 6161,
      "##iodicty": 6162,
      "erbb2": 6163,
      "encoded": 6164,
      "lamellar": 6165,
      "cadherin": 6166,
      "naphtho": 6167,
      "pinoresinol": 6168,
      "keratan": 6169,
      "intercal": 6170,
      "tetraphosphate": 6171,
      "sinapate": 6172,
      "sterigmatocystin": 6173,
      "acquired": 6174,
      "hydroxychol": 6175,
      "##ulosome": 6176,
      "tetracycline": 6177,
      "snornp": 6178,
      "ccr7": 6179,
      "podosome": 6180,
      "phosphatidic": 6181,
      "phosphatidate": 6182,
      "protocatech": 6183,
      "atrazine": 6184,
      "thrombosp": 6185,
      "thromboxane": 6186,
      "amyloplast": 6187,
      "drug": 6188,
      "labyrinth": 6189,
      "dsrna": 6190,
      "dsdna": 6191,
      "synaptonemal": 6192,
      "hyaluronan": 6193,
      "phosphoribosylamino": 6194,
      "tfiih": 6195,
      "vanad": 6196,
      "torc2": 6197,
      "blastoderm": 6198,
      "telencephalon": 6199,
      "trophectodermal": 6200,
      "desulfoglucosinolate": 6201,
      "didemethyl": 6202,
      "infection": 6203,
      "vestibulo": 6204,
      "tripeptide": 6205,
      "facial": 6206,
      "##aniline": 6207,
      "linoleate": 6208,
      "macropinocytosis": 6209,
      "protoporphyrinogen": 6210,
      "cephalosporin": 6211,
      "dnab": 6212,
      "noradrenergic": 6213,
      "ruffle": 6214,
      "uroth": 6215,
      "acinar": 6216,
      "acinus": 6217,
      "archae": 6218,
      "phenylpropionate": 6219,
      "allantoin": 6220,
      "borate": 6221,
      "dcmp": 6222,
      "pronucleus": 6223,
      "isoflavone": 6224,
      "fibrinogen": 6225,
      "dibenzothiophene": 6226,
      "tetrachloro": 6227,
      "aggressive": 6228,
      "tertiary": 6229,
      "glycosylphosphatidylinositolethanolamine": 6230,
      "lysophosphatidic": 6231,
      "equator": 6232,
      "tagat": 6233,
      "##oscis": 6234,
      "pentaphosphate": 6235,
      "dimethylallyltransferase": 6236,
      "hercynylcysteine": 6237,
      "lithium": 6238,
      "psii": 6239,
      "dext": 6240,
      "tocopherol": 6241,
      "competence": 6242,
      "dihydroc": 6243,
      "oxobutanoate": 6244,
      "supramolecular": 6245,
      "geraniol": 6246,
      "bronchus": 6247,
      "cocaine": 6248,
      "kainate": 6249,
      "mcm": 6250,
      "##ilbene": 6251,
      "perinuclear": 6252,
      "pericentric": 6253,
      "citramalate": 6254,
      "threonylcarbamoyladenosine": 6255,
      "cavitation": 6256,
      "cotranslational": 6257,
      "nodule": 6258,
      "transepithelial": 6259,
      "proboscis": 6260,
      "##naphthalene": 6261,
      "addition": 6262,
      "antisense": 6263,
      "antipodal": 6264,
      "methylcytosine": 6265,
      "isg15": 6266,
      "hypothalamus": 6267,
      "quinolinate": 6268,
      "dosage": 6269,
      "ehrlich": 6270,
      "focus": 6271,
      "hermaphrod": 6272,
      "nmda": 6273,
      "npl4": 6274,
      "portion": 6275,
      "retraction": 6276,
      "ryanodine": 6277,
      "uropod": 6278,
      "##autophagy": 6279,
      "transesterification": 6280,
      "transglutaminase": 6281,
      "chalcone": 6282,
      "diameter": 6283,
      "alignment": 6284,
      "spontaneous": 6285,
      "adhesive": 6286,
      "##imensional": 6287,
      "##opharyngeal": 6288,
      "extrathymic": 6289,
      "sinoatrial": 6290,
      "ergothioneine": 6291,
      "##iodictyol": 6292,
      "thrombospondin": 6293,
      "9beta": 6294,
      "a3": 6295,
      "aim": 6296,
      "ajug": 6297,
      "aust": 6298,
      "bu": 6299,
      "bub": 6300,
      "berg": 6301,
      "cc": 6302,
      "c1": 6303,
      "cer": 6304,
      "code": 6305,
      "cvt": 6306,
      "d2": 6307,
      "d4": 6308,
      "dut": 6309,
      "dior": 6310,
      "duplication": 6311,
      "dump": 6312,
      "dadp": 6313,
      "emod": 6314,
      "fact": 6315,
      "floc": 6316,
      "fts": 6317,
      "germin": 6318,
      "hla": 6319,
      "hsp": 6320,
      "itp": 6321,
      "ko": 6322,
      "kd": 6323,
      "kotanin": 6324,
      "ln": 6325,
      "lif": 6326,
      "lanth": 6327,
      "mda": 6328,
      "moss": 6329,
      "n4": 6330,
      "ob": 6331,
      "pect": 6332,
      "porin": 6333,
      "rp": 6334,
      "ran": 6335,
      "soph": 6336,
      "ts": 6337,
      "taxis": 6338,
      "tong": 6339,
      "u5": 6340,
      "v1": 6341,
      "vib": 6342,
      "wax": 6343,
      "##r1": 6344,
      "##rating": 6345,
      "##riol": 6346,
      "##culation": 6347,
      "##cyan": 6348,
      "##exin": 6349,
      "##gap": 6350,
      "##uation": 6351,
      "##urot": 6352,
      "##l3": 6353,
      "##less": 6354,
      "##lesion": 6355,
      "##aene": 6356,
      "##tocin": 6357,
      "##iand": 6358,
      "##iasm": 6359,
      "##irection": 6360,
      "##o2": 6361,
      "##oros": 6362,
      "##oarabin": 6363,
      "##ner": 6364,
      "##sh": 6365,
      "##sterol": 6366,
      "##pro": 6367,
      "##pel": 6368,
      "##ha": 6369,
      "##hyp": 6370,
      "##hronic": 6371,
      "##heme": 6372,
      "##hisc": 6373,
      "##volic": 6374,
      "##vative": 6375,
      "##23": 6376,
      "##yol": 6377,
      "##yrimidin": 6378,
      "##baf": 6379,
      "##back": 6380,
      "##biopterin": 6381,
      "##motic": 6382,
      "##miss": 6383,
      "##zo": 6384,
      "##zym": 6385,
      "##ful": 6386,
      "##felin": 6387,
      "##kotanin": 6388,
      "##90": 6389,
      "##iotin": 6390,
      "##ror": 6391,
      "##icell": 6392,
      "##icolin": 6393,
      "##esp": 6394,
      "##almit": 6395,
      "##ionylation": 6396,
      "##atching": 6397,
      "##rocatechol": 6398,
      "##loric": 6399,
      "##losion": 6400,
      "##lotri": 6401,
      "##uletin": 6402,
      "##ino": 6403,
      "##inity": 6404,
      "##aric": 6405,
      "##aracter": 6406,
      "##anase": 6407,
      "##anoylation": 6408,
      "##onis": 6409,
      "##ontin": 6410,
      "##eridine": 6411,
      "molting": 6412,
      "##oricin": 6413,
      "##osus": 6414,
      "##osart": 6415,
      "##osacchar": 6416,
      "##ellent": 6417,
      "##omethionine": 6418,
      "cellulosome": 6419,
      "##ylglycine": 6420,
      "##ida": 6421,
      "##ides": 6422,
      "inulin": 6423,
      "##ineole": 6424,
      "##thecin": 6425,
      "transald": 6426,
      "translesion": 6427,
      "deep": 6428,
      "dehisc": 6429,
      "##uch": 6430,
      "##ames": 6431,
      "##eptivity": 6432,
      "##asic": 6433,
      "##asterol": 6434,
      "##genic": 6435,
      "acetic": 6436,
      "##ocular": 6437,
      "##ociation": 6438,
      "##ocort": 6439,
      "gliot": 6440,
      "reser": 6441,
      "##aconyl": 6442,
      "##acyclic": 6443,
      "##acitation": 6444,
      "##acarot": 6445,
      "respons": 6446,
      "ch2": 6447,
      "chit": 6448,
      "chimeric": 6449,
      "chanoc": 6450,
      "character": 6451,
      "recru": 6452,
      "receptivity": 6453,
      "##uric": 6454,
      "##urition": 6455,
      "##acteroid": 6456,
      "phosphonate": 6457,
      "phosphoserine": 6458,
      "signalosome": 6459,
      "enzym": 6460,
      "anhyd": 6461,
      "##opontin": 6462,
      "##adykinin": 6463,
      "##onectin": 6464,
      "alb": 6465,
      "alan": 6466,
      "alumin": 6467,
      "pathogen": 6468,
      "##agillin": 6469,
      "hydrol": 6470,
      "##ront": 6471,
      "orexin": 6472,
      "spong": 6473,
      "sporocarp": 6474,
      "##ublet": 6475,
      "glucopyranosyl": 6476,
      "neosart": 6477,
      "formyltransferase": 6478,
      "formim": 6479,
      "nucleated": 6480,
      "nucleocyt": 6481,
      "stamen": 6482,
      "##fferent": 6483,
      "##oxanthin": 6484,
      "expos": 6485,
      "##epiand": 6486,
      "cellularization": 6487,
      "##imerization": 6488,
      "dehydroaust": 6489,
      "dehydroepiand": 6490,
      "thiaz": 6491,
      "##rosine": 6492,
      "##rosmotic": 6493,
      "##othiol": 6494,
      "##ricin": 6495,
      "##etheine": 6496,
      "apiose": 6497,
      "factors": 6498,
      "epoxy": 6499,
      "glycerate": 6500,
      "glycocal": 6501,
      "glycinergic": 6502,
      "glycerone": 6503,
      "##roturon": 6504,
      "##rotropin": 6505,
      "##enses": 6506,
      "cycl": 6507,
      "prolyl": 6508,
      "ions": 6509,
      "##yridone": 6510,
      "arug": 6511,
      "arp2": 6512,
      "hydroxymeth": 6513,
      "hydroxybenzoyl": 6514,
      "anti": 6515,
      "aminohydrolase": 6516,
      "aminoethyl": 6517,
      "aminobenzoate": 6518,
      "aminobenzoyl": 6519,
      "histidyl": 6520,
      "sulfation": 6521,
      "methylen": 6522,
      "methylene": 6523,
      "methylprop": 6524,
      "methylmethionine": 6525,
      "pren": 6526,
      "pregn": 6527,
      "glucosamin": 6528,
      "glucosylglycerol": 6529,
      "##optosome": 6530,
      "##aminoglycan": 6531,
      "glutar": 6532,
      "glutath": 6533,
      "acetylesterase": 6534,
      "acetylenic": 6535,
      "corn": 6536,
      "traf": 6537,
      "triox": 6538,
      "iia": 6539,
      "ribofuran": 6540,
      "ribosylation": 6541,
      "plasmatocyte": 6542,
      "##alactosyl": 6543,
      "callose": 6544,
      "lead": 6545,
      "##rophoblast": 6546,
      "ameb": 6547,
      "displ": 6548,
      "stimulation": 6549,
      "oxidized": 6550,
      "micros": 6551,
      "mictur": 6552,
      "##diment": 6553,
      "##diphosph": 6554,
      "##diphosphate": 6555,
      "stimulatory": 6556,
      "##glycan": 6557,
      "##obis": 6558,
      "##oidance": 6559,
      "##rinated": 6560,
      "glutamyltransferase": 6561,
      "glutaminase": 6562,
      "galactinol": 6563,
      "guard": 6564,
      "##igenin": 6565,
      "substit": 6566,
      "triazine": 6567,
      "triiron": 6568,
      "semin": 6569,
      "sector": 6570,
      "inductive": 6571,
      "commiss": 6572,
      "nitrophenol": 6573,
      "##oglos": 6574,
      "linol": 6575,
      "deoxyadenosine": 6576,
      "##udoro": 6577,
      "serinyl": 6578,
      "##illatory": 6579,
      "dihydroo": 6580,
      "flap": 6581,
      "bloc": 6582,
      "onc": 6583,
      "##glucoside": 6584,
      "abiotic": 6585,
      "abduc": 6586,
      "shel": 6587,
      "shell": 6588,
      "pyloric": 6589,
      "endothelium": 6590,
      "eriodictyol": 6591,
      "error": 6592,
      "##odextrin": 6593,
      "oxoadip": 6594,
      "sympathetic": 6595,
      "salinity": 6596,
      "oxytocin": 6597,
      "aspyridone": 6598,
      "hypoglos": 6599,
      "bearing": 6600,
      "chemotactic": 6601,
      "##anthranilate": 6602,
      "ethane": 6603,
      "hemicell": 6604,
      "parturition": 6605,
      "quin": 6606,
      "phosphoglyc": 6607,
      "homeostatic": 6608,
      "down": 6609,
      "doublet": 6610,
      "doudoro": 6611,
      "scyllo": 6612,
      "leukemia": 6613,
      "threonyl": 6614,
      "glucanase": 6615,
      "phenylacet": 6616,
      "primase": 6617,
      "forward": 6618,
      "hexokinase": 6619,
      "glucuronoside": 6620,
      "glucuronoarabin": 6621,
      "ciliated": 6622,
      "auton": 6623,
      "defenses": 6624,
      "helvolic": 6625,
      "oligo": 6626,
      "oligosacchar": 6627,
      "propane": 6628,
      "adpg": 6629,
      "butanediol": 6630,
      "cerebros": 6631,
      "##hromosomal": 6632,
      "vitel": 6633,
      "isoprop": 6634,
      "##hexaose": 6635,
      "arabinoxylan": 6636,
      "17a": 6637,
      "cycloisomerase": 6638,
      "dehydroch": 6639,
      "cutin": 6640,
      "paras": 6641,
      "plasto": 6642,
      "swi": 6643,
      "redox": 6644,
      "reducing": 6645,
      "phytol": 6646,
      "phytochrom": 6647,
      "cytokinetic": 6648,
      "neuroendocrine": 6649,
      "heterochronic": 6650,
      "crist": 6651,
      "##lock": 6652,
      "ascending": 6653,
      "palate": 6654,
      "malto": 6655,
      "damp": 6656,
      "xylem": 6657,
      "xylitol": 6658,
      "cordyol": 6659,
      "glycosaminoglycan": 6660,
      "phagolysosome": 6661,
      "endocrine": 6662,
      "endocrocin": 6663,
      "fluence": 6664,
      "melanocort": 6665,
      "bradykinin": 6666,
      "ecg": 6667,
      "eclosion": 6668,
      "fucosidase": 6669,
      "pseurot": 6670,
      "intestine": 6671,
      "methylthiotransferase": 6672,
      "methylthiobut": 6673,
      "flagellated": 6674,
      "phenazine": 6675,
      "constitutive": 6676,
      "cd40": 6677,
      "selenite": 6678,
      "palmitic": 6679,
      "ethylbenzene": 6680,
      "digalactosyl": 6681,
      "mechanoreceptor": 6682,
      "241": 6683,
      "thyrotropin": 6684,
      "thioesterase": 6685,
      "thiocyan": 6686,
      "##obutyr": 6687,
      "pyropt": 6688,
      "trichoblast": 6689,
      "##iobiotin": 6690,
      "##olone": 6691,
      "fumonis": 6692,
      "fumagillin": 6693,
      "##ocyanidin": 6694,
      "asparaginyl": 6695,
      "necrotic": 6696,
      "translocon": 6697,
      "entner": 6698,
      "icosatetra": 6699,
      "urease": 6700,
      "##olactonase": 6701,
      "halo": 6702,
      "muller": 6703,
      "aminobutyrate": 6704,
      "avoidance": 6705,
      "mycolate": 6706,
      "mycothiol": 6707,
      "zeacarot": 6708,
      "##vinyl": 6709,
      "osteopontin": 6710,
      "phytoene": 6711,
      "##rioception": 6712,
      "##opimar": 6713,
      "hydroxylating": 6714,
      "hydroxylysine": 6715,
      "naphthyl": 6716,
      "pinocytosis": 6717,
      "demethylkotanin": 6718,
      "sinapoyltransferase": 6719,
      "prosthetic": 6720,
      "hydroxycyclohex": 6721,
      "bicyclic": 6722,
      "anthocyanidin": 6723,
      "ops": 6724,
      "ccr4": 6725,
      "isopropylacet": 6726,
      "interactions": 6727,
      "thrombin": 6728,
      "hydroxyisoflav": 6729,
      "pericardium": 6730,
      "dgdp": 6731,
      "muts": 6732,
      "mutual": 6733,
      "thermogenesis": 6734,
      "mevalonic": 6735,
      "trimethyltransferase": 6736,
      "venosus": 6737,
      "##opyranose": 6738,
      "citrulline": 6739,
      "myristoyltransferase": 6740,
      "torc1": 6741,
      "##salicyl": 6742,
      "cyclopropyl": 6743,
      "foam": 6744,
      "versic": 6745,
      "##aglomerular": 6746,
      "emericellin": 6747,
      "gerfelin": 6748,
      "glycerophospholipid": 6749,
      "chemorepellent": 6750,
      "hydroxymand": 6751,
      "dihydrodiolphenanthrene": 6752,
      "cinnamic": 6753,
      "dctp": 6754,
      "gentiob": 6755,
      "siro": 6756,
      "diphosphokinase": 6757,
      "conidium": 6758,
      "nitrosative": 6759,
      "nitrosylation": 6760,
      "bilirubin": 6761,
      "karyosome": 6762,
      "rudiment": 6763,
      "##icotinate": 6764,
      "##ictyphenone": 6765,
      "adiponectin": 6766,
      "phenylpropanoid": 6767,
      "galanin": 6768,
      "ufd1": 6769,
      "inactivity": 6770,
      "inactivation": 6771,
      "thickening": 6772,
      "carboxylation": 6773,
      "isoflavonoid": 6774,
      "##erythritol": 6775,
      "##erythrobilin": 6776,
      "h4k20": 6777,
      "cumate": 6778,
      "cumulus": 6779,
      "##iotrophoblast": 6780,
      "##aldoxime": 6781,
      "phylloquinone": 6782,
      "asperfuranone": 6783,
      "asperthecin": 6784,
      "dissociation": 6785,
      "nitrilase": 6786,
      "nitrilotri": 6787,
      "generating": 6788,
      "feeding": 6789,
      "feedback": 6790,
      "9775a": 6791,
      "9775b": 6792,
      "analia": 6793,
      "leptin": 6794,
      "ripoptosome": 6795,
      "guanidin": 6796,
      "gravit": 6797,
      "turning": 6798,
      "white": 6799,
      "alveolus": 6800,
      "organophosphate": 6801,
      "cdc4": 6802,
      "tautomerase": 6803,
      "trinitrotoluene": 6804,
      "conservative": 6805,
      "zona": 6806,
      "enucleation": 6807,
      "pyramidal": 6808,
      "intraepithelial": 6809,
      "deoxycytidine": 6810,
      "phycoerythrobilin": 6811,
      "tungsten": 6812,
      "etioplast": 6813,
      "gyrus": 6814,
      "hook": 6815,
      "hyperosmotic": 6816,
      "weight": 6817,
      "##osphingolipid": 6818,
      "##istics": 6819,
      "monodictyphenone": 6820,
      "degradation": 6821,
      "diglucoside": 6822,
      "steviol": 6823,
      "sulfoquinovose": 6824,
      "initiating": 6825,
      "orsellinic": 6826,
      "cibarial": 6827,
      "dethiobiotin": 6828,
      "nonself": 6829,
      "queuosine": 6830,
      "saga": 6831,
      "vcp": 6832,
      "##arginine": 6833,
      "chrys": 6834,
      "dehydropant": 6835,
      "epiboly": 6836,
      "streptomycin": 6837,
      "##asciculation": 6838,
      "dihydrolip": 6839,
      "oscillatory": 6840,
      "adenosylcobinamide": 6841,
      "protocatechuate": 6842,
      "labyrinthine": 6843,
      "urothelial": 6844,
      "equatorial": 6845,
      "tagatose": 6846,
      "aim2": 6847,
      "ajugose": 6848,
      "austinol": 6849,
      "dutp": 6850,
      "diorcinol": 6851,
      "emodin": 6852,
      "flocculation": 6853,
      "germinal": 6854,
      "koj": 6855,
      "lncrna": 6856,
      "lanthionine": 6857,
      "mossy": 6858,
      "tongue": 6859,
      "##riolar": 6860,
      "##irectional": 6861,
      "transaldolase": 6862,
      "dehiscence": 6863,
      "gliotoxin": 6864,
      "responsive": 6865,
      "chanoclavine": 6866,
      "characteristics": 6867,
      "aluminum": 6868,
      "neosartoricin": 6869,
      "formimid": 6870,
      "nucleocytoplasmic": 6871,
      "exposure": 6872,
      "dehydroaustinol": 6873,
      "dehydroepiandrosterone": 6874,
      "glycocalyx": 6875,
      "arugosin": 6876,
      "hydroxymethyltransferase": 6877,
      "aminoethylphosphonate": 6878,
      "ribofuranosyl": 6879,
      "ameboidal": 6880,
      "displacement": 6881,
      "micturition": 6882,
      "abducens": 6883,
      "hypoglossal": 6884,
      "hemicellulose": 6885,
      "doudoroff": 6886,
      "glucuronoarabinoxylan": 6887,
      "dehydrochlorinase": 6888,
      "phytochromobilin": 6889,
      "melanocortin": 6890,
      "pseurotin": 6891,
      "digalactosyldiacylglycerol": 6892,
      "thiocyanate": 6893,
      "fumonisin": 6894,
      "mullerian": 6895,
      "zeacarotene": 6896,
      "nitrilotriacetate": 6897,
      "+]": 6898,
      "+,": 6899,
      "2h": 6900,
      "2b": 6901,
      "2fe": 6902,
      "30": 6903,
      "4f": 6904,
      "4fe": 6905,
      "4beta": 6906,
      "6c": 6907,
      "9r": 6908,
      "9alpha": 6909,
      "arogenate": 6910,
      "bh": 6911,
      "bro": 6912,
      "cit": 6913,
      "cand": 6914,
      "croton": 6915,
      "cochlear": 6916,
      "da": 6917,
      "dened": 6918,
      "dpp": 6919,
      "diterpene": 6920,
      "eu": 6921,
      "eis": 6922,
      "emin": 6923,
      "ejection": 6924,
      "fu": 6925,
      "fol": 6926,
      "four": 6927,
      "gc": 6928,
      "ge": 6929,
      "ga": 6930,
      "gase": 6931,
      "gob": 6932,
      "gast": 6933,
      "glos": 6934,
      "gamet": 6935,
      "hm": 6936,
      "hul": 6937,
      "hot": 6938,
      "hip": 6939,
      "hatching": 6940,
      "iq": 6941,
      "irid": 6942,
      "jas": 6943,
      "kn": 6944,
      "kch": 6945,
      "k11": 6946,
      "ls": 6947,
      "lrp": 6948,
      "mero": 6949,
      "mob": 6950,
      "max": 6951,
      "mure": 6952,
      "nig": 6953,
      "nop": 6954,
      "natri": 6955,
      "oogenesis": 6956,
      "oog": 6957,
      "pk": 6958,
      "ped": 6959,
      "psi": 6960,
      "pallium": 6961,
      "rn": 6962,
      "rs": 6963,
      "r3": 6964,
      "ray": 6965,
      "rub": 6966,
      "ridge": 6967,
      "sos": 6968,
      "sid": 6969,
      "squ": 6970,
      "skin": 6971,
      "srp": 6972,
      "soy": 6973,
      "tg": 6974,
      "tet": 6975,
      "tell": 6976,
      "tonic": 6977,
      "tors": 6978,
      "tmp": 6979,
      "ttp": 6980,
      "troch": 6981,
      "tnf": 6982,
      "u1": 6983,
      "util": 6984,
      "ve": 6985,
      "vinyl": 6986,
      "xl": 6987,
      "xmp": 6988,
      "##razine": 6989,
      "##cation": 6990,
      "##cochlear": 6991,
      "##1a": 6992,
      "##eol": 6993,
      "##grow": 6994,
      "##uf": 6995,
      "##uiting": 6996,
      "##l1": 6997,
      "##li": 6998,
      "##lim": 6999,
      "##type": 7000,
      "##typic": 7001,
      "##tactic": 7002,
      "##oul": 7003,
      "##ove": 7004,
      "##oag": 7005,
      "##nk": 7006,
      "##s1": 7007,
      "##sk": 7008,
      "##succinate": 7009,
      "##sopharyngeal": 7010,
      "##p1": 7011,
      "##pu": 7012,
      "##hif": 7013,
      "##ven": 7014,
      "##vulin": 7015,
      "##vast": 7016,
      "##vanc": 7017,
      "##dle": 7018,
      "##xic": 7019,
      "##xate": 7020,
      "##b1": 7021,
      "##ba": 7022,
      "##bf": 7023,
      "##bran": 7024,
      "##basc": 7025,
      "##m2": 7026,
      "##man": 7027,
      "##mel": 7028,
      "##map": 7029,
      "##fbeta": 7030,
      "##3a": 7031,
      "##35": 7032,
      "##k5": 7033,
      "##9glcnac2": 7034,
      "##ioate": 7035,
      "##round": 7036,
      "##iccation": 7037,
      "##aline": 7038,
      "##atrazine": 7039,
      "##rocyclohexane": 7040,
      "##loride": 7041,
      "##ullin": 7042,
      "biomin": 7043,
      "##inoth": 7044,
      "##inosine": 7045,
      "##aran": 7046,
      "##arib": 7047,
      "##ariation": 7048,
      "##olyase": 7049,
      "##itud": 7050,
      "##iviral": 7051,
      "##enodeoxyc": 7052,
      "##ans": 7053,
      "##egul": 7054,
      "##egulin": 7055,
      "##onio": 7056,
      "##onite": 7057,
      "##onazole": 7058,
      "##onokinase": 7059,
      "##onolactone": 7060,
      "##ern": 7061,
      "##ers": 7062,
      "##unsaturated": 7063,
      "##elatase": 7064,
      "##ored": 7065,
      "##orismate": 7066,
      "##etum": 7067,
      "regression": 7068,
      "##elline": 7069,
      "##omic": 7070,
      "##omeric": 7071,
      "##ention": 7072,
      "##ylselen": 7073,
      "##ylhydroximate": 7074,
      "##phor": 7075,
      "##phopodium": 7076,
      "transit": 7077,
      "##ted": 7078,
      "proth": 7079,
      "##edullin": 7080,
      "dextrin": 7081,
      "deadenyl": 7082,
      "debran": 7083,
      "##ference": 7084,
      "##ferring": 7085,
      "##olichol": 7086,
      "##ucible": 7087,
      "##ucrase": 7088,
      "##ucida": 7089,
      "##amel": 7090,
      "##amylation": 7091,
      "##amylase": 7092,
      "##americ": 7093,
      "##amotene": 7094,
      "##asin": 7095,
      "##asap": 7096,
      "##asterone": 7097,
      "##terin": 7098,
      "##genol": 7099,
      "##gence": 7100,
      "touch": 7101,
      "##otre": 7102,
      "##otrophin": 7103,
      "achrom": 7104,
      "phorb": 7105,
      "phragm": 7106,
      "resor": 7107,
      "##acrine": 7108,
      "##acryl": 7109,
      "##indoline": 7110,
      "##ideoxy": 7111,
      "chelate": 7112,
      "##embrin": 7113,
      "##umoylation": 7114,
      "diff": 7115,
      "diiron": 7116,
      "diphth": 7117,
      "##odin": 7118,
      "##odomain": 7119,
      "##odoxin": 7120,
      "##odolichol": 7121,
      "##uretic": 7122,
      "##urcumin": 7123,
      "##actant": 7124,
      "phosphoprotein": 7125,
      "enh": 7126,
      "enamel": 7127,
      "involving": 7128,
      "ank": 7129,
      "##izer": 7130,
      "##izont": 7131,
      "##lasia": 7132,
      "astax": 7133,
      "altr": 7134,
      "algin": 7135,
      "aliph": 7136,
      "methenyl": 7137,
      "methotre": 7138,
      "##ronine": 7139,
      "oral": 7140,
      "##ibular": 7141,
      "spo": 7142,
      "spanning": 7143,
      "##yma": 7144,
      "acidic": 7145,
      "endom": 7146,
      "endop": 7147,
      "glucokinase": 7148,
      "formylation": 7149,
      "formamide": 7150,
      "sting": 7151,
      "styr": 7152,
      "##emature": 7153,
      "advanc": 7154,
      "organos": 7155,
      "organonit": 7156,
      "organizer": 7157,
      "##oxorubicin": 7158,
      "carpel": 7159,
      "oxime": 7160,
      "extrac": 7161,
      "conver": 7162,
      "##epine": 7163,
      "##orphin": 7164,
      "dnac": 7165,
      "mitogen": 7166,
      "##imidaz": 7167,
      "##ostasis": 7168,
      "acetolactate": 7169,
      "thor": 7170,
      "##istoth": 7171,
      "alpha1": 7172,
      "alpha2": 7173,
      "alpha7": 7174,
      "##uscept": 7175,
      "##uscule": 7176,
      "##rosin": 7177,
      "groove": 7178,
      "##ethanol": 7179,
      "##ethiol": 7180,
      "aminole": 7181,
      "aminopeptidase": 7182,
      "aminoprop": 7183,
      "##querc": 7184,
      "apurin": 7185,
      "apyrimidin": 7186,
      "glycol": 7187,
      "glycation": 7188,
      "glycosphingolipid": 7189,
      "##yrrh": 7190,
      "rnai": 7191,
      "intact": 7192,
      "arist": 7193,
      "articular": 7194,
      "hydroxyacid": 7195,
      "antiviral": 7196,
      ")-(": 7197,
      "##aryocyte": 7198,
      "aminohexanoate": 7199,
      "##iradiene": 7200,
      "sulfhyd": 7201,
      "methylmercury": 7202,
      "prep": 7203,
      "premature": 7204,
      "proliferator": 7205,
      "##ropism": 7206,
      "##ropoi": 7207,
      "triose": 7208,
      "trideoxy": 7209,
      "##ammonium": 7210,
      "##andamide": 7211,
      "##methane": 7212,
      "apoptosome": 7213,
      "##onucleotide": 7214,
      "amidin": 7215,
      "ampl": 7216,
      "calcidiol": 7217,
      "oxidopamine": 7218,
      "micron": 7219,
      "microb": 7220,
      "##ophenone": 7221,
      "axo": 7222,
      "axoneme": 7223,
      "polymeric": 7224,
      "##akaryocyte": 7225,
      "mode": 7226,
      "smn": 7227,
      "lysyl": 7228,
      "importing": 7229,
      "persulf": 7230,
      "chromate": 7231,
      "chromaffin": 7232,
      "galactan": 7233,
      "galactolipid": 7234,
      "galactosamine": 7235,
      "galactogluc": 7236,
      "subtype": 7237,
      "##neopterin": 7238,
      "##lonitrile": 7239,
      "seven": 7240,
      "inducible": 7241,
      "chlorate": 7242,
      "chlorobenzoate": 7243,
      "chlorinated": 7244,
      "comma": 7245,
      "nitrotoluene": 7246,
      "nitrobenzene": 7247,
      "mannosamine": 7248,
      "neurons": 7249,
      "estrone": 7250,
      "##onicot": 7251,
      "deoxystrept": 7252,
      "deoxyinosine": 7253,
      "decroton": 7254,
      "##ulomotor": 7255,
      "retention": 7256,
      "dihydrofolate": 7257,
      "dihydroneopterin": 7258,
      "##lice": 7259,
      "clype": 7260,
      "acylating": 7261,
      "acylhydrolase": 7262,
      "polyol": 7263,
      "abaxial": 7264,
      "tetrakis": 7265,
      "reticular": 7266,
      "motive": 7267,
      "shc": 7268,
      "shaft": 7269,
      "pyran": 7270,
      "##ergid": 7271,
      "unc": 7272,
      "reticuline": 7273,
      "##longata": 7274,
      "##ultative": 7275,
      "synergid": 7276,
      "##enchyma": 7277,
      "purinergic": 7278,
      "erc": 7279,
      "erk1": 7280,
      "erk2": 7281,
      "specificity": 7282,
      "##antin": 7283,
      "oxoacyl": 7284,
      "oxohept": 7285,
      "##ribosomal": 7286,
      "cd9": 7287,
      "cdk1": 7288,
      "cd15": 7289,
      "cdk2": 7290,
      "capillary": 7291,
      "capacitation": 7292,
      "phototrans": 7293,
      "##holate": 7294,
      "macrol": 7295,
      "adenosyltransferase": 7296,
      "sn2": 7297,
      "nonribosomal": 7298,
      "polarisome": 7299,
      "generate": 7300,
      "h3r2": 7301,
      "hypoch": 7302,
      "refolding": 7303,
      "##anthocyanidin": 7304,
      "cleistoth": 7305,
      "desuccin": 7306,
      "desiccation": 7307,
      "hemi": 7308,
      "hemostasis": 7309,
      "quater": 7310,
      "frames": 7311,
      "fruiting": 7312,
      "lactation": 7313,
      "phosphoadenosine": 7314,
      "phosphoadenyl": 7315,
      "phosphogluconate": 7316,
      "##ylox": 7317,
      "homotypic": 7318,
      "homotetr": 7319,
      "caax": 7320,
      "domains": 7321,
      "peroxisomal": 7322,
      "scar": 7323,
      "scission": 7324,
      "scler": 7325,
      "extracellularly": 7326,
      "septate": 7327,
      "acclim": 7328,
      "prostanoid": 7329,
      "phenylacetyl": 7330,
      "hexachlo": 7331,
      "soma": 7332,
      "alkene": 7333,
      "alkenyl": 7334,
      "camalexin": 7335,
      "##ichoblast": 7336,
      "benzoyltransferase": 7337,
      "propyl": 7338,
      "##acylglycerol": 7339,
      "##oglycolate": 7340,
      "##oglycerate": 7341,
      "##ances": 7342,
      "butan": 7343,
      "lymphotoxin": 7344,
      "ureth": 7345,
      "alditol": 7346,
      "fructosyltransferase": 7347,
      "carbonyl": 7348,
      "germacrene": 7349,
      "dihydroxypyridine": 7350,
      "rad6": 7351,
      "cycloalkane": 7352,
      "longitud": 7353,
      "delta1": 7354,
      "paran": 7355,
      "parkin": 7356,
      "lowering": 7357,
      "##enomedullin": 7358,
      "neurofibril": 7359,
      "rhamnoside": 7360,
      "molybdate": 7361,
      "##locity": 7362,
      "maltopent": 7363,
      "maltotetr": 7364,
      "maltodextrin": 7365,
      "flavone": 7366,
      "flavoprotein": 7367,
      "flavanone": 7368,
      "carboxykinase": 7369,
      "erythropoi": 7370,
      "##phosphorib": 7371,
      "bisphenol": 7372,
      "##renyltransferase": 7373,
      "attack": 7374,
      "h3k56": 7375,
      "phagophore": 7376,
      "microfibril": 7377,
      "serotonergic": 7378,
      "fluoro": 7379,
      "melanization": 7380,
      "middle": 7381,
      "##uranon": 7382,
      "polysome": 7383,
      "heptakisphosphate": 7384,
      "##lowing": 7385,
      "nicotinic": 7386,
      "##ethylc": 7387,
      "methylthiopent": 7388,
      "gradi": 7389,
      "silent": 7390,
      "vasomotor": 7391,
      "palmitate": 7392,
      "adenosylhom": 7393,
      "catalase": 7394,
      "mechanosens": 7395,
      "ectodomain": 7396,
      "##enicol": 7397,
      "direction": 7398,
      "transcriptase": 7399,
      "omm": 7400,
      "substances": 7401,
      "lamina": 7402,
      "ductus": 7403,
      "##olorin": 7404,
      "fumig": 7405,
      "hypha": 7406,
      "hyphopodium": 7407,
      "##ocyanobilin": 7408,
      "hydroxyprog": 7409,
      "eggsh": 7410,
      "concentrating": 7411,
      "xanthone": 7412,
      "xanthophore": 7413,
      "xanthophyll": 7414,
      "translocase": 7415,
      "entity": 7416,
      "hydroxyphenylpyruvate": 7417,
      "##adienol": 7418,
      "ganglionic": 7419,
      "methanethiol": 7420,
      "looping": 7421,
      "ergot": 7422,
      "hypersensitive": 7423,
      "outgrow": 7424,
      "opening": 7425,
      "repeats": 7426,
      "mycotoxin": 7427,
      "ferricrocin": 7428,
      "heterotri": 7429,
      "heterotypic": 7430,
      "dttp": 7431,
      "galactosylceramide": 7432,
      "hydroxylamine": 7433,
      "ubiquinol": 7434,
      "cisternal": 7435,
      "farnesyltransferase": 7436,
      "sarcomere": 7437,
      "cadinene": 7438,
      "naphthoate": 7439,
      "nfat": 7440,
      "demethylubiqu": 7441,
      "coumarate": 7442,
      "excitation": 7443,
      "solute": 7444,
      "##100": 7445,
      "isoamylase": 7446,
      "##galactosylgluc": 7447,
      "##yclohexa": 7448,
      "creatin": 7449,
      "dicarboxylic": 7450,
      "product": 7451,
      "produced": 7452,
      "dipeptidase": 7453,
      "cycloheximide": 7454,
      "atrichoblast": 7455,
      "nua": 7456,
      "zygotic": 7457,
      "##laurine": 7458,
      "##toluene": 7459,
      "##sinogen": 7460,
      "lysozyme": 7461,
      "controlling": 7462,
      "dgmp": 7463,
      "mutl": 7464,
      "##oligomerization": 7465,
      "thermosperm": 7466,
      "arms": 7467,
      "hyaluranon": 7468,
      "tfiiic": 7469,
      "tfiiib": 7470,
      "oculomotor": 7471,
      "tapetum": 7472,
      "vanill": 7473,
      "vanillin": 7474,
      "symmetry": 7475,
      "microglia": 7476,
      "rhythmic": 7477,
      "myristoyl": 7478,
      "myristoylation": 7479,
      "tangle": 7480,
      "blastocyst": 7481,
      "curli": 7482,
      "verbasc": 7483,
      "phycocyanobilin": 7484,
      "monomethyl": 7485,
      "##rides": 7486,
      "atg1": 7487,
      "atg12": 7488,
      "kininogen": 7489,
      "stereocilia": 7490,
      "dideoxy": 7491,
      "p460": 7492,
      "troponin": 7493,
      "##uitary": 7494,
      "metabolism": 7495,
      "##rostaglandin": 7496,
      "arbuscule": 7497,
      "glutamato": 7498,
      "dihydroxyc": 7499,
      "phosphorylating": 7500,
      "cholesta": 7501,
      "cinnamate": 7502,
      "facultative": 7503,
      "p21": 7504,
      "pupal": 7505,
      "aminocarboxy": 7506,
      "trypsinogen": 7507,
      "linoleic": 7508,
      "karyogamy": 7509,
      "##roptosis": 7510,
      "##icotine": 7511,
      "positioning": 7512,
      "dcdp": 7513,
      "horizont": 7514,
      "pronuclear": 7515,
      "antenna": 7516,
      "fibrinolysis": 7517,
      "pipec": 7518,
      "u4atac": 7519,
      "phyllotactic": 7520,
      "propionyltransferase": 7521,
      "sinapoylglucose": 7522,
      "megakaryocyte": 7523,
      "##obenzothiazole": 7524,
      "pyruvic": 7525,
      "caveolin": 7526,
      "caveola": 7527,
      "gravity": 7528,
      "cpg": 7529,
      "empt": 7530,
      "adrenal": 7531,
      "adrenomedullin": 7532,
      "prenylcysteine": 7533,
      "plasmodesmat": 7534,
      "plasmodesma": 7535,
      "swimming": 7536,
      "hyperpolarization": 7537,
      "hyperplasia": 7538,
      "bleb": 7539,
      "ddt": 7540,
      "muramyl": 7541,
      "pituitary": 7542,
      "ssdna": 7543,
      "##isoproturon": 7544,
      "deazarib": 7545,
      "##amphenicol": 7546,
      "acetyllactosamine": 7547,
      "isobutanol": 7548,
      "unidirectional": 7549,
      "kaurene": 7550,
      "monomethyltransferase": 7551,
      "nlrp3": 7552,
      "scrambling": 7553,
      "barbed": 7554,
      "fusome": 7555,
      "first": 7556,
      "pellucida": 7557,
      "sulph": 7558,
      "ulk1": 7559,
      "##uorene": 7560,
      "##enoxyacetic": 7561,
      "phosphosulfate": 7562,
      "arginase": 7563,
      "mesendodermal": 7564,
      "radicals": 7565,
      "##alkylamine": 7566,
      "mercaptobenzothiazole": 7567,
      "##sphingosine": 7568,
      "elimin": 7569,
      "giant": 7570,
      "p38": 7571,
      "##silanediol": 7572,
      "methyloct": 7573,
      "spectrin": 7574,
      "organomerc": 7575,
      "aminobenzenesulfonate": 7576,
      "chloramphenicol": 7577,
      "esculetin": 7578,
      "brca1": 7579,
      "vanadium": 7580,
      "vestibulocochlear": 7581,
      "archaeal": 7582,
      "hermaphrodite": 7583,
      "built": 7584,
      "bergamotene": 7585,
      "codeine": 7586,
      "life": 7587,
      "oblongata": 7588,
      "sophoros": 7589,
      "reserv": 7590,
      "enzymes": 7591,
      "anhydrides": 7592,
      "spongiotrophoblast": 7593,
      "thiazolecarboxylic": 7594,
      "substituted": 7595,
      "seminal": 7596,
      "dihydroorotate": 7597,
      "oncostatin": 7598,
      "shelterin": 7599,
      "oxoadipate": 7600,
      "oligosaccharyltransferase": 7601,
      "vitellogenesis": 7602,
      "isopropenyl": 7603,
      "plastoquinone": 7604,
      "haloacid": 7605,
      "isopropylacetanilide": 7606,
      "gentiobioside": 7607,
      "chrysobactin": 7608,
      "dihydrolipoyl": 7609,
      "kojic": 7610,
      "denedd": 7611,
      "eugenol": 7612,
      "eisosome": 7613,
      "eminence": 7614,
      "following": 7615,
      "gaseous": 7616,
      "goblet": 7617,
      "gastro": 7618,
      "glossopharyngeal": 7619,
      "iqgap": 7620,
      "jasmon": 7621,
      "kchip": 7622,
      "lrp5": 7623,
      "oogonium": 7624,
      "rnase": 7625,
      "soyasap": 7626,
      "tgfbeta": 7627,
      "torso": 7628,
      "trochlear": 7629,
      "utilizing": 7630,
      "velocity": 7631,
      "##hifting": 7632,
      "##vastatin": 7633,
      "debranching": 7634,
      "achromobactin": 7635,
      "phorbol": 7636,
      "astaxanthin": 7637,
      "aliphatic": 7638,
      "methotrexate": 7639,
      "styrene": 7640,
      "advanced": 7641,
      "organonitrogen": 7642,
      "extrachromosomal": 7643,
      "aminolevulin": 7644,
      "apurinic": 7645,
      "apyrimidinic": 7646,
      "amplification": 7647,
      "persulfido": 7648,
      "galactoglucomannan": 7649,
      "sevenless": 7650,
      "deoxystreptamine": 7651,
      "decrotonylase": 7652,
      "phototransduction": 7653,
      "macrolide": 7654,
      "cleistothecium": 7655,
      "quaternary": 7656,
      "frameshifting": 7657,
      "acclimation": 7658,
      "hexachlorocyclohexane": 7659,
      "longitudinal": 7660,
      "neurofibrillary": 7661,
      "maltopentaose": 7662,
      "erythropoietin": 7663,
      "gradient": 7664,
      "mechanosensitive": 7665,
      "hydroxyprogesterone": 7666,
      "eggshell": 7667,
      "outgrowth": 7668,
      "thermospermine": 7669,
      "verbascose": 7670,
      "horizontal": 7671,
      "deazariboflavin": 7672,
      "1alpha": 7673,
      "2a": 7674,
      "6r": 7675,
      "6e": 7676,
      "6a": 7677,
      "8alpha": 7678,
      ":(": 7679,
      "a9": 7680,
      "aec": 7681,
      "age": 7682,
      "aver": 7683,
      "a12": 7684,
      "aecium": 7685,
      "bo": 7686,
      "b3": 7687,
      "ber": 7688,
      "bet": 7689,
      "bid": 7690,
      "bomb": 7691,
      "cn": 7692,
      "cf": 7693,
      "colic": 7694,
      "cot": 7695,
      "cys": 7696,
      "cyp": 7697,
      "crot": 7698,
      "cass": 7699,
      "ccl": 7700,
      "casp": 7701,
      "cca": 7702,
      "clock": 7703,
      "d1": 7704,
      "dit": 7705,
      "dith": 7706,
      "dyst": 7707,
      "daf": 7708,
      "doxorubicin": 7709,
      "eith": 7710,
      "eating": 7711,
      "eoxin": 7712,
      "erection": 7713,
      "fh": 7714,
      "fos": 7715,
      "fyn": 7716,
      "fund": 7717,
      "foot": 7718,
      "fasciculation": 7719,
      "gg": 7720,
      "gsi": 7721,
      "hr": 7722,
      "hen": 7723,
      "hyb": 7724,
      "iib": 7725,
      "idp": 7726,
      "iaa": 7727,
      "ju": 7728,
      "jan": 7729,
      "jnk": 7730,
      "k6": 7731,
      "kit": 7732,
      "kan": 7733,
      "k20": 7734,
      "k36": 7735,
      "la": 7736,
      "lid": 7737,
      "lay": 7738,
      "lup": 7739,
      "linal": 7740,
      "lesion": 7741,
      "md": 7742,
      "mass": 7743,
      "milt": 7744,
      "n3": 7745,
      "nors": 7746,
      "nipp": 7747,
      "oospore": 7748,
      "pe": 7749,
      "pa": 7750,
      "p6": 7751,
      "peg": 7752,
      "pac": 7753,
      "porph": 7754,
      "pector": 7755,
      "penile": 7756,
      "rim": 7757,
      "rap": 7758,
      "rnp": 7759,
      "risc": 7760,
      "sed": 7761,
      "sand": 7762,
      "s100": 7763,
      "tl": 7764,
      "tes": 7765,
      "tal": 7766,
      "tan": 7767,
      "tach": 7768,
      "telium": 7769,
      "uc": 7770,
      "ug": 7771,
      "urine": 7772,
      "u11": 7773,
      "v4": 7774,
      "v7": 7775,
      "v0": 7776,
      "vom": 7777,
      "voc": 7778,
      "vite": 7779,
      "way": 7780,
      "xi": 7781,
      "xrc": 7782,
      "yol": 7783,
      "zeta": 7784,
      "##rrna": 7785,
      "##reductase": 7786,
      "##cisome": 7787,
      "##1c": 7788,
      "##eking": 7789,
      "##gression": 7790,
      "##ument": 7791,
      "##uence": 7792,
      "##uptake": 7793,
      "##lan": 7794,
      "##lumin": 7795,
      "##a2": 7796,
      "##aur": 7797,
      "##affe": 7798,
      "##trans": 7799,
      "##i2": 7800,
      "##ool": 7801,
      "##oik": 7802,
      "##oethanolamine": 7803,
      "##oeb": 7804,
      "##nant": 7805,
      "##sf": 7806,
      "##sar": 7807,
      "##stem": 7808,
      "##ps": 7809,
      "##plice": 7810,
      "##hin": 7811,
      "##hone": 7812,
      "##vic": 7813,
      "##viral": 7814,
      "##dg": 7815,
      "##d3": 7816,
      "##din": 7817,
      "##dip": 7818,
      "##yer": 7819,
      "##yose": 7820,
      "##yamine": 7821,
      "##ylon": 7822,
      "##yrone": 7823,
      "##yophyll": 7824,
      "##xation": 7825,
      "##br": 7826,
      "##bl": 7827,
      "##bit": 7828,
      "##mylation": 7829,
      "##fa": 7830,
      "##fb": 7831,
      "##fess": 7832,
      "##for": 7833,
      "##fur": 7834,
      "##folyl": 7835,
      "##3p": 7836,
      "##3b": 7837,
      "##ke": 7838,
      "##61": 7839,
      "##0s": 7840,
      "##iole": 7841,
      "##ioth": 7842,
      "##roate": 7843,
      "##roautophagy": 7844,
      "##ice": 7845,
      "##icol": 7846,
      "##icide": 7847,
      "##iculus": 7848,
      "##estr": 7849,
      "##allo": 7850,
      "##alanyl": 7851,
      "##alenol": 7852,
      "##alenone": 7853,
      "##ionic": 7854,
      "##atome": 7855,
      "##atile": 7856,
      "##atrol": 7857,
      "##atives": 7858,
      "biolumin": 7859,
      "##infl": 7860,
      "##ars": 7861,
      "##arac": 7862,
      "##olation": 7863,
      "##olide": 7864,
      "##olayer": 7865,
      "##itone": 7866,
      "##iva": 7867,
      "##enase": 7868,
      "##enoyl": 7869,
      "##enecarboxylate": 7870,
      "##ece": 7871,
      "##anic": 7872,
      "##ansion": 7873,
      "##animate": 7874,
      "##seta": 7875,
      "##egut": 7876,
      "##onon": 7877,
      "##onization": 7878,
      "##onylation": 7879,
      "##onylase": 7880,
      "##onoacetate": 7881,
      "##onolactonase": 7882,
      "##ert": 7883,
      "##unorubicin": 7884,
      "##elyl": 7885,
      "##elloc": 7886,
      "##orl": 7887,
      "##orh": 7888,
      "##ityl": 7889,
      "##osanoate": 7890,
      "##osuccinate": 7891,
      "##ette": 7892,
      "##etamine": 7893,
      "##etite": 7894,
      "##yled": 7895,
      "##idene": 7896,
      "##idinone": 7897,
      "##phene": 7898,
      "intein": 7899,
      "intral": 7900,
      "inanimate": 7901,
      "##pteridine": 7902,
      "##ish": 7903,
      "transdi": 7904,
      "transver": 7905,
      "##telomer": 7906,
      "##tearate": 7907,
      "prophase": 7908,
      "profess": 7909,
      "##edium": 7910,
      "##edione": 7911,
      "##edospore": 7912,
      "dealk": 7913,
      "##yne": 7914,
      "poster": 7915,
      "##igolactone": 7916,
      "metap": 7917,
      "metula": 7918,
      "##amoylation": 7919,
      "##tere": 7920,
      "toxic": 7921,
      "##oty": 7922,
      "##otidase": 7923,
      "##otaxis": 7924,
      "compact": 7925,
      "acry": 7926,
      "phial": 7927,
      "##oception": 7928,
      "##ocosanoate": 7929,
      "complexin": 7930,
      "gliogenesis": 7931,
      "##uss": 7932,
      "##usp": 7933,
      "##usin": 7934,
      "##usine": 7935,
      "resection": 7936,
      "resver": 7937,
      "##aconate": 7938,
      "##acycline": 7939,
      "##aclavine": 7940,
      "##embranous": 7941,
      "##rip": 7942,
      "##ych": 7943,
      "dim": 7944,
      "diet": 7945,
      "dilation": 7946,
      "diamide": 7947,
      "diphenyl": 7948,
      "dimeric": 7949,
      "diphenol": 7950,
      "diphospho": 7951,
      "dibenzoyl": 7952,
      "diencephalon": 7953,
      "diphosphorylase": 7954,
      "##veol": 7955,
      "##uration": 7956,
      "##urase": 7957,
      "##urite": 7958,
      "##uracil": 7959,
      "##nalization": 7960,
      "##actalk": 7961,
      "phosphono": 7962,
      "phosphinoth": 7963,
      "catagen": 7964,
      "##truction": 7965,
      "sigma": 7966,
      "ann": 7967,
      "anandamide": 7968,
      "anoik": 7969,
      "##opol": 7970,
      "##ilib": 7971,
      "##ilicon": 7972,
      "##ayed": 7973,
      "##oneogenesis": 7974,
      "##ronin": 7975,
      "##ibacteroid": 7976,
      "spin": 7977,
      "spem": 7978,
      "##romer": 7979,
      "##romethane": 7980,
      "##romobis": 7981,
      "acidocal": 7982,
      "ends": 7983,
      "endoderm": 7984,
      "endobrevin": 7985,
      "endored": 7986,
      "##ogenol": 7987,
      "gluconeogenesis": 7988,
      "nephric": 7989,
      "neoxanthin": 7990,
      "neoag": 7991,
      "formamido": 7992,
      "nucleoplasm": 7993,
      "nucleoplasmic": 7994,
      "##chette": 7995,
      "state": 7996,
      "stator": 7997,
      "stach": 7998,
      "stack": 7999,
      "stilbene": 8000,
      "##emical": 8001,
      "##ipation": 8002,
      "##ipec": 8003,
      "adaxial": 8004,
      "##oxyn": 8005,
      "##oxylation": 8006,
      "##oxilin": 8007,
      "caryophyll": 8008,
      "oxoc": 8009,
      "oxaz": 8010,
      "oxobutyrate": 8011,
      "oxonon": 8012,
      "exogen": 8013,
      "exosomal": 8014,
      "conform": 8015,
      "coniferyl": 8016,
      "conferring": 8017,
      "##epyruvate": 8018,
      "beta5": 8019,
      "mitral": 8020,
      "##osta": 8021,
      "##aprenyltransferase": 8022,
      "dehydrogen": 8023,
      "acetamido": 8024,
      "##phosphoglycerate": 8025,
      "thal": 8026,
      "thph": 8027,
      "##istal": 8028,
      "##istle": 8029,
      "interst": 8030,
      "interference": 8031,
      "##idylylation": 8032,
      "##rosten": 8033,
      "##reonine": 8034,
      "##rephagy": 8035,
      "##erotriose": 8036,
      "neurogenesis": 8037,
      "##uleus": 8038,
      "##ricetin": 8039,
      "secolog": 8040,
      "##ysted": 8041,
      "deps": 8042,
      "depression": 8043,
      "apo": 8044,
      "apic": 8045,
      "apigenin": 8046,
      "aplan": 8047,
      "monolayer": 8048,
      "glycosome": 8049,
      "glycyrrh": 8050,
      "##upler": 8051,
      "arf": 8052,
      "hydroxytax": 8053,
      "hydroxypyrene": 8054,
      "hydroxyanthranilate": 8055,
      "hydroxytoluene": 8056,
      "antit": 8057,
      "histogenesis": 8058,
      "##iration": 8059,
      "##iredoxin": 8060,
      "methylated": 8061,
      "methylhex": 8062,
      "methylnaphthalene": 8063,
      "methylerythritol": 8064,
      "methylammonium": 8065,
      "prenol": 8066,
      "glucosylc": 8067,
      "##optry": 8068,
      "monounsaturated": 8069,
      "glutarate": 8070,
      "meso": 8071,
      "lipophagy": 8072,
      "acetylhex": 8073,
      "acetylspermidine": 8074,
      "coreceptor": 8075,
      "trap": 8076,
      "trapp": 8077,
      "trapping": 8078,
      "ribo": 8079,
      "##ammel": 8080,
      "##ammatory": 8081,
      "##ammonio": 8082,
      "calyx": 8083,
      "strigolactone": 8084,
      "carbamoylation": 8085,
      "isw": 8086,
      "isomal": 8087,
      "isoval": 8088,
      "isomerization": 8089,
      "amacrine": 8090,
      "amoeb": 8091,
      "chemokinesis": 8092,
      "calcification": 8093,
      "disper": 8094,
      "##ophycin": 8095,
      "##glycylation": 8096,
      "##glycero": 8097,
      "##glycerin": 8098,
      "##glyceryl": 8099,
      "##obio": 8100,
      "##hydrase": 8101,
      "##itioning": 8102,
      "##rinting": 8103,
      "##allel": 8104,
      "polymer": 8105,
      "##etrical": 8106,
      "myricetin": 8107,
      "smc": 8108,
      "lysis": 8109,
      "androsten": 8110,
      "peri": 8111,
      "perk": 8112,
      "perill": 8113,
      "peribacteroid": 8114,
      "glutamylc": 8115,
      "galacturon": 8116,
      "galactotriose": 8117,
      "galactofuranose": 8118,
      "gua": 8119,
      "gulonate": 8120,
      "subtelomer": 8121,
      "triacyl": 8122,
      "triiod": 8123,
      "##neol": 8124,
      "##arbonyl": 8125,
      "seeking": 8126,
      "##acetone": 8127,
      "malic": 8128,
      "chlorocatechol": 8129,
      "mannoprotein": 8130,
      "mannotriose": 8131,
      "linc": 8132,
      "symbios": 8133,
      "##flav": 8134,
      "##fluorene": 8135,
      "deoxygluc": 8136,
      "presplice": 8137,
      "##ulophagy": 8138,
      "retromer": 8139,
      "flight": 8140,
      "fat10": 8141,
      "phosphoric": 8142,
      "acylneur": 8143,
      "polyglycylation": 8144,
      "tefb": 8145,
      "tetrater": 8146,
      "tetramerization": 8147,
      "centrosomal": 8148,
      "centriolar": 8149,
      "reticulophagy": 8150,
      "shade": 8151,
      "##olarity": 8152,
      "rhoptry": 8153,
      "synov": 8154,
      "synembrin": 8155,
      "erk5": 8156,
      "neurotensin": 8157,
      "loader": 8158,
      "oxoacid": 8159,
      "##iolin": 8160,
      "capsor": 8161,
      "photomorphogenesis": 8162,
      "machin": 8163,
      "macroautophagy": 8164,
      "saliva": 8165,
      "h3r": 8166,
      "h3t": 8167,
      "h3s": 8168,
      "tyrosinase": 8169,
      "reorgan": 8170,
      "reader": 8171,
      "reuptake": 8172,
      "decarboxylation": 8173,
      "cleft": 8174,
      "desumoylation": 8175,
      "destruction": 8176,
      "##umenal": 8177,
      "partitioning": 8178,
      "ferroptosis": 8179,
      "##glutination": 8180,
      "##glutamyl": 8181,
      "fractalk": 8182,
      "lacto": 8183,
      "##lobulin": 8184,
      "elevation": 8185,
      "three": 8186,
      "thread": 8187,
      "##idinol": 8188,
      "homophil": 8189,
      "##glucosidase": 8190,
      "delayed": 8191,
      "influence": 8192,
      "basket": 8193,
      "phenylacetate": 8194,
      "phenylacetaldehyde": 8195,
      "discadenine": 8196,
      "foregut": 8197,
      "##argylglycine": 8198,
      "hexitol": 8199,
      "hexasaccharide": 8200,
      "glucuronide": 8201,
      "##angiospore": 8202,
      "##angiogenesis": 8203,
      "arginyl": 8204,
      "camkk": 8205,
      "camphor": 8206,
      "##aceous": 8207,
      "agglutination": 8208,
      "benzoic": 8209,
      "propargylglycine": 8210,
      "hepoxilin": 8211,
      "pentitol": 8212,
      "pentasaccharide": 8213,
      "##okinetic": 8214,
      "butyr": 8215,
      "button": 8216,
      "lymphangiogenesis": 8217,
      "urm1": 8218,
      "uredin": 8219,
      "uredospore": 8220,
      "uridylylation": 8221,
      "vitelline": 8222,
      "succinylation": 8223,
      "copal": 8224,
      "copaene": 8225,
      "remnant": 8226,
      "isopenicillin": 8227,
      "fructosamine": 8228,
      "tricellular": 8229,
      "##ached": 8230,
      "##achronate": 8231,
      "arabinosyltransferase": 8232,
      "arabinopyranose": 8233,
      "preblast": 8234,
      "anagen": 8235,
      "dihydroxybenz": 8236,
      "cyanophore": 8237,
      "cyanuric": 8238,
      "cyanophycin": 8239,
      "##galactoside": 8240,
      "intermedium": 8241,
      "ketoreductase": 8242,
      "para": 8243,
      "parallel": 8244,
      "maleyl": 8245,
      "maleate": 8246,
      "precatal": 8247,
      "##af1": 8248,
      "##etinate": 8249,
      "dimethylethanolamine": 8250,
      "dimethylsilanediol": 8251,
      "hydrate": 8252,
      "##enomycin": 8253,
      "neurofilament": 8254,
      "neurohyp": 8255,
      "neuroinfl": 8256,
      "##iosyl": 8257,
      "##iosidase": 8258,
      "spher": 8259,
      "spheroid": 8260,
      "11z": 8261,
      "octam": 8262,
      "octanol": 8263,
      "octanoyltransferase": 8264,
      "octopine": 8265,
      "##location": 8266,
      "12alpha": 8267,
      "maltotri": 8268,
      "flavodoxin": 8269,
      "thymidylate": 8270,
      "attached": 8271,
      "capsanthin": 8272,
      "erythrose": 8273,
      "erythrophore": 8274,
      "erythritol": 8275,
      "16s": 8276,
      "respirasome": 8277,
      "deoxyribonucleic": 8278,
      "bisdiphosphate": 8279,
      "bisphosphoglycerate": 8280,
      "##berine": 8281,
      "sphingoid": 8282,
      "##yllysine": 8283,
      "h3k14": 8284,
      "extrusion": 8285,
      "microfilament": 8286,
      "endocardium": 8287,
      "appetite": 8288,
      "brush": 8289,
      "bristle": 8290,
      "##orticosterone": 8291,
      "heptosyltransferase": 8292,
      "heptadec": 8293,
      "heptasaccharide": 8294,
      "##odiester": 8295,
      "##ethylene": 8296,
      "ampk": 8297,
      "mini": 8298,
      "multid": 8299,
      "selenate": 8300,
      "selenoc": 8301,
      "tetrahydrobiopterin": 8302,
      "tetrahydrofolyl": 8303,
      "electrons": 8304,
      "h4k1": 8305,
      "##ohydrin": 8306,
      "trimethylpent": 8307,
      "trimethylammonio": 8308,
      "notum": 8309,
      "##aroyltransferase": 8310,
      "thyrox": 8311,
      "thiour": 8312,
      "thiolase": 8313,
      "transcripts": 8314,
      "granuloma": 8315,
      "##osaminide": 8316,
      "##osaminidase": 8317,
      "##abilizing": 8318,
      "acetylglucosaminephosphotransferase": 8319,
      "trichloroph": 8320,
      "cardiocyte": 8321,
      "antibody": 8322,
      "cd86": 8323,
      "cd80": 8324,
      "brainstem": 8325,
      "##olol": 8326,
      "template": 8327,
      "terpene": 8328,
      "hydroxyprostaglandin": 8329,
      "osmolarity": 8330,
      "14alpha": 8331,
      "sporangiospore": 8332,
      "tether": 8333,
      "fixation": 8334,
      "gonadotrophin": 8335,
      "glyoxy": 8336,
      "cholinephosphotransferase": 8337,
      "methanogenesis": 8338,
      "polyproline": 8339,
      "polyprenol": 8340,
      "##oxycurcumin": 8341,
      "carnosine": 8342,
      "25s": 8343,
      "haltere": 8344,
      "##itriose": 8345,
      "##ofuranosidase": 8346,
      "outward": 8347,
      "sialic": 8348,
      "sialate": 8349,
      "glycosylceramide": 8350,
      "nitroglycerin": 8351,
      "mycophen": 8352,
      "encysted": 8353,
      "xylosidase": 8354,
      "dtmp": 8355,
      "##porocyte": 8356,
      "##propyltransferase": 8357,
      "neuropilin": 8358,
      "lamelloc": 8359,
      "chorio": 8360,
      "diaminobutyrate": 8361,
      "limitation": 8362,
      "naphthaldehyde": 8363,
      "naphthalene": 8364,
      "puff": 8365,
      "puromycin": 8366,
      "locomotor": 8367,
      "pairing": 8368,
      "demethylm": 8369,
      "coumarin": 8370,
      "tetraphosphatase": 8371,
      "tetracenomycin": 8372,
      "bicoid": 8373,
      "cgas": 8374,
      "imprinting": 8375,
      "lipooligosaccharide": 8376,
      "ferritin": 8377,
      "solan": 8378,
      "##geranylgeranyl": 8379,
      "antimonite": 8380,
      "creb": 8381,
      "oleic": 8382,
      "oleate": 8383,
      "oleoyl": 8384,
      "##ulbar": 8385,
      "chloroacryl": 8386,
      "isopropylhexa": 8387,
      "cyclohexyl": 8388,
      "cyclohexane": 8389,
      "ecdysis": 8390,
      "furfural": 8391,
      "zygospore": 8392,
      "zygospor": 8393,
      "caffeate": 8394,
      "caffeine": 8395,
      "autoubiquitination": 8396,
      "pseudouridylation": 8397,
      "optical": 8398,
      "wakeful": 8399,
      "derivatives": 8400,
      "labial": 8401,
      "labda": 8402,
      "##opropionate": 8403,
      "hydroxyisobutyrate": 8404,
      "hydroxyisobutyr": 8405,
      "acetylmann": 8406,
      "lysophosphatidyl": 8407,
      "undecaprenol": 8408,
      "sumoylation": 8409,
      "xenophagy": 8410,
      "topological": 8411,
      "thermomorphogenesis": 8412,
      "thermoception": 8413,
      "hyaline": 8414,
      "venule": 8415,
      "##onitrile": 8416,
      "revers": 8417,
      "methylbutanol": 8418,
      "somitomeric": 8419,
      "xylanase": 8420,
      "blasticidin": 8421,
      "teliospore": 8422,
      "vernalization": 8423,
      "##phthalate": 8424,
      "deoxycorticosterone": 8425,
      "phycobil": 8426,
      "##apsid": 8427,
      "leucyl": 8428,
      "leucophore": 8429,
      "leucoplast": 8430,
      "acetylmuramate": 8431,
      "acetylneuraminyl": 8432,
      "c5a": 8433,
      "didehydro": 8434,
      "tropane": 8435,
      "##sulfatase": 8436,
      "aminoadipic": 8437,
      "triplex": 8438,
      "dihydroxynaphthalene": 8439,
      "phosphorylated": 8440,
      "h3k9me2": 8441,
      "geranylgeranylation": 8442,
      "dermatome": 8443,
      "pupariation": 8444,
      "diphosphoinositol": 8445,
      "macropinosome": 8446,
      "protozo": 8447,
      "azole": 8448,
      "bilayer": 8449,
      "pelvic": 8450,
      "uroporphyrinogen": 8451,
      "##lactate": 8452,
      "adipose": 8453,
      "uncoupler": 8454,
      "multienzyme": 8455,
      "magnetosome": 8456,
      "borneol": 8457,
      "horn": 8458,
      "horseta": 8459,
      "oomycete": 8460,
      "pml": 8461,
      "ufm1": 8462,
      "u6atac": 8463,
      "##arotenoid": 8464,
      "##spermine": 8465,
      "oxopentanoate": 8466,
      "##glycerophosphoethanolamine": 8467,
      "branchiomeric": 8468,
      "##tetracycline": 8469,
      "methylcitrate": 8470,
      "stretches": 8471,
      "dissipation": 8472,
      "lactamase": 8473,
      "aggrephagy": 8474,
      "propionic": 8475,
      "medullary": 8476,
      "dichlorobenzoate": 8477,
      "lysophospholipid": 8478,
      "odontoblast": 8479,
      "sesquiterpene": 8480,
      "equilib": 8481,
      "leptomycin": 8482,
      "ripening": 8483,
      "deoxyn": 8484,
      "deoxynucleotide": 8485,
      "dinitrogen": 8486,
      "heteroduplex": 8487,
      "hercynylselen": 8488,
      "scaffolds": 8489,
      "backward": 8490,
      "lengthening": 8491,
      "whorl": 8492,
      "resolution": 8493,
      "resolvin": 8494,
      "alveolar": 8495,
      "spaces": 8496,
      "cornea": 8497,
      "corneal": 8498,
      "sclerotium": 8499,
      "tautomer": 8500,
      "trinitrophenol": 8501,
      "conserved": 8502,
      "dodecyl": 8503,
      "fasl": 8504,
      "menthol": 8505,
      "maml2": 8506,
      "maml3": 8507,
      "xxv": 8508,
      "##isopropyl": 8509,
      "acetyllactosaminide": 8510,
      "unidimensional": 8511,
      "butyltin": 8512,
      "laminaritriose": 8513,
      "monomethylation": 8514,
      "scramblase": 8515,
[...]
