{
  "version": "1.0",
  "truncation": null,
  "padding": {
    "strategy": "BatchLongest",
    "direction": "Right",
    "pad_to_multiple_of": null,
    "pad_id": 2,
    "pad_type_id": 0,
    "pad_token": "<pad>"
  },
  "added_tokens": [
    {
      "id": 0,
      "content": "<protein>",
      "single_word": false,
      "lstrip": false,
      "rstrip": false,
      "normalized": false,
      "special": true
    },
    {
      "id": 1,
      "content": "</protein>",
      "single_word": false,
      "lstrip": false,
      "rstrip": false,
      "normalized": false,
      "special": true
    },
    {
      "id": 2,
      "content": "<pad>",
      "single_word": false,
      "lstrip": false,
      "rstrip": false,
      "normalized": false,
      "special": true
    },
    {
      "id": 3,
      "content": "<unk>",
      "single_word": false,
      "lstrip": false,
      "rstrip": false,
      "normalized": false,
      "special": true
    },
    {
      "id": 4,
      "content": "</annotation>",
      "single_word": false,
      "lstrip": false,
      "rstrip": false,
      "normalized": false,
      "special": true
    },
    {
      "id": 5,
      "content": "<annotation>",
      "single_word": false,
      "lstrip": false,
      "rstrip": false,
      "normalized": false,
      "special": true
    },
    {
      "id": 6,
      "content": "<bos>",
      "single_word": false,
      "lstrip": false,
      "rstrip": false,
      "normalized": false,
      "special": true
    },
    {
      "id": 7,
      "content": "<eos>",
      "single_word": false,
      "lstrip": false,
      "rstrip": false,
      "normalized": false,
      "special": true
    }
  ],
  "normalizer": {
    "type": "Sequence",
    "normalizers": [
      {
        "type": "NFD"
      },
      {
        "type": "Lowercase"
      },
      {
        "type": "StripAccents"
      }
    ]
  },
  "pre_tokenizer": {
    "type": "Whitespace"
  },
  "post_processor": {
    "type": "TemplateProcessing",
    "single": [
      {
        "SpecialToken": {
          "id": "<bos>",
          "type_id": 0
        }
      },
      {
        "SpecialToken": {
          "id": "<protein>",
          "type_id": 0
        }
      },
      {
        "Sequence": {
          "id": "A",
          "type_id": 0
        }
      },
      {
        "SpecialToken": {
          "id": "</protein>",
          "type_id": 0
        }
      },
      {
        "SpecialToken": {
          "id": "<annotation>",
          "type_id": 0
        }
      }
    ],
    "pair": [
      {
        "SpecialToken": {
          "id": "<bos>",
          "type_id": 0
        }
      },
      {
        "SpecialToken": {
          "id": "<protein>",
          "type_id": 0
        }
      },
      {
        "Sequence": {
          "id": "A",
          "type_id": 0
        }
      },
      {
        "SpecialToken": {
          "id": "</protein>",
          "type_id": 0
        }
      },
      {
        "SpecialToken": {
          "id": "<annotation>",
          "type_id": 0
        }
      },
      {
        "Sequence": {
          "id": "B",
          "type_id": 1
        }
      },
      {
        "SpecialToken": {
          "id": "</annotation>",
          "type_id": 0
        }
      },
      {
        "SpecialToken": {
          "id": "<eos>",
          "type_id": 0
        }
      }
    ],
    "special_tokens": {
      "</annotation>": {
        "id": "</annotation>",
        "ids": [
          4
        ],
        "tokens": [
          "</annotation>"
        ]
      },
      "</protein>": {
        "id": "</protein>",
        "ids": [
          1
        ],
        "tokens": [
          "</protein>"
        ]
      },
      "<annotation>": {
        "id": "<annotation>",
        "ids": [
          5
        ],
        "tokens": [
          "<annotation>"
        ]
      },
      "<bos>": {
        "id": "<bos>",
        "ids": [
          6
        ],
        "tokens": [
          "<bos>"
        ]
      },
      "<eos>": {
        "id": "<eos>",
        "ids": [
          7
        ],
        "tokens": [
          "<eos>"
        ]
      },
      "<protein>": {
        "id": "<protein>",
        "ids": [
          0
        ],
        "tokens": [
          "<protein>"
        ]
      }
    }
  },
  "decoder": null,
  "model": {
    "type": "BPE",
    "dropout": null,
    "unk_token": "<unk>",
    "continuing_subword_prefix": null,
    "end_of_word_suffix": null,
    "fuse_unk": false,
    "byte_fallback": false,
    "vocab": {
      "<protein>": 0,
      "</protein>": 1,
      "<pad>": 2,
      "<unk>": 3,
      "</annotation>": 4,
      "<annotation>": 5,
      "<bos>": 6,
      "<eos>": 7,
      "#": 8,
      "'": 9,
      "(": 10,
      ")": 11,
      "+": 12,
      ",": 13,
      "-": 14,
      ".": 15,
      "/": 16,
      "0": 17,
      "1": 18,
      "2": 19,
      "3": 20,
      "4": 21,
      "5": 22,
      "6": 23,
      "7": 24,
      "8": 25,
      "9": 26,
      ":": 27,
      "=": 28,
      ">": 29,
      "A": 30,
      "C": 31,
      "D": 32,
      "E": 33,
      "F": 34,
      "G": 35,
      "H": 36,
      "I": 37,
      "K": 38,
      "L": 39,
      "M": 40,
      "N": 41,
      "P": 42,
      "Q": 43,
      "R": 44,
      "S": 45,
      "T": 46,
      "V": 47,
      "W": 48,
      "Y": 49,
      "[": 50,
      "]": 51,
      "_": 52,
      "a": 53,
      "b": 54,
      "c": 55,
      "d": 56,
      "e": 57,
      "f": 58,
      "g": 59,
      "h": 60,
      "i": 61,
      "j": 62,
      "k": 63,
      "l": 64,
      "m": 65,
      "n": 66,
      "o": 67,
      "p": 68,
      "q": 69,
      "r": 70,
      "s": 71,
      "t": 72,
      "u": 73,
      "v": 74,
      "w": 75,
      "x": 76,
      "y": 77,
      "z": 78,
      "ll": 79,
      "al": 80,
      "ss": 81,
      "aa": 82,
      "la": 83,
      "ee": 84,
      "ti": 85,
      "gg": 86,
      "le": 87,
      "ls": 88,
      "lv": 89,
      "gi": 90,
      "kk": 91,
      "av": 92,
      "pr": 93,
      "as": 94,
      "lg": 95,
      "lr": 96,
      "li": 97,
      "vv": 98,
      "lk": 99,
      "ag": 100,
      "lt": 101,
      "ld": 102,
      "lp": 103,
      "re": 104,
      "at": 105,
      "ae": 106,
      "gs": 107,
      "de": 108,
      "vi": 109,
      "ai": 110,
      "ve": 111,
      "ke": 112,
      "di": 113,
      "ar": 114,
      "vs": 115,
      "pe": 116,
      "ce": 117,
      "lq": 118,
      "ps": 119,
      "ne": 120,
      "ge": 121,
      "rr": 122,
      "gk": 123,
      "lf": 124,
      "ak": 125,
      "vt": 126,
      "ns": 127,
      "ad": 128,
      "gt": 129,
      "ds": 130,
      "gr": 131,
      "pp": 132,
      "nt": 133,
      "ni": 134,
      "fs": 135,
      "vk": 136,
      "aq": 137,
      "ap": 138,
      "vd": 139,
      "ts": 140,
      "te": 141,
      "ri": 142,
      "af": 143,
      "ki": 144,
      "ly": 145,
      "gd": 146,
      "ln": 147,
      "rs": 148,
      "gv": 149,
      "gf": 150,
      "ks": 151,
      "me": 152,
      "on": 153,
      "qe": 154,
      "an": 155,
      "dd": 156,
      "pt": 157,
      "pro": 158,
      "is": 159,
      "vf": 160,
      "gy": 161,
      "gq": 162,
      "ac": 163,
      "vr": 164,
      "vp": 165,
      "ay": 166,
      "lh": 167,
      "gn": 168,
      "tt": 169,
      "qq": 170,
      "fe": 171,
      "gp": 172,
      "ty": 173,
      "cess": 174,
      "in": 175,
      "process": 176,
      "kd": 177,
      "kr": 178,
      "tion": 179,
      "qs": 180,
      "lo": 181,
      "ms": 182,
      "kt": 183,
      "bi": 184,
      "ys": 185,
      "cal": 186,
      "pd": 187,
      "bio": 188,
      "fi": 189,
      "vn": 190,
      "tr": 191,
      "pi": 192,
      "am": 193,
      "vq": 194,
      "ula": 195,
      "kn": 196,
      "gical": 197,
      "logical": 198,
      "biological": 199,
      "_process": 200,
      "biological_process": 201,
      "gh": 202,
      "vy": 203,
      "ah": 204,
      "dr": 205,
      "lm": 206,
      "qi": 207,
      "ph": 208,
      "si": 209,
      "lc": 210,
      "ky": 211,
      "se": 212,
      "fd": 213,
      "qr": 214,
      "ft": 215,
      "kp": 216,
      "ie": 217,
      "dy": 218,
      "he": 219,
      "fr": 220,
      "kq": 221,
      "nc": 222,
      "dt": 223,
      "mi": 224,
      "ye": 225,
      "vh": 226,
      "nn": 227,
      "pq": 228,
      "df": 229,
      "gc": 230,
      "kf": 231,
      "rt": 232,
      "gm": 233,
      "kv": 234,
      "pn": 235,
      "ii": 236,
      "hs": 237,
      "pf": 238,
      "rd": 239,
      "py": 240,
      "lw": 241,
      "cs": 242,
      "ular": 243,
      "qt": 244,
      "pv": 245,
      "dn": 246,
      "ry": 247,
      "rn": 248,
      "mp": 249,
      "ff": 250,
      "mt": 251,
      "st": 252,
      "kh": 253,
      "ular_": 254,
      "vg": 255,
      "id": 256,
      "aw": 257,
      "it": 258,
      "yt": 259,
      "rq": 260,
      "rf": 261,
      "mo": 262,
      "nd": 263,
      "gw": 264,
      "vm": 265,
      "vc": 266,
      "rk": 267,
      "hy": 268,
      "pk": 269,
      "ny": 270,
      "qd": 271,
      "all": 272,
      "sy": 273,
      "fy": 274,
      "ed": 275,
      "qn": 276,
      "hi": 277,
      "pg": 278,
      "ase": 279,
      "of": 280,
      "fn": 281,
      "lec": 282,
      "es": 283,
      "td": 284,
      "qk": 285,
      "md": 286,
      "co": 287,
      "aal": 288,
      "qy": 289,
      "rv": 290,
      "fu": 291,
      "acti": 292,
      "laa": 293,
      "nction": 294,
      "ng": 295,
      "molec": 296,
      "function": 297,
      "ular_function": 298,
      "molecular_function": 299,
      "reg": 300,
      "ht": 301,
      "km": 302,
      "yi": 303,
      "et": 304,
      "nf": 305,
      "rp": 306,
      "dv": 307,
      "ei": 308,
      "rh": 309,
      "kg": 310,
      "qf": 311,
      "kc": 312,
      "vity": 313,
      "rm": 314,
      "ws": 315,
      "qp": 316,
      "ulation": 317,
      "np": 318,
      "po": 319,
      "activity": 320,
      "rg": 321,
      "lal": 322,
      "dp": 323,
      "sss": 324,
      "tp": 325,
      "qv": 326,
      "regulation": 327,
      "tf": 328,
      "ci": 329,
      "lee": 330,
      "tv": 331,
      "hh": 332,
      "cell": 333,
      "dk": 334,
      "ans": 335,
      "er": 336,
      "lls": 337,
      "en": 338,
      "yy": 339,
      "lss": 340,
      "vw": 341,
      "mn": 342,
      "ct": 343,
      "ch": 344,
      "fv": 345,
      "ek": 346,
      "mk": 347,
      "yd": 348,
      "qh": 349,
      "lkk": 350,
      "agg": 351,
      "cc": 352,
      "ass": 353,
      "tn": 354,
      "fp": 355,
      "dg": 356,
      "qg": 357,
      "fk": 358,
      "fg": 359,
      "lgg": 360,
      "ati": 361,
      "dh": 362,
      "nk": 363,
      "fh": 364,
      "th": 365,
      "cy": 366,
      "las": 367,
      "tg": 368,
      "tk": 369,
      "we": 370,
      "nr": 371,
      "mr": 372,
      "wi": 373,
      "aee": 374,
      "fq": 375,
      "nv": 376,
      "ation": 377,
      "dq": 378,
      "to": 379,
      "lle": 380,
      "cr": 381,
      "mv": 382,
      "iy": 383,
      "comp": 384,
      "ip": 385,
      "iv": 386,
      "sr": 387,
      "nq": 388,
      "sd": 389,
      "my": 390,
      "eee": 391,
      "ate": 392,
      "sp": 393,
      "hr": 394,
      "ir": 395,
      "lgi": 396,
      "tq": 397,
      "if": 398,
      "akk": 399,
      "nh": 400,
      "lae": 401,
      "yr": 402,
      "ik": 403,
      "sv": 404,
      "mm": 405,
      "sf": 406,
      "ale": 407,
      "mf": 408,
      "gll": 409,
      "yf": 410,
      "lke": 411,
      "hp": 412,
      "sk": 413,
      "agi": 414,
      "aae": 415,
      "cd": 416,
      "sg": 417,
      "mg": 418,
      "pw": 419,
      "yn": 420,
      "mq": 421,
      "hf": 422,
      "sn": 423,
      "dw": 424,
      "cp": 425,
      "vaa": 426,
      "vll": 427,
      "tic": 428,
      "ake": 429,
      "ig": 430,
      "cf": 431,
      "one": 432,
      "sq": 433,
      "dm": 434,
      "iq": 435,
      "yv": 436,
      "lse": 437,
      "yk": 438,
      "trans": 439,
      "tc": 440,
      "sh": 441,
      "yp": 442,
      "dc": 443,
      "lre": 444,
      "qm": 445,
      "kw": 446,
      "rc": 447,
      "ih": 448,
      "rw": 449,
      "ane": 450,
      "lic": 451,
      "adi": 452,
      "yq": 453,
      "bo": 454,
      "aas": 455,
      "lve": 456,
      "yg": 457,
      "ade": 458,
      "als": 459,
      "aps": 460,
      "pc": 461,
      "met": 462,
      "are": 463,
      "hd": 464,
      "hq": 465,
      "sc": 466,
      "wt": 467,
      "ic": 468,
      "gss": 469,
      "pho": 470,
      "lde": 471,
      "pm": 472,
      "fc": 473,
      "vlv": 474,
      "lpe": 475,
      "aaaa": 476,
      "tm": 477,
      "qc": 478,
      "hn": 479,
      "compone": 480,
      "component": 481,
      "kll": 482,
      "ular_component": 483,
      "cellular_component": 484,
      "app": 485,
      "gag": 486,
      "lti": 487,
      "nw": 488,
      "tw": 489,
      "lns": 490,
      "gla": 491,
      "ral": 492,
      "val": 493,
      "nm": 494,
      "hw": 495,
      "vav": 496,
      "afs": 497,
      "gaa": 498,
      "fw": 499,
      "ape": 500,
      "gal": 501,
      "vls": 502,
      "lte": 503,
      "lvs": 504,
      "lne": 505,
      "rll": 506,
      "res": 507,
      "qw": 508,
      "lqe": 509,
      "glg": 510,
      "hk": 511,
      "gls": 512,
      "ggs": 513,
      "vla": 514,
      "pll": 515,
      "fm": 516,
      "age": 517,
      "lpr": 518,
      "ani": 519,
      "vlg": 520,
      "ave": 521,
      "nse": 522,
      "im": 523,
      "glv": 524,
      "vle": 525,
      "yc": 526,
      "hc": 527,
      "vss": 528,
      "tive": 529,
      "dll": 530,
      "gav": 531,
      "vee": 532,
      "vgg": 533,
      "dee": 534,
      "ro": 535,
      "lge": 536,
      "neg": 537,
      "vve": 538,
      "vld": 539,
      "lie": 540,
      "gkk": 541,
      "ck": 542,
      "or": 543,
      "yh": 544,
      "qll": 545,
      "vlt": 546,
      "sm": 547,
      "wr": 548,
      "wd": 549,
      "kal": 550,
      "fer": 551,
      "gen": 552,
      "tll": 553,
      "abo": 554,
      "posi": 555,
      "ative": 556,
      "gas": 557,
      "vas": 558,
      "positive": 559,
      "pat": 560,
      "cn": 561,
      "mb": 562,
      "abolic": 563,
      "apr": 564,
      "gvv": 565,
      "lks": 566,
      "les": 567,
      "vag": 568,
      "vae": 569,
      "lps": 570,
      "kee": 571,
      "lgs": 572,
      "ox": 573,
      "cle": 574,
      "pss": 575,
      "negative": 576,
      "glr": 577,
      "wk": 578,
      "lni": 579,
      "fll": 580,
      "lu": 581,
      "paa": 582,
      "cq": 583,
      "ing": 584,
      "gli": 585,
      "ltr": 586,
      "kke": 587,
      "pee": 588,
      "glp": 589,
      "led": 590,
      "avs": 591,
      "lts": 592,
      "maa": 593,
      "gge": 594,
      "mh": 595,
      "sse": 596,
      "vse": 597,
      "kaa": 598,
      "vlr": 599,
      "wn": 600,
      "ags": 601,
      "gee": 602,
      "gat": 603,
      "aie": 604,
      "ym": 605,
      "lek": 606,
      "gvs": 607,
      "synt": 608,
      "wf": 609,
      "gld": 610,
      "lat": 611,
      "nll": 612,
      "lad": 613,
      "lis": 614,
      "pal": 615,
      "aai": 616,
      "glt": 617,
      "lar": 618,
      "vat": 619,
      "vkk": 620,
      "lrs": 621,
      "qal": 622,
      "avi": 623,
      "gvi": 624,
      "lnt": 625,
      "vke": 626,
      "vlk": 627,
      "gvt": 628,
      "vgs": 629,
      "plp": 630,
      "yw": 631,
      "glk": 632,
      "vde": 633,
      "aat": 634,
      "ssss": 635,
      "pgs": 636,
      "gle": 637,
      "ment": 638,
      "ter": 639,
      "lsd": 640,
      "lai": 641,
      "gggg": 642,
      "dse": 643,
      "lld": 644,
      "gae": 645,
      "llt": 646,
      "hydr": 647,
      "lds": 648,
      "gly": 649,
      "alt": 650,
      "alr": 651,
      "klv": 652,
      "vlp": 653,
      "ant": 654,
      "klk": 655,
      "die": 656,
      "wq": 657,
      "ali": 658,
      "pre": 659,
      "pls": 660,
      "vvs": 661,
      "gar": 662,
      "lfe": 663,
      "vad": 664,
      "vte": 665,
      "wy": 666,
      "lrr": 667,
      "var": 668,
      "vli": 669,
      "llr": 670,
      "lli": 671,
      "ssi": 672,
      "pas": 673,
      "vie": 674,
      "lfs": 675,
      "pgg": 676,
      "aar": 677,
      "lst": 678,
      "kav": 679,
      "grr": 680,
      "comple": 681,
      "let": 682,
      "pla": 683,
      "mas": 684,
      "prote": 685,
      "ais": 686,
      "ler": 687,
      "phos": 688,
      "gse": 689,
      "plv": 690,
      "mal": 691,
      "mat": 692,
      "gke": 693,
      "complex": 694,
      "vlq": 695,
      "pse": 696,
      "gad": 697,
      "dlv": 698,
      "dal": 699,
      "len": 700,
      "eei": 701,
      "gks": 702,
      "gve": 703,
      "lsr": 704,
      "gai": 705,
      "gie": 706,
      "sst": 707,
      "hm": 708,
      "daa": 709,
      "llll": 710,
      "int": 711,
      "protein": 712,
      "klr": 713,
      "glf": 714,
      "lkd": 715,
      "vak": 716,
      "cat": 717,
      "lin": 718,
      "kki": 719,
      "lgt": 720,
      "kvv": 721,
      "ace": 722,
      "pav": 723,
      "tis": 724,
      "lqs": 725,
      "vai": 726,
      "iw": 727,
      "pvv": 728,
      "synthe": 729,
      "gts": 730,
      "taa": 731,
      "fls": 732,
      "gis": 733,
      "gfs": 734,
      "kei": 735,
      "dls": 736,
      "nes": 737,
      "dgs": 738,
      "ggi": 739,
      "gvd": 740,
      "gki": 741,
      "pag": 742,
      "lme": 743,
      "qaa": 744,
      "aqe": 745,
      "gte": 746,
      "kak": 747,
      "vre": 748,
      "kla": 749,
      "lkn": 750,
      "pap": 751,
      "mc": 752,
      "dav": 753,
      "vis": 754,
      "gak": 755,
      "gkt": 756,
      "pti": 757,
      "rrr": 758,
      "pppp": 759,
      "vts": 760,
      "gti": 761,
      "kli": 762,
      "klg": 763,
      "gdi": 764,
      "ren": 765,
      "ges": 766,
      "kls": 767,
      "rane": 768,
      "aes": 769,
      "aei": 770,
      "llq": 771,
      "biosynthe": 772,
      "gap": 773,
      "ves": 774,
      "yla": 775,
      "pps": 776,
      "ldi": 777,
      "memb": 778,
      "lvt": 779,
      "dle": 780,
      "dei": 781,
      "membrane": 782,
      "respo": 783,
      "biosynthetic": 784,
      "fse": 785,
      "bin": 786,
      "ggr": 787,
      "gds": 788,
      "transpo": 789,
      "response": 790,
      "vlf": 791,
      "ding": 792,
      "agt": 793,
      "ars": 794,
      "kks": 795,
      "gvk": 796,
      "pvs": 797,
      "arr": 798,
      "kai": 799,
      "lkt": 800,
      "dvv": 801,
      "vps": 802,
      "llf": 803,
      "lsi": 804,
      "lgr": 805,
      "vpe": 806,
      "ats": 807,
      "grs": 808,
      "kle": 809,
      "lkr": 810,
      "rei": 811,
      "qee": 812,
      "aer": 813,
      "vgd": 814,
      "dld": 815,
      "tss": 816,
      "wh": 817,
      "vgi": 818,
      "vge": 819,
      "afe": 820,
      "kin": 821,
      "qlv": 822,
      "tie": 823,
      "vrs": 824,
      "pgt": 825,
      "dis": 826,
      "rrs": 827,
      "lln": 828,
      "kag": 829,
      "aks": 830,
      "vds": 831,
      "gps": 832,
      "lki": 833,
      "dif": 834,
      "ferase": 835,
      "fgg": 836,
      "lrd": 837,
      "pen": 838,
      "par": 839,
      "qav": 840,
      "lan": 841,
      "vks": 842,
      "red": 843,
      "ltt": 844,
      "ame": 845,
      "binding": 846,
      "lms": 847,
      "tin": 848,
      "ald": 849,
      "gde": 850,
      "cept": 851,
      "laq": 852,
      "asi": 853,
      "pes": 854,
      "lys": 855,
      "flv": 856,
      "vgt": 857,
      "kld": 858,
      "tse": 859,
      "kss": 860,
      "mss": 861,
      "vvi": 862,
      "car": 863,
      "ceptor": 864,
      "pld": 865,
      "lvd": 866,
      "qls": 867,
      "ads": 868,
      "eeee": 869,
      "vrr": 870,
      "glq": 871,
      "lgf": 872,
      "lvi": 873,
      "dde": 874,
      "kgk": 875,
      "plt": 876,
      "kvi": 877,
      "wm": 878,
      "gri": 879,
      "gnal": 880,
      "raa": 881,
      "ggt": 882,
      "vaq": 883,
      "plr": 884,
      "vdi": 885,
      "vgk": 886,
      "ast": 887,
      "pvt": 888,
      "gei": 889,
      "avt": 890,
      "qlq": 891,
      "rlr": 892,
      "gst": 893,
      "lye": 894,
      "lei": 895,
      "dss": 896,
      "wc": 897,
      "kie": 898,
      "krr": 899,
      "fss": 900,
      "metabolic": 901,
      "dlp": 902,
      "deve": 903,
      "dli": 904,
      "klt": 905,
      "aii": 906,
      "pae": 907,
      "receptor": 908,
      "ees": 909,
      "pet": 910,
      "gsi": 911,
      "dae": 912,
      "pli": 913,
      "klp": 914,
      "nsi": 915,
      "kvk": 916,
      "pts": 917,
      "att": 918,
      "kse": 919,
      "des": 920,
      "kvs": 921,
      "tri": 922,
      "vo": 923,
      "vfs": 924,
      "mae": 925,
      "dlt": 926,
      "fla": 927,
      "kae": 928,
      "kgi": 929,
      "vti": 930,
      "ari": 931,
      "fld": 932,
      "gpr": 933,
      "vap": 934,
      "pge": 935,
      "gaf": 936,
      "vvt": 937,
      "klq": 938,
      "kve": 939,
      "lsn": 940,
      "plg": 941,
      "aqs": 942,
      "vln": 943,
      "mw": 944,
      "rlv": 945,
      "flg": 946,
      "qle": 947,
      "lved": 948,
      "glu": 949,
      "pad": 950,
      "qla": 951,
      "gni": 952,
      "qlr": 953,
      "vfe": 954,
      "kas": 955,
      "dlr": 956,
      "flr": 957,
      "kri": 958,
      "kvt": 959,
      "vgr": 960,
      "gfe": 961,
      "mkk": 962,
      "nss": 963,
      "dri": 964,
      "pvi": 965,
      "kds": 966,
      "rse": 967,
      "cw": 968,
      "qli": 969,
      "akr": 970,
      "agr": 971,
      "pgp": 972,
      "gpp": 973,
      "gii": 974,
      "aki": 975,
      "pkk": 976,
      "ain": 977,
      "ple": 978,
      "vaf": 979,
      "vst": 980,
      "kar": 981,
      "os": 982,
      "kes": 983,
      "ams": 984,
      "yll": 985,
      "signal": 986,
      "get": 987,
      "dii": 988,
      "grt": 989,
      "qqqq": 990,
      "aaf": 991,
      "ise": 992,
      "lfi": 993,
      "avr": 994,
      "ldt": 995,
      "cm": 996,
      "pgd": 997,
      "nie": 998,
      "oxy": 999,
      "phosph": 1000,
      "vgv": 1001,
      "gln": 1002,
      "vqe": 1003,
      "lii": 1004,
      "vpt": 1005,
      "aad": 1006,
      "lpt": 1007,
      "kgg": 1008,
      "lsq": 1009,
      "ver": 1010,
      "ttt": 1011,
      "gtt": 1012,
      "vsi": 1013,
      "mar": 1014,
      "ltrans": 1015,
      "vvd": 1016,
      "fee": 1017,
      "kdi": 1018,
      "ltransferase": 1019,
      "lpi": 1020,
      "invo": 1021,
      "pst": 1022,
      "asr": 1023,
      "pei": 1024,
      "mll": 1025,
      "gkr": 1026,
      "vpp": 1027,
      "ami": 1028,
      "lhs": 1029,
      "aln": 1030,
      "ger": 1031,
      "prs": 1032,
      "kis": 1033,
      "aet": 1034,
      "qlg": 1035,
      "involved": 1036,
      "pve": 1037,
      "catabolic": 1038,
      "gaq": 1039,
      "per": 1040,
      "ldr": 1041,
      "kii": 1042,
      "kkr": 1043,
      "tst": 1044,
      "plf": 1045,
      "pment": 1046,
      "lrn": 1047,
      "rer": 1048,
      "lopment": 1049,
      "ksi": 1050,
      "development": 1051,
      "krs": 1052,
      "gnt": 1053,
      "pds": 1054,
      "gns": 1055,
      "fle": 1056,
      "flt": 1057,
      "pai": 1058,
      "lhe": 1059,
      "aly": 1060,
      "aan": 1061,
      "git": 1062,
      "gsr": 1063,
      "hll": 1064,
      "mav": 1065,
      "lri": 1066,
      "lce": 1067,
      "ucle": 1068,
      "kge": 1069,
      "dgk": 1070,
      "lit": 1071,
      "lkq": 1072,
      "dla": 1073,
      "aaq": 1074,
      "dgt": 1075,
      "mak": 1076,
      "mse": 1077,
      "lvn": 1078,
      "dlg": 1079,
      "nis": 1080,
      "vki": 1081,
      "kte": 1082,
      "gys": 1083,
      "vet": 1084,
      "vei": 1085,
      "dvi": 1086,
      "alq": 1087,
      "ygg": 1088,
      "dai": 1089,
      "den": 1090,
      "lrt": 1091,
      "vly": 1092,
      "hydro": 1093,
      "um": 1094,
      "nei": 1095,
      "kgs": 1096,
      "kvd": 1097,
      "eet": 1098,
      "ken": 1099,
      "lvr": 1100,
      "vgf": 1101,
      "ris": 1102,
      "gvr": 1103,
      "qss": 1104,
      "lsf": 1105,
      "kaf": 1106,
      "kkt": 1107,
      "dps": 1108,
      "ww": 1109,
      "gan": 1110,
      "klf": 1111,
      "mad": 1112,
      "tit": 1113,
      "signaling": 1114,
      "aye": 1115,
      "vns": 1116,
      "rie": 1117,
      "ker": 1118,
      "fo": 1119,
      "flk": 1120,
      "pte": 1121,
      "dlk": 1122,
      "gdt": 1123,
      "alf": 1124,
      "ket": 1125,
      "pgq": 1126,
      "methy": 1127,
      "kde": 1128,
      "kat": 1129,
      "kni": 1130,
      "vpr": 1131,
      "aay": 1132,
      "lqr": 1133,
      "van": 1134,
      "lgn": 1135,
      "qlt": 1136,
      "laf": 1137,
      "agf": 1138,
      "ggn": 1139,
      "rri": 1140,
      "vkt": 1141,
      "gye": 1142,
      "art": 1143,
      "ppr": 1144,
      "ait": 1145,
      "akt": 1146,
      "dvs": 1147,
      "ssr": 1148,
      "qae": 1149,
      "lqt": 1150,
      "vkr": 1151,
      "vye": 1152,
      "zation": 1153,
      "gre": 1154,
      "mee": 1155,
      "kps": 1156,
      "mag": 1157,
      "kti": 1158,
      "nls": 1159,
      "pvp": 1160,
      "dve": 1161,
      "kvf": 1162,
      "tei": 1163,
      "nst": 1164,
      "gpe": 1165,
      "dpe": 1166,
      "dge": 1167,
      "dag": 1168,
      "vri": 1169,
      "ary": 1170,
      "mer": 1171,
      "pgr": 1172,
      "dgg": 1173,
      "gqe": 1174,
      "kgt": 1175,
      "kln": 1176,
      "dvd": 1177,
      "vtt": 1178,
      "apt": 1179,
      "fde": 1180,
      "pis": 1181,
      "pde": 1182,
      "vvr": 1183,
      "vay": 1184,
      "genase": 1185,
      "vsr": 1186,
      "gay": 1187,
      "fie": 1188,
      "vit": 1189,
      "nte": 1190,
      "kad": 1191,
      "ldn": 1192,
      "pvd": 1193,
      "nit": 1194,
      "qlp": 1195,
      "tes": 1196,
      "rsr": 1197,
      "kgf": 1198,
      "pgi": 1199,
      "dsi": 1200,
      "pgv": 1201,
      "kts": 1202,
      "ppe": 1203,
      "flp": 1204,
      "gne": 1205,
      "dlf": 1206,
      "lir": 1207,
      "transport": 1208,
      "ven": 1209,
      "qlk": 1210,
      "qai": 1211,
      "gqs": 1212,
      "lgy": 1213,
      "das": 1214,
      "vlh": 1215,
      "llh": 1216,
      "lay": 1217,
      "lly": 1218,
      "fgs": 1219,
      "plq": 1220,
      "pgk": 1221,
      "vne": 1222,
      "qvv": 1223,
      "vys": 1224,
      "lsy": 1225,
      "kpe": 1226,
      "ptt": 1227,
      "hway": 1228,
      "pathway": 1229,
      "ltn": 1230,
      "qei": 1231,
      "dvt": 1232,
      "paq": 1233,
      "gfi": 1234,
      "pks": 1235,
      "su": 1236,
      "pfs": 1237,
      "vgn": 1238,
      "aen": 1239,
      "pit": 1240,
      "mlr": 1241,
      "fvs": 1242,
      "kky": 1243,
      "qas": 1244,
      "avn": 1245,
      "dad": 1246,
      "ho": 1247,
      "vnt": 1248,
      "psi": 1249,
      "his": 1250,
      "kgd": 1251,
      "ssn": 1252,
      "fke": 1253,
      "qse": 1254,
      "vgp": 1255,
      "lqn": 1256,
      "flf": 1257,
      "eer": 1258,
      "vni": 1259,
      "dit": 1260,
      "akn": 1261,
      "vkn": 1262,
      "fal": 1263,
      "dgd": 1264,
      "qaq": 1265,
      "dat": 1266,
      "dgr": 1267,
      "din": 1268,
      "vpi": 1269,
      "lsh": 1270,
      "tsi": 1271,
      "qvs": 1272,
      "fag": 1273,
      "mai": 1274,
      "paf": 1275,
      "qag": 1276,
      "mu": 1277,
      "rrn": 1278,
      "gkn": 1279,
      "ppt": 1280,
      "fst": 1281,
      "fli": 1282,
      "pie": 1283,
      "faa": 1284,
      "qie": 1285,
      "fat": 1286,
      "fav": 1287,
      "lah": 1288,
      "fae": 1289,
      "kgr": 1290,
      "fas": 1291,
      "plk": 1292,
      "ino": 1293,
      "psr": 1294,
      "rsi": 1295,
      "api": 1296,
      "qgg": 1297,
      "ur": 1298,
      "dkk": 1299,
      "kaq": 1300,
      "kly": 1301,
      "fis": 1302,
      "yld": 1303,
      "dpr": 1304,
      "qrr": 1305,
      "qri": 1306,
      "nii": 1307,
      "fts": 1308,
      "cellular": 1309,
      "du": 1310,
      "aah": 1311,
      "vin": 1312,
      "fsi": 1313,
      "afi": 1314,
      "dgi": 1315,
      "pke": 1316,
      "kit": 1317,
      "mes": 1318,
      "dke": 1319,
      "gft": 1320,
      "vir": 1321,
      "glh": 1322,
      "qke": 1323,
      "vqs": 1324,
      "det": 1325,
      "man": 1326,
      "vgq": 1327,
      "pkd": 1328,
      "pak": 1329,
      "dlq": 1330,
      "pdd": 1331,
      "pan": 1332,
      "yse": 1333,
      "vii": 1334,
      "ction": 1335,
      "agn": 1336,
      "qkk": 1337,
      "vrt": 1338,
      "cre": 1339,
      "kqe": 1340,
      "fvv": 1341,
      "dds": 1342,
      "nad": 1343,
      "nts": 1344,
      "gsy": 1345,
      "vdt": 1346,
      "acid": 1347,
      "lft": 1348,
      "ggy": 1349,
      "vlc": 1350,
      "aft": 1351,
      "pns": 1352,
      "asse": 1353,
      "flq": 1354,
      "nlv": 1355,
      "qld": 1356,
      "qve": 1357,
      "tiation": 1358,
      "lky": 1359,
      "ret": 1360,
      "ktt": 1361,
      "gvn": 1362,
      "lnr": 1363,
      "llc": 1364,
      "glm": 1365,
      "een": 1366,
      "gam": 1367,
      "ssy": 1368,
      "pvf": 1369,
      "fad": 1370,
      "lnn": 1371,
      "end": 1372,
      "qge": 1373,
      "agy": 1374,
      "gsn": 1375,
      "prr": 1376,
      "bu": 1377,
      "mls": 1378,
      "qar": 1379,
      "ays": 1380,
      "dst": 1381,
      "mld": 1382,
      "kre": 1383,
      "qps": 1384,
      "alh": 1385,
      "glc": 1386,
      "air": 1387,
      "rrt": 1388,
      "mgg": 1389,
      "vqq": 1390,
      "kst": 1391,
      "vvy": 1392,
      "kvr": 1393,
      "ply": 1394,
      "qki": 1395,
      "kns": 1396,
      "kgv": 1397,
      "vsn": 1398,
      "fgi": 1399,
      "tii": 1400,
      "gqi": 1401,
      "pvk": 1402,
      "form": 1403,
      "fvd": 1404,
      "aqr": 1405,
      "ner": 1406,
      "rii": 1407,
      "adt": 1408,
      "dvk": 1409,
      "fve": 1410,
      "css": 1411,
      "ghs": 1412,
      "vvn": 1413,
      "daf": 1414,
      "gpt": 1415,
      "kty": 1416,
      "kgy": 1417,
      "vgy": 1418,
      "fkk": 1419,
      "yee": 1420,
      "nesis": 1421,
      "dln": 1422,
      "fge": 1423,
      "yle": 1424,
      "lqi": 1425,
      "dki": 1426,
      "kdd": 1427,
      "pqs": 1428,
      "cyt": 1429,
      "ylg": 1430,
      "adr": 1431,
      "gdr": 1432,
      "fic": 1433,
      "mke": 1434,
      "plas": 1435,
      "qes": 1436,
      "fak": 1437,
      "qvt": 1438,
      "gir": 1439,
      "qat": 1440,
      "ghe": 1441,
      "hlv": 1442,
      "vah": 1443,
      "gah": 1444,
      "kvn": 1445,
      "fes": 1446,
      "cgk": 1447,
      "lase": 1448,
      "pii": 1449,
      "pgf": 1450,
      "tet": 1451,
      "mlv": 1452,
      "pkt": 1453,
      "nucle": 1454,
      "nin": 1455,
      "pvn": 1456,
      "yls": 1457,
      "rna": 1458,
      "kqi": 1459,
      "mle": 1460,
      "cll": 1461,
      "dkd": 1462,
      "pdi": 1463,
      "acto": 1464,
      "ylr": 1465,
      "maq": 1466,
      "kkn": 1467,
      "fds": 1468,
      "ddi": 1469,
      "dts": 1470,
      "mki": 1471,
      "pvr": 1472,
      "ggh": 1473,
      "vtn": 1474,
      "map": 1475,
      "qgs": 1476,
      "vlm": 1477,
      "rls": 1478,
      "lpn": 1479,
      "mei": 1480,
      "gin": 1481,
      "pkp": 1482,
      "fps": 1483,
      "pqe": 1484,
      "pdt": 1485,
      "ldy": 1486,
      "ght": 1487,
      "ffs": 1488,
      "gvy": 1489,
      "mvs": 1490,
      "genesis": 1491,
      "rin": 1492,
      "qis": 1493,
      "cgg": 1494,
      "cgs": 1495,
      "lgh": 1496,
      "ated": 1497,
      "pln": 1498,
      "mgs": 1499,
      "aky": 1500,
      "pqq": 1501,
      "wll": 1502,
      "ome": 1503,
      "kan": 1504,
      "us": 1505,
      "vfi": 1506,
      "fdd": 1507,
      "asn": 1508,
      "atr": 1509,
      "qpp": 1510,
      "dfs": 1511,
      "far": 1512,
      "vtr": 1513,
      "aqi": 1514,
      "gpi": 1515,
      "fgd": 1516,
      "qvi": 1517,
      "alph": 1518,
      "fln": 1519,
      "mlk": 1520,
      "qlf": 1521,
      "kpt": 1522,
      "bet": 1523,
      "kap": 1524,
      "phosphate": 1525,
      "qgk": 1526,
      "ahe": 1527,
      "ntt": 1528,
      "mkt": 1529,
      "ric": 1530,
      "gqt": 1531,
      "dpd": 1532,
      "aqt": 1533,
      "qak": 1534,
      "feren": 1535,
      "dly": 1536,
      "lac": 1537,
      "vft": 1538,
      "vdr": 1539,
      "dfe": 1540,
      "fgr": 1541,
      "asy": 1542,
      "dsr": 1543,
      "differen": 1544,
      "differentiation": 1545,
      "kne": 1546,
      "fvi": 1547,
      "fgk": 1548,
      "kay": 1549,
      "fvk": 1550,
      "prt": 1551,
      "gyi": 1552,
      "eey": 1553,
      "xx": 1554,
      "hal": 1555,
      "kvp": 1556,
      "nlt": 1557,
      "ylv": 1558,
      "dak": 1559,
      "fkd": 1560,
      "kfs": 1561,
      "pgh": 1562,
      "lgc": 1563,
      "kye": 1564,
      "hlr": 1565,
      "mlt": 1566,
      "kpd": 1567,
      "mtt": 1568,
      "dti": 1569,
      "pri": 1570,
      "hlp": 1571,
      "qgi": 1572,
      "gty": 1573,
      "dgv": 1574,
      "mve": 1575,
      "pepti": 1576,
      "lyt": 1577,
      "uct": 1578,
      "nlp": 1579,
      "ngs": 1580,
      "pki": 1581,
      "mts": 1582,
      "mlg": 1583,
      "org": 1584,
      "beta": 1585,
      "qrs": 1586,
      "ksr": 1587,
      "lcs": 1588,
      "mla": 1589,
      "kvy": 1590,
      "drs": 1591,
      "nap": 1592,
      "plh": 1593,
      "dye": 1594,
      "agh": 1595,
      "vsy": 1596,
      "nal": 1597,
      "qaf": 1598,
      "lkh": 1599,
      "ex": 1600,
      "pvq": 1601,
      "isi": 1602,
      "pgn": 1603,
      "qgr": 1604,
      "mor": 1605,
      "fgt": 1606,
      "lrh": 1607,
      "fvt": 1608,
      "kpi": 1609,
      "mli": 1610,
      "qln": 1611,
      "fet": 1612,
      "pvy": 1613,
      "medi": 1614,
      "vac": 1615,
      "leh": 1616,
      "giy": 1617,
      "key": 1618,
      "qgq": 1619,
      "dgf": 1620,
      "ten": 1621,
      "avy": 1622,
      "mie": 1623,
      "dpt": 1624,
      "kgq": 1625,
      "yl": 1626,
      "krt": 1627,
      "transmembrane": 1628,
      "trn": 1629,
      "mvv": 1630,
      "ist": 1631,
      "frr": 1632,
      "dvf": 1633,
      "gky": 1634,
      "frs": 1635,
      "qqe": 1636,
      "aey": 1637,
      "glw": 1638,
      "der": 1639,
      "dir": 1640,
      "ayi": 1641,
      "mito": 1642,
      "kpr": 1643,
      "kvq": 1644,
      "lfr": 1645,
      "tsr": 1646,
      "dgq": 1647,
      "gyt": 1648,
      "dvp": 1649,
      "lvh": 1650,
      "mrr": 1651,
      "ley": 1652,
      "qad": 1653,
      "klh": 1654,
      "vam": 1655,
      "vgh": 1656,
      "fte": 1657,
      "lpy": 1658,
      "fpe": 1659,
      "net": 1660,
      "lyi": 1661,
      "kpp": 1662,
      "mds": 1663,
      "dfi": 1664,
      "mgr": 1665,
      "lry": 1666,
      "psn": 1667,
      "gtr": 1668,
      "ot": 1669,
      "dte": 1670,
      "mlp": 1671,
      "kyr": 1672,
      "mte": 1673,
      "ahs": 1674,
      "fks": 1675,
      "rit": 1676,
      "dks": 1677,
      "qre": 1678,
      "lfn": 1679,
      "knt": 1680,
      "maf": 1681,
      "alc": 1682,
      "fei": 1683,
      "kgn": 1684,
      "pys": 1685,
      "rsrs": 1686,
      "do": 1687,
      "fsr": 1688,
      "mbly": 1689,
      "assembly": 1690,
      "dvr": 1691,
      "nic": 1692,
      "fvn": 1693,
      "lyr": 1694,
      "pnt": 1695,
      "lvy": 1696,
      "vqt": 1697,
      "hls": 1698,
      "pgy": 1699,
      "gry": 1700,
      "gdy": 1701,
      "ies": 1702,
      "aiy": 1703,
      "qet": 1704,
      "vvh": 1705,
      "mis": 1706,
      "gcs": 1707,
      "aty": 1708,
      "mit": 1709,
      "kys": 1710,
      "phospho": 1711,
      "kqs": 1712,
      "qts": 1713,
      "tir": 1714,
      "qer": 1715,
      "gac": 1716,
      "liy": 1717,
      "phe": 1718,
      "kir": 1719,
      "hpe": 1720,
      "dna": 1721,
      "dgn": 1722,
      "kqq": 1723,
      "pfi": 1724,
      "lall": 1725,
      "fgf": 1726,
      "mde": 1727,
      "pay": 1728,
      "arn": 1729,
      "dddd": 1730,
      "gms": 1731,
      "nsn": 1732,
      "tys": 1733,
      "kfi": 1734,
      "qdi": 1735,
      "rst": 1736,
      "rter": 1737,
      "qvr": 1738,
      "lation": 1739,
      "ono": 1740,
      "anr": 1741,
      "morpho": 1742,
      "mks": 1743,
      "qvk": 1744,
      "lph": 1745,
      "ktr": 1746,
      "afr": 1747,
      "tye": 1748,
      "dap": 1749,
      "alaa": 1750,
      "fdt": 1751,
      "pni": 1752,
      "avh": 1753,
      "rir": 1754,
      "gdn": 1755,
      "morphogenesis": 1756,
      "asss": 1757,
      "by": 1758,
      "pkr": 1759,
      "mkr": 1760,
      "qkr": 1761,
      "vgc": 1762,
      "dehydro": 1763,
      "cla": 1764,
      "lty": 1765,
      "vdy": 1766,
      "fre": 1767,
      "qks": 1768,
      "vms": 1769,
      "mvk": 1770,
      "vyi": 1771,
      "vme": 1772,
      "nen": 1773,
      "atn": 1774,
      "ses": 1775,
      "gnn": 1776,
      "ftt": 1777,
      "qds": 1778,
      "acety": 1779,
      "ady": 1780,
      "duction": 1781,
      "dar": 1782,
      "fvf": 1783,
      "lsc": 1784,
      "kdt": 1785,
      "mlq": 1786,
      "qgt": 1787,
      "gpn": 1788,
      "qqi": 1789,
      "dtt": 1790,
      "dft": 1791,
      "vhs": 1792,
      "fan": 1793,
      "qqs": 1794,
      "fvr": 1795,
      "hgi": 1796,
      "kfe": 1797,
      "gluco": 1798,
      "qap": 1799,
      "fpd": 1800,
      "mgk": 1801,
      "avc": 1802,
      "hss": 1803,
      "hgg": 1804,
      "qsi": 1805,
      "kkkk": 1806,
      "type": 1807,
      "dys": 1808,
      "qii": 1809,
      "dni": 1810,
      "vqi": 1811,
      "rry": 1812,
      "mps": 1813,
      "aac": 1814,
      "lwe": 1815,
      "ier": 1816,
      "fgn": 1817,
      "yss": 1818,
      "dre": 1819,
      "no": 1820,
      "klm": 1821,
      "fai": 1822,
      "hvv": 1823,
      "kqr": 1824,
      "mvd": 1825,
      "agc": 1826,
      "ddt": 1827,
      "ktn": 1828,
      "hlg": 1829,
      "yst": 1830,
      "vqr": 1831,
      "mre": 1832,
      "fdi": 1833,
      "gsgs": 1834,
      "hlq": 1835,
      "mst": 1836,
      "faq": 1837,
      "lyn": 1838,
      "formation": 1839,
      "qpe": 1840,
      "lht": 1841,
      "cri": 1842,
      "hase": 1843,
      "isr": 1844,
      "knn": 1845,
      "qgf": 1846,
      "qpt": 1847,
      "asc": 1848,
      "aaal": 1849,
      "fdr": 1850,
      "vhe": 1851,
      "lth": 1852,
      "fki": 1853,
      "aaw": 1854,
      "vsh": 1855,
      "alpha": 1856,
      "fqs": 1857,
      "kam": 1858,
      "pfd": 1859,
      "men": 1860,
      "mvi": 1861,
      "mvt": 1862,
      "qni": 1863,
      "gey": 1864,
      "gqr": 1865,
      "dpn": 1866,
      "mgi": 1867,
      "pye": 1868,
      "qvp": 1869,
      "rrrr": 1870,
      "dyi": 1871,
      "mic": 1872,
      "vgm": 1873,
      "aaav": 1874,
      "dey": 1875,
      "gyr": 1876,
      "fii": 1877,
      "ddy": 1878,
      "vnn": 1879,
      "gsc": 1880,
      "fvp": 1881,
      "che": 1882,
      "grn": 1883,
      "dvy": 1884,
      "qte": 1885,
      "qly": 1886,
      "wls": 1887,
      "qqr": 1888,
      "kyi": 1889,
      "kfd": 1890,
      "late": 1891,
      "fit": 1892,
      "fap": 1893,
      "fin": 1894,
      "eeh": 1895,
      "gtn": 1896,
      "vdn": 1897,
      "fkn": 1898,
      "daq": 1899,
      "mns": 1900,
      "psy": 1901,
      "ayt": 1902,
      "drr": 1903,
      "qkt": 1904,
      "tsn": 1905,
      "kkh": 1906,
      "lhr": 1907,
      "ldh": 1908,
      "gsh": 1909,
      "dehydrogenase": 1910,
      "fly": 1911,
      "pfe": 1912,
      "ash": 1913,
      "gny": 1914,
      "dns": 1915,
      "aeh": 1916,
      "ntr": 1917,
      "dgy": 1918,
      "fsn": 1919,
      "cse": 1920,
      "vnr": 1921,
      "afn": 1922,
      "vrn": 1923,
      "lhi": 1924,
      "qst": 1925,
      "organi": 1926,
      "mkd": 1927,
      "fgv": 1928,
      "qvf": 1929,
      "alw": 1930,
      "gkc": 1931,
      "ggw": 1932,
      "qns": 1933,
      "qvd": 1934,
      "pdy": 1935,
      "lsw": 1936,
      "lny": 1937,
      "qpq": 1938,
      "lvc": 1939,
      "pah": 1940,
      "plm": 1941,
      "msi": 1942,
      "fkr": 1943,
      "gvc": 1944,
      "qu": 1945,
      "line": 1946,
      "ved": 1947,
      "kgp": 1948,
      "nnn": 1949,
      "spe": 1950,
      "fns": 1951,
      "gfr": 1952,
      "ysi": 1953,
      "pir": 1954,
      "sie": 1955,
      "fqe": 1956,
      "ltc": 1957,
      "pqi": 1958,
      "ssc": 1959,
      "adn": 1960,
      "lam": 1961,
      "laal": 1962,
      "dsy": 1963,
      "pey": 1964,
      "afy": 1965,
      "gfn": 1966,
      "trt": 1967,
      "ghi": 1968,
      "gagg": 1969,
      "lih": 1970,
      "dsn": 1971,
      "can": 1972,
      "ffe": 1973,
      "gfy": 1974,
      "fpt": 1975,
      "eed": 1976,
      "ded": 1977,
      "lnh": 1978,
      "mgt": 1979,
      "law": 1980,
      "fti": 1981,
      "ksn": 1982,
      "transporter": 1983,
      "pft": 1984,
      "and": 1985,
      "ax": 1986,
      "lial": 1987,
      "yes": 1988,
      "aale": 1989,
      "mvr": 1990,
      "kry": 1991,
      "qfs": 1992,
      "musc": 1993,
      "gmi": 1994,
      "lsll": 1995,
      "phs": 1996,
      "mti": 1997,
      "aaag": 1998,
      "gsw": 1999,
      "nine": 2000,
      "kdr": 2001,
      "fen": 2002,
      "sine": 2003,
      "gaw": 2004,
      "gnr": 2005,
      "lfy": 2006,
      "vcs": 2007,
      "ol": 2008,
      "alal": 2009,
      "diy": 2010,
      "lqh": 2011,
      "qti": 2012,
      "ssh": 2013,
      "pqr": 2014,
      "qtt": 2015,
      "frn": 2016,
      "fne": 2017,
      "lsss": 2018,
      "nsr": 2019,
      "gro": 2020,
      "ysr": 2021,
      "lws": 2022,
      "fgp": 2023,
      "mam": 2024,
      "pgc": 2025,
      "ann": 2026,
      "qsr": 2027,
      "tro": 2028,
      "amino": 2029,
      "pgm": 2030,
      "mrt": 2031,
      "ggc": 2032,
      "kdy": 2033,
      "fgy": 2034,
      "pin": 2035,
      "pkn": 2036,
      "alle": 2037,
      "vey": 2038,
      "fpp": 2039,
      "mge": 2040,
      "act": 2041,
      "dfd": 2042,
      "ddn": 2043,
      "leq": 2044,
      "kiy": 2045,
      "vqn": 2046,
      "aall": 2047,
      "vfr": 2048,
      "vty": 2049,
      "tsy": 2050,
      "gvh": 2051,
      "her": 2052,
      "kqt": 2053,
      "otic": 2054,
      "qen": 2055,
      "ghr": 2056,
      "dne": 2057,
      "hes": 2058,
      "clr": 2059,
      "krn": 2060,
      "dgp": 2061,
      "pqt": 2062,
      "synthase": 2063,
      "dkt": 2064,
      "wth": 2065,
      "aaas": 2066,
      "qde": 2067,
      "vce": 2068,
      "kpy": 2069,
      "inter": 2070,
      ")-": 2071,
      "fqr": 2072,
      "mrs": 2073,
      "pdr": 2074,
      "muscle": 2075,
      "dkn": 2076,
      "flh": 2077,
      "qgv": 2078,
      "fsy": 2079,
      "cys": 2080,
      "dvn": 2081,
      "lgw": 2082,
      "rrh": 2083,
      "ayr": 2084,
      "mlf": 2085,
      "reduct": 2086,
      "qgd": 2087,
      "phi": 2088,
      "mediated": 2089,
      "fni": 2090,
      "mpp": 2091,
      "lmt": 2092,
      "qir": 2093,
      "fkt": 2094,
      "mkn": 2095,
      "keh": 2096,
      "om": 2097,
      "apy": 2098,
      "poly": 2099,
      "mgf": 2100,
      "qpr": 2101,
      "reductase": 2102,
      "dent": 2103,
      "ptr": 2104,
      "avaa": 2105,
      "deh": 2106,
      "arh": 2107,
      "yei": 2108,
      "klc": 2109,
      "iei": 2110,
      "qfe": 2111,
      "dan": 2112,
      "fvq": 2113,
      "gic": 2114,
      "msn": 2115,
      "kah": 2116,
      "mri": 2117,
      "qgp": 2118,
      "vmt": 2119,
      "viy": 2120,
      "gkh": 2121,
      "vyt": 2122,
      "dvq": 2123,
      "gyy": 2124,
      "acs": 2125,
      "pfr": 2126,
      "llw": 2127,
      "vhi": 2128,
      "qvq": 2129,
      "aih": 2130,
      "gme": 2131,
      "vky": 2132,
      "vdh": 2133,
      "rine": 2134,
      "faf": 2135,
      "fpq": 2136,
      "dine": 2137,
      "vpy": 2138,
      "amt": 2139,
      "mpr": 2140,
      "pnn": 2141,
      "lmi": 2142,
      "ppi": 2143,
      "vpn": 2144,
      "hydroxy": 2145,
      "kdn": 2146,
      "msr": 2147,
      "kinase": 2148,
      "clv": 2149,
      "nir": 2150,
      "host": 2151,
      "pne": 2152,
      "veh": 2153,
      "tem": 2154,
      "sii": 2155,
      "fys": 2156,
      "ffi": 2157,
      "qpi": 2158,
      "geh": 2159,
      "side": 2160,
      "flc": 2161,
      "dlh": 2162,
      "mgn": 2163,
      "qvn": 2164,
      "qrt": 2165,
      "dpq": 2166,
      "vesi": 2167,
      "ksy": 2168,
      "ayy": 2169,
      "aqn": 2170,
      "iii": 2171,
      "mdd": 2172,
      "isn": 2173,
      "cls": 2174,
      "mdi": 2175,
      "mpe": 2176,
      "prn": 2177,
      "dec": 2178,
      "ance": 2179,
      "actor": 2180,
      "vaal": 2181,
      "llal": 2182,
      "any": 2183,
      "drt": 2184,
      "leee": 2185,
      "fph": 2186,
      "ath": 2187,
      "fft": 2188,
      "qkq": 2189,
      "mtr": 2190,
      "qit": 2191,
      "gmt": 2192,
      "vaw": 2193,
      "tiy": 2194,
      "reh": 2195,
      "dqe": 2196,
      "mgv": 2197,
      "peh": 2198,
      "pvc": 2199,
      "day": 2200,
      "dkr": 2201,
      "pvh": 2202,
      "qlh": 2203,
      "wld": 2204,
      "qkn": 2205,
      "dpi": 2206,
      "ma": 2207,
      "aaai": 2208,
      "vsc": 2209,
      "grh": 2210,
      "vny": 2211,
      "gtc": 2212,
      "kmi": 2213,
      "lgll": 2214,
      "anti": 2215,
      "sion": 2216,
      "frt": 2217,
      "vkh": 2218,
      "rsy": 2219,
      "mgd": 2220,
      "gsgg": 2221,
      "neu": 2222,
      "gfh": 2223,
      "ttn": 2224,
      "qdd": 2225,
      "kny": 2226,
      "lct": 2227,
      "pyi": 2228,
      "gws": 2229,
      "rey": 2230,
      "sei": 2231,
      "iet": 2232,
      "qgy": 2233,
      "kgh": 2234,
      "khi": 2235,
      "vsw": 2236,
      "hei": 2237,
      "dky": 2238,
      "asw": 2239,
      "ntn": 2240,
      "fri": 2241,
      "apn": 2242,
      "fkp": 2243,
      "akh": 2244,
      "cis": 2245,
      "lllv": 2246,
      "clk": 2247,
      "lqy": 2248,
      "vfn": 2249,
      "pdn": 2250,
      "ting": 2251,
      "lyy": 2252,
      "dqs": 2253,
      "fpr": 2254,
      "fye": 2255,
      "factor": 2256,
      "cyte": 2257,
      "fnt": 2258,
      "pfy": 2259,
      "kvh": 2260,
      "ptn": 2261,
      "ahi": 2262,
      "fsh": 2263,
      "cyc": 2264,
      "dqi": 2265,
      "mono": 2266,
      "aci": 2267,
      "qkd": 2268,
      "apap": 2269,
      "clp": 2270,
      "ftn": 2271,
      "mqe": 2272,
      "ayn": 2273,
      "ahr": 2274,
      "pky": 2275,
      "avll": 2276,
      "pty": 2277,
      "ion": 2278,
      "wlv": 2279,
      "leu": 2280,
      "lig": 2281,
      "inn": 2282,
      "qne": 2283,
      "rsn": 2284,
      "fvh": 2285,
      "qky": 2286,
      "was": 2287,
      "vry": 2288,
      "fdn": 2289,
      "glut": 2290,
      "mrf": 2291,
      "rsh": 2292,
      "vfy": 2293,
      "dry": 2294,
      "mvn": 2295,
      "gqn": 2296,
      "cali": 2297,
      "agw": 2298,
      "mni": 2299,
      "mfs": 2300,
      "qpd": 2301,
      "gth": 2302,
      "psh": 2303,
      "dty": 2304,
      "mnt": 2305,
      "ien": 2306,
      "vlw": 2307,
      "qvy": 2308,
      "ddr": 2309,
      "dkp": 2310,
      "khs": 2311,
      "set": 2312,
      "qtr": 2313,
      "cag": 2314,
      "fgq": 2315,
      "fqq": 2316,
      "drn": 2317,
      "gall": 2318,
      "qam": 2319,
      "via": 2320,
      "mkf": 2321,
      "aaar": 2322,
      "ttr": 2323,
      "dfy": 2324,
      "oxid": 2325,
      "glaa": 2326,
      "hlk": 2327,
      "vvc": 2328,
      "fir": 2329,
      "growth": 2330,
      "qan": 2331,
      "aagg": 2332,
      "depen": 2333,
      "nsy": 2334,
      "iit": 2335,
      "aeee": 2336,
      "dependent": 2337,
      "mln": 2338,
      "wlp": 2339,
      "mne": 2340,
      "pam": 2341,
      "kyn": 2342,
      "dpp": 2343,
      "wee": 2344,
      "aeal": 2345,
      "vih": 2346,
      "ghy": 2347,
      "lmn": 2348,
      "yet": 2349,
      "plc": 2350,
      "fdy": 2351,
      "cas": 2352,
      "wgg": 2353,
      "ckk": 2354,
      "wlr": 2355,
      "adh": 2356,
      "fpn": 2357,
      "gih": 2358,
      "vht": 2359,
      "endo": 2360,
      "cps": 2361,
      "ftr": 2362,
      "dtr": 2363,
      "dpk": 2364,
      "pkq": 2365,
      "may": 2366,
      "dam": 2367,
      "wkk": 2368,
      "lvll": 2369,
      "qgn": 2370,
      "aaae": 2371,
      "lfh": 2372,
      "llee": 2373,
      "gyn": 2374,
      "aaap": 2375,
      "ab": 2376,
      "rla": 2377,
      "riy": 2378,
      "vtc": 2379,
      "htge": 2380,
      "fqi": 2381,
      "gce": 2382,
      "kft": 2383,
      "aaat": 2384,
      "qsn": 2385,
      "klw": 2386,
      "atase": 2387,
      "'-": 2388,
      "cpe": 2389,
      "has": 2390,
      "kac": 2391,
      "ption": 2392,
      "knr": 2393,
      "hli": 2394,
      "rdn": 2395,
      "hle": 2396,
      "qqt": 2397,
      "ryi": 2398,
      "clg": 2399,
      "lhn": 2400,
      "dnt": 2401,
      "kfr": 2402,
      "mkq": 2403,
      "qft": 2404,
      "gpy": 2405,
      "pyt": 2406,
      "ffd": 2407,
      "lpll": 2408,
      "vth": 2409,
      "piy": 2410,
      "awe": 2411,
      "dpf": 2412,
      "lcr": 2413,
      "amine": 2414,
      "calization": 2415,
      "cke": 2416,
      "kms": 2417,
      "pyr": 2418,
      "qdr": 2419,
      "niy": 2420,
      "localization": 2421,
      "lus": 2422,
      "dtn": 2423,
      "fhs": 2424,
      "mac": 2425,
      "pkf": 2426,
      "qin": 2427,
      "waa": 2428,
      "cyto": 2429,
      "qlm": 2430,
      "qkf": 2431,
      "alae": 2432,
      "qry": 2433,
      "oxygenase": 2434,
      "min": 2435,
      "qay": 2436,
      "qys": 2437,
      "llss": 2438,
      "aqy": 2439,
      "qey": 2440,
      "dyt": 2441,
      "dlm": 2442,
      "fqt": 2443,
      "wlk": 2444,
      "lhc": 2445,
      "laae": 2446,
      "nny": 2447,
      "fvy": 2448,
      "wss": 2449,
      "llag": 2450,
      "pgw": 2451,
      "vall": 2452,
      "alar": 2453,
      "yer": 2454,
      "pac": 2455,
      "ysy": 2456,
      "secre": 2457,
      "hld": 2458,
      "llls": 2459,
      "dkf": 2460,
      "wlg": 2461,
      "hla": 2462,
      "mvf": 2463,
      "vyr": 2464,
      "cge": 2465,
      "leal": 2466,
      "gct": 2467,
      "dgh": 2468,
      "fqn": 2469,
      "kgm": 2470,
      "pry": 2471,
      "gqy": 2472,
      "chon": 2473,
      "vws": 2474,
      "agag": 2475,
      "ney": 2476,
      "fication": 2477,
      "mdf": 2478,
      "lkc": 2479,
      "lci": 2480,
      "hlt": 2481,
      "kmt": 2482,
      "vmi": 2483,
      "wle": 2484,
      "dic": 2485,
      "ahy": 2486,
      "hst": 2487,
      "qqn": 2488,
      "kyh": 2489,
      "llke": 2490,
      "teri": 2491,
      "production": 2492,
      "gsss": 2493,
      "grc": 2494,
      "nty": 2495,
      "tyr": 2496,
      "kyt": 2497,
      "rnr": 2498,
      "mrd": 2499,
      "nat": 2500,
      "leke": 2501,
      "asal": 2502,
      "con": 2503,
      "fkq": 2504,
      "mgq": 2505,
      "tyt": 2506,
      "lhh": 2507,
      "merase": 2508,
      "avw": 2509,
      "ysn": 2510,
      "cst": 2511,
      "dfr": 2512,
      "last": 2513,
      "lglp": 2514,
      "lpw": 2515,
      "aeaa": 2516,
      "hsr": 2517,
      "ryr": 2518,
      "pms": 2519,
      "mvp": 2520,
      "lid": 2521,
      "vic": 2522,
      "dsh": 2523,
      "box": 2524,
      "fpi": 2525,
      "ffr": 2526,
      "pkv": 2527,
      "lllt": 2528,
      "kme": 2529,
      "lllg": 2530,
      "gggs": 2531,
      "lifer": 2532,
      "qfi": 2533,
      "prh": 2534,
      "aph": 2535,
      "gyc": 2536,
      "mdt": 2537,
      "qdt": 2538,
      "lvvv": 2539,
      "prolifer": 2540,
      "vhr": 2541,
      "syltransferase": 2542,
      "chro": 2543,
      "nucleo": 2544,
      "vlaa": 2545,
      "wit": 2546,
      "kkc": 2547,
      "aht": 2548,
      "dfn": 2549,
      "mpi": 2550,
      "aaee": 2551,
      "lari": 2552,
      "alls": 2553,
      "qkv": 2554,
      "bon": 2555,
      "qnt": 2556,
      "aic": 2557,
      "coa": 2558,
      "llas": 2559,
      "agaa": 2560,
      "mey": 2561,
      "isy": 2562,
      "kpn": 2563,
      "proliferation": 2564,
      "mfe": 2565,
      "gpc": 2566,
      "try": 2567,
      "gci": 2568,
      "glal": 2569,
      "wal": 2570,
      "llkk": 2571,
      "afh": 2572,
      "qsy": 2573,
      "pny": 2574,
      "speci": 2575,
      "tty": 2576,
      "vyn": 2577,
      "transcri": 2578,
      "grll": 2579,
      "grgg": 2580,
      "hav": 2581,
      "str": 2582,
      "gpgg": 2583,
      "rdlk": 2584,
      "cav": 2585,
      "fvc": 2586,
      "mah": 2587,
      "llaa": 2588,
      "krh": 2589,
      "wke": 2590,
      "war": 2591,
      "lval": 2592,
      "yen": 2593,
      "methyltransferase": 2594,
      "dqd": 2595,
      "sti": 2596,
      "ppn": 2597,
      "apo": 2598,
      "sulf": 2599,
      "kcs": 2600,
      "mdr": 2601,
      "ces": 2602,
      "flm": 2603,
      "pcs": 2604,
      "qdf": 2605,
      "rlg": 2606,
      "mgp": 2607,
      "cee": 2608,
      "mkv": 2609,
      "wrr": 2610,
      "migr": 2611,
      "ldd": 2612,
      "tsh": 2613,
      "pyy": 2614,
      "ylase": 2615,
      "khe": 2616,
      "mvq": 2617,
      "mqr": 2618,
      "like": 2619,
      "ser": 2620,
      "nnnn": 2621,
      "wla": 2622,
      "aral": 2623,
      "qgm": 2624,
      "ltls": 2625,
      "lqd": 2626,
      "qqy": 2627,
      "plw": 2628,
      "llar": 2629,
      "aglv": 2630,
      "psc": 2631,
      "ksh": 2632,
      "mii": 2633,
      "fyt": 2634,
      "qty": 2635,
      "lgls": 2636,
      "ked": 2637,
      "lrc": 2638,
      "ppy": 2639,
      "lmr": 2640,
      "fay": 2641,
      "glgg": 2642,
      "mpt": 2643,
      "mft": 2644,
      "mnn": 2645,
      "ggss": 2646,
      "avav": 2647,
      "aws": 2648,
      "lkal": 2649,
      "ffn": 2650,
      "pwt": 2651,
      "fty": 2652,
      "mdy": 2653,
      "so": 2654,
      "lyh": 2655,
      "hhhh": 2656,
      "ide": 2657,
      "asas": 2658,
      "amn": 2659,
      "lgal": 2660,
      "gph": 2661,
      "amin": 2662,
      "qrn": 2663,
      "chan": 2664,
      "asll": 2665,
      "qsh": 2666,
      "uron": 2667,
      "aeae": 2668,
      "secretion": 2669,
      "qkp": 2670,
      "alee": 2671,
      "helial": 2672,
      "hrs": 2673,
      "rele": 2674,
      "pid": 2675,
      "dede": 2676,
      "dsgg": 2677,
      "hvi": 2678,
      "rav": 2679,
      "vvag": 2680,
      "lkee": 2681,
      "nyi": 2682,
      "dtag": 2683,
      "pqn": 2684,
      "fpv": 2685,
      "mqs": 2686,
      "rag": 2687,
      "tu": 2688,
      "dpv": 2689,
      "mgy": 2690,
      "mrk": 2691,
      "qpf": 2692,
      "wav": 2693,
      "caa": 2694,
      "hgs": 2695,
      "ou": 2696,
      "pnc": 2697,
      "asgg": 2698,
      "aiaa": 2699,
      "mfd": 2700,
      "tero": 2701,
      "lkke": 2702,
      "mly": 2703,
      "ree": 2704,
      "atp": 2705,
      "cpp": 2706,
      "hpd": 2707,
      "lfc": 2708,
      "dyy": 2709,
      "be": 2710,
      "rkk": 2711,
      "vvav": 2712,
      "akal": 2713,
      "cardi": 2714,
      "carbox": 2715,
      "fpf": 2716,
      "kph": 2717,
      "kgc": 2718,
      "vlal": 2719,
      "lgd": 2720,
      "agll": 2721,
      "wlt": 2722,
      "lvaa": 2723,
      "gwe": 2724,
      "ngt": 2725,
      "sit": 2726,
      "fnn": 2727,
      "qgh": 2728,
      "wgs": 2729,
      "qyi": 2730,
      "tih": 2731,
      "aed": 2732,
      "tttt": 2733,
      "crs": 2734,
      "pepe": 2735,
      "ddh": 2736,
      "enz": 2737,
      "organization": 2738,
      "gaal": 2739,
      "gdw": 2740,
      "lhy": 2741,
      "kfn": 2742,
      "clt": 2743,
      "pme": 2744,
      "larr": 2745,
      "lsgg": 2746,
      "fiy": 2747,
      "kyy": 2748,
      "vct": 2749,
      "mkp": 2750,
      "qvh": 2751,
      "qhs": 2752,
      "avla": 2753,
      "mitochon": 2754,
      "mitochondri": 2755,
      "fqk": 2756,
      "qlc": 2757,
      "tide": 2758,
      "gew": 2759,
      "kine": 2760,
      "dcs": 2761,
      "paw": 2762,
      "lrw": 2763,
      "pph": 2764,
      "aqh": 2765,
      "kfy": 2766,
      "cld": 2767,
      "crr": 2768,
      "fnd": 2769,
      "mmu": 2770,
      "dpy": 2771,
      "fgh": 2772,
      "mys": 2773,
      "ose": 2774,
      "qye": 2775,
      "aass": 2776,
      "mrn": 2777,
      "rgg": 2778,
      "wlq": 2779,
      "lsal": 2780,
      "activ": 2781,
      "mqq": 2782,
      "mqi": 2783,
      "fky": 2784,
      "pmt": 2785,
      "kkk": 2786,
      "vrh": 2787,
      "gnh": 2788,
      "kth": 2789,
      "vyy": 2790,
      "mgm": 2791,
      "wvs": 2792,
      "phr": 2793,
      "qac": 2794,
      "qah": 2795,
      "lass": 2796,
      "lsee": 2797,
      "tyi": 2798,
      "kqy": 2799,
      "cho": 2800,
      "tor": 2801,
      "pall": 2802,
      "asaa": 2803,
      "lglg": 2804,
      "iso": 2805,
      "dyl": 2806,
      "kqn": 2807,
      "dny": 2808,
      "qfd": 2809,
      "aqc": 2810,
      "tsc": 2811,
      "vfh": 2812,
      "het": 2813,
      "fyn": 2814,
      "rmin": 2815,
      "dkv": 2816,
      "aell": 2817,
      "micr": 2818,
      "migration": 2819,
      "fqd": 2820,
      "gec": 2821,
      "gdh": 2822,
      "lake": 2823,
      "adc": 2824,
      "mnd": 2825,
      "nvv": 2826,
      "leve": 2827,
      "aval": 2828,
      "nih": 2829,
      "dase": 2830,
      "amy": 2831,
      "apopt": 2832,
      "alss": 2833,
      "alke": 2834,
      "lrll": 2835,
      "kih": 2836,
      "aaak": 2837,
      "lell": 2838,
      "fey": 2839,
      "inr": 2840,
      "ncs": 2841,
      "cli": 2842,
      "rss": 2843,
      "rih": 2844,
      "itn": 2845,
      "qeh": 2846,
      "ano": 2847,
      "from": 2848,
      "wvr": 2849,
      "grgr": 2850,
      "vesicle": 2851,
      "clq": 2852,
      "cln": 2853,
      "qdy": 2854,
      "agls": 2855,
      "ldw": 2856,
      "synap": 2857,
      "pkh": 2858,
      "qfr": 2859,
      "qpn": 2860,
      "ssw": 2861,
      "agav": 2862,
      "tey": 2863,
      "mms": 2864,
      "mky": 2865,
      "qnn": 2866,
      "cgr": 2867,
      "dme": 2868,
      "llvv": 2869,
      "alkk": 2870,
      "eew": 2871,
      "lwi": 2872,
      "tone": 2873,
      "transferase": 2874,
      "dhs": 2875,
      "mvh": 2876,
      "llgg": 2877,
      "alre": 2878,
      "vvgg": 2879,
      "psw": 2880,
      "nsh": 2881,
      "pth": 2882,
      "ataa": 2883,
      "lale": 2884,
      "ngg": 2885,
      "prc": 2886,
      "lgld": 2887,
      "dete": 2888,
      "qvm": 2889,
      "lslp": 2890,
      "vgag": 2891,
      "aals": 2892,
      "mdn": 2893,
      "leae": 2894,
      "dvh": 2895,
      "mye": 2896,
      "lagg": 2897,
      "apaa": 2898,
      "lllf": 2899,
      "gcr": 2900,
      "transcription": 2901,
      "dah": 2902,
      "llvt": 2903,
      "gdc": 2904,
      "tol": 2905,
      "llat": 2906,
      "avas": 2907,
      "gvw": 2908,
      "apoptotic": 2909,
      "fvg": 2910,
      "lvw": 2911,
      "sir": 2912,
      "hydrox": 2913,
      "fgm": 2914,
      "ltd": 2915,
      "gkst": 2916,
      "mati": 2917,
      "llav": 2918,
      "phy": 2919,
      "ghh": 2920,
      "ytn": 2921,
      "llla": 2922,
      "ltw": 2923,
      "acr": 2924,
      "sen": 2925,
      "lwr": 2926,
      "mtn": 2927,
      "aaaq": 2928,
      "agal": 2929,
      "tyn": 2930,
      "hen": 2931,
      "fme": 2932,
      "lsls": 2933,
      "lrlr": 2934,
      "atc": 2935,
      "grw": 2936,
      "gyh": 2937,
      "amr": 2938,
      "pnr": 2939,
      "osome": 2940,
      "mfr": 2941,
      "liw": 2942,
      "vdw": 2943,
      "immu": 2944,
      "aagi": 2945,
      "kkw": 2946,
      "rell": 2947,
      "vpc": 2948,
      "mine": 2949,
      "lkks": 2950,
      "peptidyl": 2951,
      "synaptic": 2952,
      "dlc": 2953,
      "calci": 2954,
      "dvm": 2955,
      "fah": 2956,
      "eelr": 2957,
      "lpc": 2958,
      "gwt": 2959,
      "mlm": 2960,
      "qkh": 2961,
      "nvt": 2962,
      "algg": 2963,
      "alrr": 2964,
      "vwe": 2965,
      "hee": 2966,
      "sys": 2967,
      "avlv": 2968,
      "dih": 2969,
      "qiy": 2970,
      "dnn": 2971,
      "imp": 2972,
      "nlg": 2973,
      "vagg": 2974,
      "lakk": 2975,
      "vvlv": 2976,
      "lkll": 2977,
      "ldc": 2978,
      "nel": 2979,
      "gnc": 2980,
      "lcy": 2981,
      "mitotic": 2982,
      "neuro": 2983,
      "dqq": 2984,
      "fcs": 2985,
      "qfy": 2986,
      "laee": 2987,
      "asgs": 2988,
      "aglt": 2989,
      "msy": 2990,
      "interleu": 2991,
      "interleukin": 2992,
      "mrq": 2993,
      "atw": 2994,
      "gtw": 2995,
      "plasma": 2996,
      "kgw": 2997,
      "mpn": 2998,
      "vsll": 2999,
      "psps": 3000,
      "vqy": 3001,
      "bule": 3002,
      "peptide": 3003,
      "gigg": 3004,
      "gtgs": 3005,
      "pht": 3006,
      "alas": 3007,
      "ssst": 3008,
      "pqy": 3009,
      "laai": 3010,
      "qpv": 3011,
      "rae": 3012,
      "llae": 3013,
      "agad": 3014,
      "lyc": 3015,
      "kmn": 3016,
      "qme": 3017,
      "lavs": 3018,
      "avvv": 3019,
      "nsw": 3020,
      "dsc": 3021,
      "ning": 3022,
      "vkc": 3023,
      "gvll": 3024,
      "fkv": 3025,
      "fate": 3026,
      "glls": 3027,
      "ort": 3028,
      "aakk": 3029,
      "ktc": 3030,
      "histone": 3031,
      "fkf": 3032,
      "mlh": 3033,
      "mpd": 3034,
      "vsss": 3035,
      "eelk": 3036,
      "eeei": 3037,
      "leav": 3038,
      "lglv": 3039,
      "teh": 3040,
      "gqc": 3041,
      "acy": 3042,
      "vlgg": 3043,
      "eec": 3044,
      "tiss": 3045,
      "aeav": 3046,
      "araa": 3047,
      "cen": 3048,
      "mir": 3049,
      "lwt": 3050,
      "nyy": 3051,
      "wli": 3052,
      "alah": 3053,
      "vigg": 3054,
      "aikk": 3055,
      "kec": 3056,
      "kht": 3057,
      "vlss": 3058,
      "lagr": 3059,
      "pell": 3060,
      "gqh": 3061,
      "dyr": 3062,
      "iir": 3063,
      "nyr": 3064,
      "mme": 3065,
      "wai": 3066,
      "lgla": 3067,
      "vph": 3068,
      "kvc": 3069,
      "csr": 3070,
      "rqn": 3071,
      "laas": 3072,
      "lals": 3073,
      "ssd": 3074,
      "agas": 3075,
      "ltal": 3076,
      "lppp": 3077,
      "cet": 3078,
      "anh": 3079,
      "lare": 3080,
      "ldal": 3081,
      "ped": 3082,
      "cei": 3083,
      "pdh": 3084,
      "rfy": 3085,
      "mqd": 3086,
      "qff": 3087,
      "vlls": 3088,
      "wgk": 3089,
      "dsd": 3090,
      "nnr": 3091,
      "mvy": 3092,
      "cer": 3093,
      "ahgkk": 3094,
      "dyn": 3095,
      "fyi": 3096,
      "cytos": 3097,
      "wak": 3098,
      "hir": 3099,
      "channel": 3100,
      "fpg": 3101,
      "nav": 3102,
      "lage": 3103,
      "eede": 3104,
      "peri": 3105,
      "gkvv": 3106,
      "akaa": 3107,
      "hsh": 3108,
      "calcium": 3109,
      "arw": 3110,
      "gran": 3111,
      "ted": 3112,
      "kdc": 3113,
      "pic": 3114,
      "lmy": 3115,
      "flw": 3116,
      "kaw": 3117,
      "kmd": 3118,
      "ssgs": 3119,
      "lslv": 3120,
      "advv": 3121,
      "hydrolase": 3122,
      "llli": 3123,
      "lpd": 3124,
      "chlo": 3125,
      "kell": 3126,
      "kele": 3127,
      "akd": 3128,
      "alag": 3129,
      "ssls": 3130,
      "rrw": 3131,
      "fry": 3132,
      "gwi": 3133,
      "fnr": 3134,
      "leei": 3135,
      "aggs": 3136,
      "ccy": 3137,
      "br": 3138,
      "qph": 3139,
      "ggag": 3140,
      "avse": 3141,
      "aiae": 3142,
      "lflv": 3143,
      "ksc": 3144,
      "ach": 3145,
      "lplp": 3146,
      "rrc": 3147,
      "tetr": 3148,
      "ktw": 3149,
      "hps": 3150,
      "ure": 3151,
      "llse": 3152,
      "aavv": 3153,
      "lgav": 3154,
      "lkw": 3155,
      "adav": 3156,
      "dsw": 3157,
      "glyco": 3158,
      "mlc": 3159,
      "nvs": 3160,
      "plic": 3161,
      "rec": 3162,
      "gkw": 3163,
      "action": 3164,
      "awi": 3165,
      "cor": 3166,
      "giw": 3167,
      "ltaa": 3168,
      "kvle": 3169,
      "kci": 3170,
      "plasmic": 3171,
      "chemo": 3172,
      "dhi": 3173,
      "fmi": 3174,
      "qdn": 3175,
      "aave": 3176,
      "lkei": 3177,
      "assi": 3178,
      "nuclear": 3179,
      "fny": 3180,
      "mqt": 3181,
      "ssgg": 3182,
      "lgag": 3183,
      "lkav": 3184,
      "vtw": 3185,
      "lhvd": 3186,
      "trh": 3187,
      "phosphatase": 3188,
      "dew": 3189,
      "vgls": 3190,
      "ccr": 3191,
      "ssll": 3192,
      "eeal": 3193,
      "aew": 3194,
      "kew": 3195,
      "aqaa": 3196,
      "gdvv": 3197,
      "psss": 3198,
      "ltpe": 3199,
      "ish": 3200,
      "ssion": 3201,
      "pew": 3202,
      "akc": 3203,
      "rhr": 3204,
      "dkq": 3205,
      "fvm": 3206,
      "gu": 3207,
      "mpq": 3208,
      "mpf": 3209,
      "tal": 3210,
      "lavv": 3211,
      "lapt": 3212,
      "leki": 3213,
      "akak": 3214,
      "qqh": 3215,
      "drh": 3216,
      "siy": 3217,
      "gmn": 3218,
      "rny": 3219,
      "mone": 3220,
      "vcr": 3221,
      "esr": 3222,
      "fpy": 3223,
      "qhi": 3224,
      "vlas": 3225,
      "lekk": 3226,
      "dth": 3227,
      "rfn": 3228,
      "epit": 3229,
      "asis": 3230,
      "lglt": 3231,
      "adlv": 3232,
      "trna": 3233,
      "qpg": 3234,
      "tar": 3235,
      "leaa": 3236,
      "avve": 3237,
      "neuron": 3238,
      "apw": 3239,
      "ysh": 3240,
      "fih": 3241,
      "rdh": 3242,
      "ryy": 3243,
      "ju": 3244,
      "klee": 3245,
      "eeae": 3246,
      "lspe": 3247,
      "avae": 3248,
      "lral": 3249,
      "lrrr": 3250,
      "lqc": 3251,
      "iny": 3252,
      "lcc": 3253,
      "activation": 3254,
      "lkaa": 3255,
      "pspp": 3256,
      "gktt": 3257,
      "qny": 3258,
      "ldll": 3259,
      "lplv": 3260,
      "cec": 3261,
      "vqh": 3262,
      "lcn": 3263,
      "gmr": 3264,
      "mitochondrial": 3265,
      "dms": 3266,
      "dgc": 3267,
      "fgc": 3268,
      "alav": 3269,
      "eele": 3270,
      "gfc": 3271,
      "syn": 3272,
      "lsaa": 3273,
      "vvss": 3274,
      "gsll": 3275,
      "kekk": 3276,
      "kic": 3277,
      "gvgg": 3278,
      "qcs": 3279,
      "lgaa": 3280,
      "agla": 3281,
      "ato": 3282,
      "ppc": 3283,
      "kdh": 3284,
      "dnr": 3285,
      "awt": 3286,
      "vci": 3287,
      "tkty": 3288,
      "fpk": 3289,
      "lon": 3290,
      "pmd": 3291,
      "avgg": 3292,
      "arll": 3293,
      "apss": 3294,
      "apse": 3295,
      "ole": 3296,
      "fsc": 3297,
      "lnc": 3298,
      "dqn": 3299,
      "fms": 3300,
      "mfi": 3301,
      "mgc": 3302,
      "llgn": 3303,
      "lak": 3304,
      "lvas": 3305,
      "ltee": 3306,
      "aiw": 3307,
      "pec": 3308,
      "lflg": 3309,
      "gfgg": 3310,
      "feh": 3311,
      "knh": 3312,
      "vgw": 3313,
      "lkki": 3314,
      "tial": 3315,
      "frh": 3316,
      "qtn": 3317,
      "khy": 3318,
      "wat": 3319,
      "lvls": 3320,
      "lkgt": 3321,
      "adll": 3322,
      "rsc": 3323,
      "vhn": 3324,
      "gcyc": 3325,
      "mpv": 3326,
      "mny": 3327,
      "lsae": 3328,
      "lvgg": 3329,
      "lgvs": 3330,
      "gnw": 3331,
      "pfn": 3332,
      "awr": 3333,
      "kmr": 3334,
      "gass": 3335,
      "mass": 3336,
      "qvg": 3337,
      "lvke": 3338,
      "lraa": 3339,
      "ltgk": 3340,
      "deli": 3341,
      "ligase": 3342,
      "dqr": 3343,
      "kl": 3344,
      "qgc": 3345,
      "asls": 3346,
      "aglp": 3347,
      "ldkf": 3348,
      "aec": 3349,
      "lqal": 3350,
      "nten": 3351,
      "lsse": 3352,
      "qpk": 3353,
      "ubi": 3354,
      "eell": 3355,
      "gkgg": 3356,
      "tyy": 3357,
      "igg": 3358,
      "lede": 3359,
      "lrei": 3360,
      "qnr": 3361,
      "pglp": 3362,
      "mnp": 3363,
      "llvs": 3364,
      "lsps": 3365,
      "adw": 3366,
      "vrc": 3367,
      "vnh": 3368,
      "ahh": 3369,
      "rgkk": 3370,
      "fhe": 3371,
      "pmi": 3372,
      "qnd": 3373,
      "ule": 3374,
      "aags": 3375,
      "aavs": 3376,
      "ldls": 3377,
      "arc": 3378,
      "adgs": 3379,
      "khn": 3380,
      "aalr": 3381,
      "mgh": 3382,
      "alvv": 3383,
      "alat": 3384,
      "vvll": 3385,
      "agat": 3386,
      "akav": 3387,
      "sym": 3388,
      "kgkk": 3389,
      "dhe": 3390,
      "wnt": 3391,
      "lllp": 3392,
      "lew": 3393,
      "vec": 3394,
      "ppap": 3395,
      "gvgk": 3396,
      "processing": 3397,
      "ahn": 3398,
      "vhy": 3399,
      "vmr": 3400,
      "hio": 3401,
      "rvw": 3402,
      "cardiac": 3403,
      "llde": 3404,
      "lvss": 3405,
      "avai": 3406,
      "ribon": 3407,
      "krw": 3408,
      "yey": 3409,
      "pqh": 3410,
      "rth": 3411,
      "ryt": 3412,
      "spin": 3413,
      "ribonucle": 3414,
      "dgm": 3415,
      "qfn": 3416,
      "tas": 3417,
      "ssse": 3418,
      "pplp": 3419,
      "mqn": 3420,
      "mnf": 3421,
      "vsgg": 3422,
      "fsw": 3423,
      "vdc": 3424,
      "ckp": 3425,
      "kall": 3426,
      "pcc": 3427,
      "rli": 3428,
      "algs": 3429,
      "agld": 3430,
      "dend": 3431,
      "lfw": 3432,
      "adli": 3433,
      "sey": 3434,
      "csn": 3435,
      "hhh": 3436,
      "mhs": 3437,
      "ocyte": 3438,
      "vlkk": 3439,
      "algi": 3440,
      "eeed": 3441,
      "asgr": 3442,
      "adhe": 3443,
      "gpw": 3444,
      "qyr": 3445,
      "rrna": 3446,
      "xxxx": 3447,
      "qpy": 3448,
      "tgg": 3449,
      "prw": 3450,
      "aslv": 3451,
      "vvvv": 3452,
      "vtgg": 3453,
      "nyn": 3454,
      "htgekp": 3455,
      "import": 3456,
      "ubiqu": 3457,
      "au": 3458,
      "cks": 3459,
      "mpy": 3460,
      "laei": 3461,
      "lela": 3462,
      "lsas": 3463,
      "lgss": 3464,
      "gtll": 3465,
      "dqt": 3466,
      "fam": 3467,
      "up": 3468,
      "eeek": 3469,
      "lvlv": 3470,
      "delt": 3471,
      "lfll": 3472,
      "ppps": 3473,
      "kdgk": 3474,
      "vyh": 3475,
      "iiy": 3476,
      "rqy": 3477,
      "fyy": 3478,
      "fkh": 3479,
      "itin": 3480,
      "mmt": 3481,
      "mqk": 3482,
      "alde": 3483,
      "aapp": 3484,
      "lipid": 3485,
      "viw": 3486,
      "pfh": 3487,
      "dmi": 3488,
      "maal": 3489,
      "qhe": 3490,
      "lsav": 3491,
      "atat": 3492,
      "argi": 3493,
      "ttc": 3494,
      "msh": 3495,
      "ysw": 3496,
      "csy": 3497,
      "klaa": 3498,
      "alad": 3499,
      "aglq": 3500,
      "ltll": 3501,
      "nsc": 3502,
      "hyi": 3503,
      "qyy": 3504,
      "mrp": 3505,
      "papp": 3506,
      "vlgi": 3507,
      "alve": 3508,
      "lqee": 3509,
      "vtvt": 3510,
      "qrh": 3511,
      "rtn": 3512,
      "blast": 3513,
      "dph": 3514,
      "glgi": 3515,
      "ldei": 3516,
      "derm": 3517,
      "psls": 3518,
      "gevv": 3519,
      "akw": 3520,
      "ppss": 3521,
      "ribo": 3522,
      "pgss": 3523,
      "mulus": 3524,
      "glutam": 3525,
      "stimulus": 3526,
      "fgw": 3527,
      "fkg": 3528,
      "glss": 3529,
      "vlae": 3530,
      "alai": 3531,
      "lags": 3532,
      "lske": 3533,
      "kkll": 3534,
      "avlr": 3535,
      "lree": 3536,
      "vvaa": 3537,
      "agvs": 3538,
      "pslp": 3539,
      "gell": 3540,
      "lnw": 3541,
      "knc": 3542,
      "iey": 3543,
      "vglv": 3544,
      "body": 3545,
      "dkh": 3546,
      "vlee": 3547,
      "lgli": 3548,
      "ress": 3549,
      "dedd": 3550,
      "arar": 3551,
      "hsn": 3552,
      "lwn": 3553,
      "fyr": 3554,
      "lslg": 3555,
      "liss": 3556,
      "lish": 3557,
      "veal": 3558,
      "nec": 3559,
      "ring": 3560,
      "phric": 3561,
      "fce": 3562,
      "aavt": 3563,
      "aela": 3564,
      "nth": 3565,
      "kdw": 3566,
      "fth": 3567,
      "hsy": 3568,
      "syi": 3569,
      "inte": 3570,
      "kwi": 3571,
      "alak": 3572,
      "lsgs": 3573,
      "atgg": 3574,
      "ntai": 3575,
      "gggggg": 3576,
      "fac": 3577,
      "agvv": 3578,
      "mry": 3579,
      "eege": 3580,
      "lski": 3581,
      "giss": 3582,
      "lglk": 3583,
      "lill": 3584,
      "rew": 3585,
      "vdd": 3586,
      "afc": 3587,
      "ayh": 3588,
      "dtc": 3589,
      "yir": 3590,
      "yiy": 3591,
      "lggs": 3592,
      "lvlg": 3593,
      "kkee": 3594,
      "ligg": 3595,
      "agar": 3596,
      "atll": 3597,
      "aele": 3598,
      "aelv": 3599,
      "new": 3600,
      "ptw": 3601,
      "lmh": 3602,
      "kqh": 3603,
      "kvw": 3604,
      "mnr": 3605,
      "alse": 3606,
      "alsd": 3607,
      "ggls": 3608,
      "lsgt": 3609,
      "avlg": 3610,
      "ldri": 3611,
      "lppe": 3612,
      "aeq": 3613,
      "dell": 3614,
      "akll": 3615,
      "adap": 3616,
      "kale": 3617,
      "klke": 3618,
      "qyt": 3619,
      "vmp": 3620,
      "ssas": 3621,
      "liee": 3622,
      "vsas": 3623,
      "stn": 3624,
      "mkm": 3625,
      "qaw": 3626,
      "lsrr": 3627,
      "gslv": 3628,
      "divi": 3629,
      "adai": 3630,
      "tsll": 3631,
      "angi": 3632,
      "ddw": 3633,
      "lmc": 3634,
      "qth": 3635,
      "rfh": 3636,
      "kaal": 3637,
      "mvg": 3638,
      "aare": 3639,
      "lakr": 3640,
      "vvla": 3641,
      "qih": 3642,
      "nct": 3643,
      "rqh": 3644,
      "polymerase": 3645,
      "acellular": 3646,
      "dac": 3647,
      "mkh": 3648,
      "avld": 3649,
      "arrr": 3650,
      "vsal": 3651,
      "gfll": 3652,
      "dfh": 3653,
      "rpw": 3654,
      "agis": 3655,
      "nld": 3656,
      "qmi": 3657,
      "lllr": 3658,
      "llte": 3659,
      "leai": 3660,
      "avat": 3661,
      "gtgg": 3662,
      "gtgk": 3663,
      "gdlv": 3664,
      "isw": 3665,
      "ncy": 3666,
      "ffy": 3667,
      "pase": 3668,
      "lipo": 3669,
      "agai": 3670,
      "meh": 3671,
      "lggt": 3672,
      "cin": 3673,
      "dkc": 3674,
      "myt": 3675,
      "qms": 3676,
      "vaae": 3677,
      "alrs": 3678,
      "aake": 3679,
      "vvw": 3680,
      "agvi": 3681,
      "ltss": 3682,
      "gtlt": 3683,
      "aqll": 3684,
      "fila": 3685,
      "sitol": 3686,
      "dtw": 3687,
      "klkk": 3688,
      "lasi": 3689,
      "avkk": 3690,
      "avar": 3691,
      "lgve": 3692,
      "lrlv": 3693,
      "agvt": 3694,
      "deoxy": 3695,
      "lch": 3696,
      "ffh": 3697,
      "specification": 3698,
      "fkc": 3699,
      "kakk": 3700,
      "pws": 3701,
      "pass": 3702,
      "ggaa": 3703,
      "avee": 3704,
      "aeki": 3705,
      "deri": 3706,
      "vew": 3707,
      "ged": 3708,
      "vfc": 3709,
      "cu": 3710,
      "kake": 3711,
      "tlp": 3712,
      "vate": 3713,
      "gela": 3714,
      "rrlr": 3715,
      "gvlv": 3716,
      "phosphati": 3717,
      "teine": 3718,
      "pwtqr": 3719,
      "ssts": 3720,
      "aslp": 3721,
      "lgad": 3722,
      "lkgk": 3723,
      "devi": 3724,
      "aial": 3725,
      "kelet": 3726,
      "gkvn": 3727,
      "gvls": 3728,
      "inhi": 3729,
      "ftc": 3730,
      "vhh": 3731,
      "lali": 3732,
      "nvd": 3733,
      "qall": 3734,
      "lagi": 3735,
      "ggld": 3736,
      "avag": 3737,
      "ased": 3738,
      "vvee": 3739,
      "did": 3740,
      "csc": 3741,
      "pvw": 3742,
      "aaaaaaaa": 3743,
      "kws": 3744,
      "kaee": 3745,
      "qvc": 3746,
      "llld": 3747,
      "lllq": 3748,
      "sssss": 3749,
      "leks": 3750,
      "give": 3751,
      "rmr": 3752,
      "fhr": 3753,
      "kce": 3754,
      "qgw": 3755,
      "lave": 3756,
      "avss": 3757,
      "vent": 3758,
      "dikk": 3759,
      "ksw": 3760,
      "gqal": 3761,
      "vpw": 3762,
      "inh": 3763,
      "pdc": 3764,
      "pdw": 3765,
      "nci": 3766,
      "ryn": 3767,
      "lssi": 3768,
      "benz": 3769,
      "sis": 3770,
      "llsi": 3771,
      "lekr": 3772,
      "afw": 3773,
      "gyw": 3774,
      "gpgs": 3775,
      "vgde": 3776,
      "aaad": 3777,
      "lelv": 3778,
      "lslt": 3779,
      "lgas": 3780,
      "atas": 3781,
      "aevv": 3782,
      "aeai": 3783,
      "viral": 3784,
      "keal": 3785,
      "cero": 3786,
      "lqw": 3787,
      "akee": 3788,
      "kill": 3789,
      "gfw": 3790,
      "ddee": 3791,
      "isc": 3792,
      "pih": 3793,
      "yec": 3794,
      "into": 3795,
      "ubiquitin": 3796,
      "mph": 3797,
      "paal": 3798,
      "lvee": 3799,
      "neh": 3800,
      "dsds": 3801,
      "nge": 3802,
      "llgt": 3803,
      "vval": 3804,
      "lksi": 3805,
      "ldgk": 3806,
      "aelr": 3807,
      "gsls": 3808,
      "ptc": 3809,
      "mrna": 3810,
      "pce": 3811,
      "some": 3812,
      "ylt": 3813,
      "lagk": 3814,
      "lvgn": 3815,
      "lgkk": 3816,
      "agss": 3817,
      "lpee": 3818,
      "drc": 3819,
      "kfh": 3820,
      "khr": 3821,
      "idh": 3822,
      "hiy": 3823,
      "mgw": 3824,
      "mrv": 3825,
      "ngq": 3826,
      "lpss": 3827,
      "vsgs": 3828,
      "lfd": 3829,
      "grlv": 3830,
      "vkd": 3831,
      "vgll": 3832,
      "lgge": 3833,
      "mvm": 3834,
      "qlw": 3835,
      "laes": 3836,
      "eeve": 3837,
      "ltgg": 3838,
      "ltgt": 3839,
      "aelk": 3840,
      "vsvv": 3841,
      "eth": 3842,
      "mainten": 3843,
      "system": 3844,
      "maintenance": 3845,
      "go": 3846,
      "nli": 3847,
      "tlr": 3848,
      "avad": 3849,
      "real": 3850,
      "aege": 3851,
      "cent": 3852,
      "lqll": 3853,
      "apgg": 3854,
      "gvaa": 3855,
      "ddd": 3856,
      "loo": 3857,
      "mth": 3858,
      "ka": 3859,
      "lsla": 3860,
      "lsai": 3861,
      "vkal": 3862,
      "vdgg": 3863,
      "rsal": 3864,
      "ryh": 3865,
      "llsr": 3866,
      "otu": 3867,
      "hor": 3868,
      "llds": 3869,
      "lvgi": 3870,
      "lvae": 3871,
      "lgle": 3872,
      "aqw": 3873,
      "apas": 3874,
      "kiw": 3875,
      "lhw": 3876,
      "pnh": 3877,
      "lgis": 3878,
      "gl": 3879,
      "mall": 3880,
      "nai": 3881,
      "ras": 3882,
      "ssps": 3883,
      "gilt": 3884,
      "kklr": 3885,
      "tsw": 3886,
      "activat": 3887,
      "vgge": 3888,
      "monooxygenase": 3889,
      "hormone": 3890,
      "llge": 3891,
      "lgat": 3892,
      "vid": 3893,
      "kegi": 3894,
      "kelk": 3895,
      "gkll": 3896,
      "aqal": 3897,
      "agge": 3898,
      "pci": 3899,
      "rlq": 3900,
      "llks": 3901,
      "leas": 3902,
      "lias": 3903,
      "atav": 3904,
      "psll": 3905,
      "ned": 3906,
      "gtvt": 3907,
      "vkee": 3908,
      "mese": 3909,
      "vrd": 3910,
      "dyh": 3911,
      "kct": 3912,
      "methyl": 3913,
      "glas": 3914,
      "naa": 3915,
      "nlr": 3916,
      "rkr": 3917,
      "vass": 3918,
      "gid": 3919,
      "vvai": 3920,
      "atal": 3921,
      "akai": 3922,
      "vkw": 3923,
      "agie": 3924,
      "epithelial": 3925,
      "mvc": 3926,
      "ssvs": 3927,
      "aagv": 3928,
      "leag": 3929,
      "vslv": 3930,
      "lnd": 3931,
      "pos": 3932,
      "chloro": 3933,
      "cts": 3934,
      "fht": 3935,
      "tiw": 3936,
      "avls": 3937,
      "lgdy": 3938,
      "ldld": 3939,
      "lpls": 3940,
      "kelq": 3941,
      "apgs": 3942,
      "gdgg": 3943,
      "rsw": 3944,
      "lcgs": 3945,
      "aarr": 3946,
      "lvkk": 3947,
      "asav": 3948,
      "lgvp": 3949,
      "agli": 3950,
      "ltge": 3951,
      "lpal": 3952,
      "adal": 3953,
      "gpag": 3954,
      "galacto": 3955,
      "qqqqqqqq": 3956,
      "antigen": 3957,
      "cvs": 3958,
      "male": 3959,
      "vakk": 3960,
      "atvt": 3961,
      "aeas": 3962,
      "ard": 3963,
      "lqqq": 3964,
      "appe": 3965,
      "tstt": 3966,
      "rsls": 3967,
      "gqw": 3968,
      "kvld": 3969,
      "cycle": 3970,
      "mff": 3971,
      "rge": 3972,
      "llps": 3973,
      "ssee": 3974,
      "lgvk": 3975,
      "aekk": 3976,
      "keke": 3977,
      "vdpvn": 3978,
      "amh": 3979,
      "ghc": 3980,
      "frc": 3981,
      "gcy": 3982,
      "ound": 3983,
      "immune": 3984,
      "geee": 3985,
      "qhy": 3986,
      "llgs": 3987,
      "alaq": 3988,
      "aase": 3989,
      "avlt": 3990,
      "prrr": 3991,
      "atss": 3992,
      "apgp": 3993,
      "qew": 3994,
      "fdh": 3995,
      "iih": 3996,
      "anine": 3997,
      "cgt": 3998,
      "aage": 3999,
      "tid": 4000,
      "lvvs": 4001,
      "aigg": 4002,
      "gkvt": 4003,
      "vkahgkk": 4004,
      "gcn": 4005,
      "tnr": 4006,
      "aeei": 4007,
      "cysteine": 4008,
      "llfs": 4009,
      "laks": 4010,
      "leni": 4011,
      "lves": 4012,
      "agee": 4013,
      "relr": 4014,
      "veve": 4015,
      "keav": 4016,
      "gkd": 4017,
      "vtav": 4018,
      "grvv": 4019,
      "hey": 4020,
      "yyr": 4021,
      "mfp": 4022,
      "pmp": 4023,
      "lege": 4024,
      "likk": 4025,
      "lkpe": 4026,
      "ldlv": 4027,
      "gvss": 4028,
      "gfgf": 4029,
      "rnh": 4030,
      "khh": 4031,
      "cos": 4032,
      "lgie": 4033,
      "symbio": 4034,
      "nee": 4035,
      "nki": 4036,
      "tlv": 4037,
      "alan": 4038,
      "lkek": 4039,
      "dium": 4040,
      "vsls": 4041,
      "lfss": 4042,
      "vdav": 4043,
      "qec": 4044,
      "fib": 4045,
      "cine": 4046,
      "microtu": 4047,
      "gals": 4048,
      "mkg": 4049,
      "nla": 4050,
      "pu": 4051,
      "aagt": 4052,
      "eef": 4053,
      "gggt": 4054,
      "ledi": 4055,
      "lsad": 4056,
      "lgai": 4057,
      "lpav": 4058,
      "lpps": 4059,
      "geav": 4060,
      "afgg": 4061,
      "rslr": 4062,
      "gvlr": 4063,
      "ksll": 4064,
      "qell": 4065,
      "ddde": 4066,
      "knw": 4067,
      "pyri": 4068,
      "vgav": 4069,
      "dklhvd": 4070,
      "ccs": 4071,
      "klls": 4072,
      "mty": 4073,
      "yde": 4074,
      "lkai": 4075,
      "lkse": 4076,
      "atlv": 4077,
      "vigs": 4078,
      "vdaa": 4079,
      "lyw": 4080,
      "lnkk": 4081,
      "gvlt": 4082,
      "vrw": 4083,
      "vral": 4084,
      "lhlv": 4085,
      "cgi": 4086,
      "cgd": 4087,
      "hgt": 4088,
      "nfs": 4089,
      "plls": 4090,
      "rai": 4091,
      "tat": 4092,
      "the": 4093,
      "sslp": 4094,
      "agvp": 4095,
      "arlv": 4096,
      "rrar": 4097,
      "apll": 4098,
      "lnlv": 4099,
      "cvd": 4100,
      "fhy": 4101,
      "mfy": 4102,
      "qce": 4103,
      "wall": 4104,
      "aaan": 4105,
      "eekk": 4106,
      "lene": 4107,
      "lkdi": 4108,
      "veav": 4109,
      "gkvi": 4110,
      "adaa": 4111,
      "grpr": 4112,
      "kskk": 4113,
      "gygg": 4114,
      "contr": 4115,
      "rvv": 4116,
      "ylq": 4117,
      "lgvv": 4118,
      "ltlt": 4119,
      "kelv": 4120,
      "vsaa": 4121,
      "anpn": 4122,
      "gpgp": 4123,
      "dtagqe": 4124,
      "long": 4125,
      "fqy": 4126,
      "gagi": 4127,
      "klle": 4128,
      "mfn": 4129,
      "asd": 4130,
      "aslr": 4131,
      "agd": 4132,
      "vill": 4133,
      "lflt": 4134,
      "gvav": 4135,
      "ddc": 4136,
      "pvlv": 4137,
      "vgvv": 4138,
      "lhcdklhvd": 4139,
      "ene": 4140,
      "ngk": 4141,
      "vlke": 4142,
      "eekr": 4143,
      "ligs": 4144,
      "lide": 4145,
      "lddi": 4146,
      "relq": 4147,
      "aear": 4148,
      "gvlg": 4149,
      "miy": 4150,
      "oxo": 4151,
      "fqp": 4152,
      "qmt": 4153,
      "leri": 4154,
      "lkes": 4155,
      "ltlv": 4156,
      "ldaa": 4157,
      "gsvv": 4158,
      "akis": 4159,
      "adla": 4160,
      "tsas": 4161,
      "vpll": 4162,
      "vpvv": 4163,
      "krkk": 4164,
      "ieh": 4165,
      "pyh": 4166,
      "dnh": 4167,
      "vlds": 4168,
      "fvw": 4169,
      "vl": 4170,
      "vlle": 4171,
      "wgr": 4172,
      "lsvs": 4173,
      "lgke": 4174,
      "lrae": 4175,
      "lpvv": 4176,
      "rela": 4177,
      "reav": 4178,
      "gsas": 4179,
      "vstv": 4180,
      "rsll": 4181,
      "phh": 4182,
      "vgaa": 4183,
      "gwr": 4184,
      "hth": 4185,
      "qvw": 4186,
      "cvv": 4187,
      "fci": 4188,
      "nas": 4189,
      "yme": 4190,
      "aavi": 4191,
      "lavi": 4192,
      "lact": 4193,
      "tili": 4194,
      "lgae": 4195,
      "ltav": 4196,
      "velv": 4197,
      "adae": 4198,
      "vdai": 4199,
      "vglt": 4200,
      "alte": 4201,
      "eeaa": 4202,
      "ggd": 4203,
      "lere": 4204,
      "lese": 4205,
      "ldai": 4206,
      "keli": 4207,
      "arav": 4208,
      "gegg": 4209,
      "rrll": 4210,
      "axis": 4211,
      "inhibi": 4212,
      "klss": 4213,
      "vagi": 4214,
      "vake": 4215,
      "alqe": 4216,
      "alkr": 4217,
      "lade": 4218,
      "lgee": 4219,
      "vver": 4220,
      "aglr": 4221,
      "gsd": 4222,
      "gsvt": 4223,
      "viss": 4224,
      "psgt": 4225,
      "acc": 4226,
      "vgat": 4227,
      "vcc": 4228,
      "yyy": 4229,
      "pppppp": 4230,
      "phosphatidy": 4231,
      "nln": 4232,
      "rlt": 4233,
      "tav": 4234,
      "wts": 4235,
      "llle": 4236,
      "alkd": 4237,
      "ladi": 4238,
      "leak": 4239,
      "lses": 4240,
      "replic": 4241,
      "aeve": 4242,
      "vsd": 4243,
      "gkli": 4244,
      "gtvv": 4245,
      "apat": 4246,
      "vdad": 4247,
      "gvdi": 4248,
      "serine": 4249,
      "polari": 4250,
      "atic": 4251,
      "oxido": 4252,
      "tktyfph": 4253,
      "epi": 4254,
      "fqv": 4255,
      "kwe": 4256,
      "rlp": 4257,
      "rar": 4258,
      "tai": 4259,
      "lles": 4260,
      "alpp": 4261,
      "lskk": 4262,
      "lglr": 4263,
      "psas": 4264,
      "gtlv": 4265,
      "dsee": 4266,
      "vdvv": 4267,
      "vplv": 4268,
      "fdc": 4269,
      "kvlv": 4270,
      "aali": 4271,
      "symbiont": 4272,
      "microtubule": 4273,
      "rak": 4274,
      "llak": 4275,
      "lglf": 4276,
      "ldav": 4277,
      "gsgk": 4278,
      "ddld": 4279,
      "tth": 4280,
      "translation": 4281,
      "hgd": 4282,
      "tlt": 4283,
      "alk": 4284,
      "lagd": 4285,
      "gglv": 4286,
      "lsli": 4287,
      "lkge": 4288,
      "reaa": 4289,
      "gklv": 4290,
      "rslg": 4291,
      "kfc": 4292,
      "plss": 4293,
      "tla": 4294,
      "vlns": 4295,
      "wse": 4296,
      "yaa": 4297,
      "givs": 4298,
      "lkak": 4299,
      "aid": 4300,
      "pslt": 4301,
      "vtd": 4302,
      "vkaa": 4303,
      "gvag": 4304,
      "rdc": 4305,
      "intr": 4306,
      "nkk": 4307,
      "ngf": 4308,
      "oid": 4309,
      "tag": 4310,
      "wge": 4311,
      "llrd": 4312,
      "lsk": 4313,
      "lsgk": 4314,
      "lrre": 4315,
      "grlr": 4316,
      "ptss": 4317,
      "acro": 4318,
      "kyw": 4319,
      "pkc": 4320,
      "qaal": 4321,
      "wvv": 4322,
      "aasi": 4323,
      "ladf": 4324,
      "ldpe": 4325,
      "gslg": 4326,
      "gslf": 4327,
      "arlr": 4328,
      "vdlv": 4329,
      "vpss": 4330,
      "vpas": 4331,
      "ayc": 4332,
      "tyc": 4333,
      "krc": 4334,
      "kyc": 4335,
      "yth": 4336,
      "rkc": 4337,
      "glucose": 4338,
      "spindle": 4339,
      "glutamate": 4340,
      "tktyfphfd": 4341,
      "fmd": 4342,
      "nlk": 4343,
      "alvt": 4344,
      "aats": 4345,
      "geki": 4346,
      "vtve": 4347,
      "adlr": 4348,
      "dsll": 4349,
      "gdd": 4350,
      "ksd": 4351,
      "mere": 4352,
      "anc": 4353,
      "vpvi": 4354,
      "drlr": 4355,
      "ffc": 4356,
      "qdh": 4357,
      "lselhcdklhvd": 4358,
      "oxidoreductase": 4359,
      "fmt": 4360,
      "glee": 4361,
      "ini": 4362,
      "nrr": 4363,
      "plal": 4364,
      "smo": 4365,
      "tpe": 4366,
      "llai": 4367,
      "eeav": 4368,
      "eelq": 4369,
      "ggav": 4370,
      "lsde": 4371,
      "vvvd": 4372,
      "lkri": 4373,
      "ldlg": 4374,
      "gsgt": 4375,
      "gkve": 4376,
      "vkav": 4377,
      "apc": 4378,
      "laat": 4379,
      "meiotic": 4380,
      "mkc": 4381,
      "myd": 4382,
      "rvs": 4383,
      "levi": 4384,
      "leaf": 4385,
      "lklf": 4386,
      "aere": 4387,
      "gsvs": 4388,
      "vtss": 4389,
      "grd": 4390,
      "grin": 4391,
      "termin": 4392,
      "lnll": 4393,
      "phn": 4394,
      "rdw": 4395,
      "hyy": 4396,
      "actin": 4397,
      "pore": 4398,
      "tory": 4399,
      "pheny": 4400,
      "est": 4401,
      "ine": 4402,
      "rgr": 4403,
      "lape": 4404,
      "legg": 4405,
      "lsvv": 4406,
      "lsts": 4407,
      "prv": 4408,
      "lplt": 4409,
      "aeke": 4410,
      "ailr": 4411,
      "aqaq": 4412,
      "afss": 4413,
      "gvf": 4414,
      "gvas": 4415,
      "gvli": 4416,
      "vyc": 4417,
      "compound": 4418,
      "pmy": 4419,
      "paps": 4420,
      "rlf": 4421,
      "wns": 4422,
      "aape": 4423,
      "eeld": 4424,
      "eeie": 4425,
      "lsle": 4426,
      "avd": 4427,
      "lkae": 4428,
      "gsaa": 4429,
      "gsaq": 4430,
      "dele": 4431,
      "gpss": 4432,
      "vqc": 4433,
      "fyh": 4434,
      "kmy": 4435,
      "qfh": 4436,
      "hydroxylase": 4437,
      "bloo": 4438,
      "ent": 4439,
      "mmi": 4440,
      "nly": 4441,
      "llkd": 4442,
      "eeq": 4443,
      "eelv": 4444,
      "leqe": 4445,
      "agvd": 4446,
      "delr": 4447,
      "gevi": 4448,
      "vtlt": 4449,
      "apgt": 4450,
      "tsts": 4451,
      "tec": 4452,
      "qsc": 4453,
      "blood": 4454,
      "az": 4455,
      "fhi": 4456,
      "veee": 4457,
      "wre": 4458,
      "wlf": 4459,
      "llln": 4460,
      "lars": 4461,
      "lslr": 4462,
      "avke": 4463,
      "lkni": 4464,
      "lpvs": 4465,
      "veai": 4466,
      "rrss": 4467,
      "gklt": 4468,
      "vkai": 4469,
      "pdgs": 4470,
      "pdgt": 4471,
      "gch": 4472,
      "ticu": 4473,
      "fqh": 4474,
      "qhh": 4475,
      "rki": 4476,
      "vaee": 4477,
      "aak": 4478,
      "legk": 4479,
      "lvav": 4480,
      "lvlt": 4481,
      "asai": 4482,
      "agve": 4483,
      "agrr": 4484,
      "pent": 4485,
      "fsd": 4486,
      "pdav": 4487,
      "gcc": 4488,
      "vcy": 4489,
      "qnh": 4490,
      "pgpp": 4491,
      "wsr": 4492,
      "glo": 4493,
      "onic": 4494,
      "tli": 4495,
      "wgt": 4496,
      "wds": 4497,
      "llts": 4498,
      "llst": 4499,
      "lsgi": 4500,
      "lvat": 4501,
      "kkrr": 4502,
      "ltke": 4503,
      "gsli": 4504,
      "vtst": 4505,
      "gtss": 4506,
      "kikk": 4507,
      "gdgs": 4508,
      "glucosyltransferase": 4509,
      "replication": 4510,
      "rvi": 4511,
      "wes": 4512,
      "yli": 4513,
      "llgi": 4514,
      "latt": 4515,
      "lesi": 4516,
      "lsre": 4517,
      "asli": 4518,
      "lgln": 4519,
      "agts": 4520,
      "psgs": 4521,
      "vdlt": 4522,
      "acch": 4523,
      "ghn": 4524,
      "kpc": 4525,
      "kvee": 4526,
      "adhesion": 4527,
      "mqp": 4528,
      "nps": 4529,
      "tee": 4530,
      "thy": 4531,
      "alaf": 4532,
      "lais": 4533,
      "lvli": 4534,
      "lgvt": 4535,
      "vvlg": 4536,
      "vvds": 4537,
      "lkgi": 4538,
      "vkag": 4539,
      "vnc": 4540,
      "nnh": 4541,
      "kvke": 4542,
      "vmn": 4543,
      "nucleotide": 4544,
      "fmp": 4545,
      "maee": 4546,
      "plaa": 4547,
      "rke": 4548,
      "rvt": 4549,
      "wgn": 4550,
      "llgr": 4551,
      "alvs": 4552,
      "aaaf": 4553,
      "legi": 4554,
      "kkd": 4555,
      "kkkr": 4556,
      "asts": 4557,
      "veae": 4558,
      "ptpt": 4559,
      "rhh": 4560,
      "fwe": 4561,
      "glle": 4562,
      "gadi": 4563,
      "wrs": 4564,
      "llen": 4565,
      "eear": 4566,
      "lerr": 4567,
      "lsrs": 4568,
      "lsks": 4569,
      "lskt": 4570,
      "lkde": 4571,
      "atlp": 4572,
      "atae": 4573,
      "ailg": 4574,
      "geal": 4575,
      "aplt": 4576,
      "gvlk": 4577,
      "sens": 4578,
      "gmy": 4579,
      "glkk": 4580,
      "mfk": 4581,
      "oth": 4582,
      "pwe": 4583,
      "pwi": 4584,
      "ton": 4585,
      "wks": 4586,
      "wkr": 4587,
      "llvi": 4588,
      "leaq": 4589,
      "lsdi": 4590,
      "kklt": 4591,
      "kkak": 4592,
      "vell": 4593,
      "vsav": 4594,
      "gngn": 4595,
      "hih": 4596,
      "fnh": 4597,
      "contai": 4598,
      "vwi": 4599,
      "akei": 4600,
      "containing": 4601,
      "maw": 4602,
      "vapp": 4603,
      "wsi": 4604,
      "llpe": 4605,
      "aagk": 4606,
      "ggvv": 4607,
      "lsdy": 4608,
      "lgak": 4609,
      "lgvd": 4610,
      "lrf": 4611,
      "lrke": 4612,
      "ltae": 4613,
      "aike": 4614,
      "gtas": 4615,
      "fsll": 4616,
      "fspe": 4617,
      "tsak": 4618,
      "gpll": 4619,
      "rkrr": 4620,
      "gags": 4621,
      "vave": 4622,
      "ablish": 4623,
      "filament": 4624,
      "cerol": 4625,
      "establish": 4626,
      "ins": 4627,
      "klae": 4628,
      "pa": 4629,
      "pcp": 4630,
      "llgd": 4631,
      "altt": 4632,
      "lart": 4633,
      "lrav": 4634,
      "lise": 4635,
      "lken": 4636,
      "atar": 4637,
      "aiak": 4638,
      "dioxygenase": 4639,
      "adld": 4640,
      "ppd": 4641,
      "fec": 4642,
      "drcc": 4643,
      "dfc": 4644,
      "qnrr": 4645,
      "organism": 4646,
      "vdpvnfk": 4647,
      "fws": 4648,
      "ga": 4649,
      "klgi": 4650,
      "msss": 4651,
      "mmn": 4652,
      "mmk": 4653,
      "tge": 4654,
      "wae": 4655,
      "alst": 4656,
      "lats": 4657,
      "gggi": 4658,
      "avvt": 4659,
      "lgly": 4660,
      "vvae": 4661,
      "vvvs": 4662,
      "vvvt": 4663,
      "lkrr": 4664,
      "atlt": 4665,
      "gsgi": 4666,
      "lqq": 4667,
      "psd": 4668,
      "gkts": 4669,
      "add": 4670,
      "gtgi": 4671,
      "kive": 4672,
      "knld": 4673,
      "tpee": 4674,
      "establishment": 4675,
      "mrh": 4676,
      "nag": 4677,
      "tate": 4678,
      "vage": 4679,
      "ssav": 4680,
      "asvs": 4681,
      "lgkr": 4682,
      "vvgi": 4683,
      "agkk": 4684,
      "lpgg": 4685,
      "lpad": 4686,
      "aivs": 4687,
      "gelv": 4688,
      "kilt": 4689,
      "qyh": 4690,
      "laar": 4691,
      "manno": 4692,
      "fhh": 4693,
      "mcs": 4694,
      "ngi": 4695,
      "pct": 4696,
      "wde": 4697,
      "wed": 4698,
      "aaei": 4699,
      "lsds": 4700,
      "lsly": 4701,
      "reri": 4702,
      "attt": 4703,
      "gsgr": 4704,
      "veke": 4705,
      "ced": 4706,
      "nelr": 4707,
      "kike": 4708,
      "krkr": 4709,
      "qsw": 4710,
      "drw": 4711,
      "qrll": 4712,
      "kpkk": 4713,
      "pvss": 4714,
      "vgli": 4715,
      "rfc": 4716,
      "aaaaaa": 4717,
      "fqf": 4718,
      "hin": 4719,
      "rvr": 4720,
      "lled": 4721,
      "alek": 4722,
      "eeke": 4723,
      "vvde": 4724,
      "gsds": 4725,
      "keft": 4726,
      "vsee": 4727,
      "gkti": 4728,
      "vtvs": 4729,
      "grf": 4730,
      "grav": 4731,
      "aqlv": 4732,
      "apvs": 4733,
      "lnlp": 4734,
      "vrlv": 4735,
      "pvav": 4736,
      "eiy": 4737,
      "akke": 4738,
      "lpre": 4739,
      "ilg": 4740,
      "nar": 4741,
      "vlde": 4742,
      "lagt": 4743,
      "ggsi": 4744,
      "kkav": 4745,
      "lilt": 4746,
      "ldps": 4747,
      "reticu": 4748,
      "aiee": 4749,
      "lqae": 4750,
      "lflf": 4751,
      "gtd": 4752,
      "tsps": 4753,
      "gdav": 4754,
      "gvla": 4755,
      "inc": 4756,
      "ante": 4757,
      "chromati": 4758,
      "kmp": 4759,
      "myi": 4760,
      "llre": 4761,
      "lsis": 4762,
      "prpp": 4763,
      "deal": 4764,
      "veaa": 4765,
      "diaa": 4766,
      "gkrs": 4767,
      "vtee": 4768,
      "adve": 4769,
      "gtti": 4770,
      "vkvs": 4771,
      "gvlp": 4772,
      "acyl": 4773,
      "regula": 4774,
      "dvgg": 4775,
      "axon": 4776,
      "har": 4777,
      "npe": 4778,
      "ngd": 4779,
      "va": 4780,
      "tits": 4781,
      "lear": 4782,
      "avvs": 4783,
      "vvlt": 4784,
      "ldlt": 4785,
      "lqkk": 4786,
      "gene": 4787,
      "gvti": 4788,
      "vfd": 4789,
      "hex": 4790,
      "kvkk": 4791,
      "vgai": 4792,
      "hyr": 4793,
      "syy": 4794,
      "phosphory": 4795,
      "-(": 4796,
      "fqg": 4797,
      "keee": 4798,
      "npd": 4799,
      "papr": 4800,
      "qlls": 4801,
      "vare": 4802,
      "wvk": 4803,
      "wie": 4804,
      "yltransferase": 4805,
      "eeeee": 4806,
      "lsak": 4807,
      "lvld": 4808,
      "aglg": 4809,
      "atls": 4810,
      "atvs": 4811,
      "gslp": 4812,
      "aild": 4813,
      "lqkr": 4814,
      "gkgs": 4815,
      "tern": 4816,
      "kiie": 4817,
      "vpvs": 4818,
      "dyc": 4819,
      "gmw": 4820,
      "kvav": 4821,
      "iigg": 4822,
      "extr": 4823,
      "mhc": 4824,
      "nvi": 4825,
      "pagg": 4826,
      "wvt": 4827,
      "ales": 4828,
      "larq": 4829,
      "laet": 4830,
      "lrkk": 4831,
      "lklk": 4832,
      "airr": 4833,
      "dike": 4834,
      "gekp": 4835,
      "ppaa": 4836,
      "meri": 4837,
      "kvlk": 4838,
      "syl": 4839,
      "lggi": 4840,
      "endot": 4841,
      "ild": 4842,
      "nak": 4843,
      "rpe": 4844,
      "laqe": 4845,
      "gggr": 4846,
      "lstf": 4847,
      "lvse": 4848,
      "lgrr": 4849,
      "lrss": 4850,
      "agae": 4851,
      "lpp": 4852,
      "atst": 4853,
      "aeri": 4854,
      "gsts": 4855,
      "psts": 4856,
      "ntc": 4857,
      "fsls": 4858,
      "vdld": 4859,
      "tell": 4860,
      "afaa": 4861,
      "gvgt": 4862,
      "meki": 4863,
      "kqc": 4864,
      "vch": 4865,
      "amide": 4866,
      "hsi": 4867,
      "nlf": 4868,
      "qlaa": 4869,
      "tgi": 4870,
      "wgp": 4871,
      "laek": 4872,
      "lvai": 4873,
      "avlk": 4874,
      "asgd": 4875,
      "lgvi": 4876,
      "lgts": 4877,
      "gege": 4878,
      "gkak": 4879,
      "vtlr": 4880,
      "apps": 4881,
      "allr": 4882,
      "kgll": 4883,
      "crc": 4884,
      "sub": 4885,
      "oxidase": 4886,
      "mhe": 4887,
      "mfg": 4888,
      "qci": 4889,
      "waf": 4890,
      "yie": 4891,
      "llis": 4892,
      "aaes": 4893,
      "prl": 4894,
      "lgpr": 4895,
      "lrkr": 4896,
      "ltvs": 4897,
      "ailv": 4898,
      "aire": 4899,
      "pero": 4900,
      "vtlv": 4901,
      "adls": 4902,
      "nid": 4903,
      "teae": 4904,
      "lysine": 4905,
      "lnld": 4906,
      "gvpt": 4907,
      "onate": 4908,
      "qqlq": 4909,
      "kgke": 4910,
      "ssssssss": 4911,
      "ylation": 4912,
      "aride": 4913,
      "across": 4914,
      "smooth": 4915,
      "dgw": 4916,
      "fkm": 4917,
      "mvw": 4918,
      "nan": 4919,
      "pmv": 4920,
      "qht": 4921,
      "qlee": 4922,
      "rvf": 4923,
      "ylk": 4924,
      "leds": 4925,
      "lekn": 4926,
      "avak": 4927,
      "asgi": 4928,
      "aglk": 4929,
      "dilk": 4930,
      "gdaa": 4931,
      "vplp": 4932,
      "nchy": 4933,
      "rtc": 4934,
      "kvls": 4935,
      "com": 4936,
      "lalt": 4937,
      "adie": 4938,
      "lum": 4939,
      "kave": 4940,
      "mmd": 4941,
      "mrm": 4942,
      "wap": 4943,
      "yae": 4944,
      "llqe": 4945,
      "laki": 4946,
      "laed": 4947,
      "tigg": 4948,
      "leie": 4949,
      "asle": 4950,
      "lgri": 4951,
      "lild": 4952,
      "lkvk": 4953,
      "ltse": 4954,
      "regi": 4955,
      "keie": 4956,
      "kvae": 4957,
      "ases": 4958,
      "eir": 4959,
      "dmd": 4960,
      "mqf": 4961,
      "mrg": 4962,
      "tls": 4963,
      "ygi": 4964,
      "yav": 4965,
      "yvv": 4966,
      "ssds": 4967,
      "lasy": 4968,
      "agds": 4969,
      "lpes": 4970,
      "viae": 4971,
      "veat": 4972,
      "pslv": 4973,
      "akli": 4974,
      "vtls": 4975,
      "vtgs": 4976,
      "nsll": 4977,
      "gvde": 4978,
      "ryc": 4979,
      "hyde": 4980,
      "pgag": 4981,
      "bac": 4982,
      "nde": 4983,
      "nke": 4984,
      "pape": 4985,
      "xy": 4986,
      "aais": 4987,
      "lavf": 4988,
      "less": 4989,
      "lekq": 4990,
      "lire": 4991,
      "lpas": 4992,
      "lpld": 4993,
      "lped": 4994,
      "aiai": 4995,
      "aree": 4996,
      "rral": 4997,
      "gkgk": 4998,
      "vtpe": 4999,
      "vtge": 5000,
      "adgg": 5001,
      "lnlt": 5002,
      "gflg": 5003,
      "midine": 5004,
      "pgaa": 5005,
      "ticle": 5006,
      "faw": 5007,
      "klal": 5008,
      "kaae": 5009,
      "qws": 5010,
      "rld": 5011,
      "laer": 5012,
      "lsld": 5013,
      "kkke": 5014,
      "lgsi": 5015,
      "lkss": 5016,
      "ltld": 5017,
      "aiad": 5018,
      "ntw": 5019,
      "fsgs": 5020,
      "rsps": 5021,
      "gvpe": 5022,
      "ytc": 5023,
      "pglt": 5024,
      "pgap": 5025,
      "coup": 5026,
      "adeny": 5027,
      "forming": 5028,
      "reticulum": 5029,
      "coupled": 5030,
      "dce": 5031,
      "ous": 5032,
      "raf": 5033,
      "udp": 5034,
      "ural": 5035,
      "kkie": 5036,
      "prpr": 5037,
      "asag": 5038,
      "vvgt": 5039,
      "veki": 5040,
      "gete": 5041,
      "gkle": 5042,
      "gkav": 5043,
      "aklv": 5044,
      "gtav": 5045,
      "apls": 5046,
      "pttt": 5047,
      "vpvt": 5048,
      "vqw": 5049,
      "phen": 5050,
      "stress": 5051,
      "pgps": 5052,
      "rhn": 5053,
      "npkk": 5054,
      "cdi": 5055,
      "dqy": 5056,
      "mlw": 5057,
      "maas": 5058,
      "tts": 5059,
      "vlre": 5060,
      "llne": 5061,
      "llaq": 5062,
      "llkr": 5063,
      "lsvd": 5064,
      "lglq": 5065,
      "lkar": 5066,
      "ltgi": 5067,
      "ltas": 5068,
      "lpaa": 5069,
      "lpse": 5070,
      "atag": 5071,
      "atai": 5072,
      "atve": 5073,
      "defe": 5074,
      "dild": 5075,
      "rrlv": 5076,
      "gkis": 5077,
      "adge": 5078,
      "pppr": 5079,
      "niw": 5080,
      "nilv": 5081,
      "vfw": 5082,
      "gngg": 5083,
      "kdkk": 5084,
      "qrw": 5085,
      "kpss": 5086,
      "heart": 5087,
      "dvle": 5088,
      "chain": 5089,
      "iron": 5090,
      "fct": 5091,
      "glae": 5092,
      "alvi": 5093,
      "lani": 5094,
      "lavr": 5095,
      "gill": 5096,
      "gidi": 5097,
      "asps": 5098,
      "liav": 5099,
      "vvst": 5100,
      "vevd": 5101,
      "diw": 5102,
      "advi": 5103,
      "apee": 5104,
      "lnln": 5105,
      "qic": 5106,
      "pgav": 5107,
      "qpw": 5108,
      "pair": 5109,
      "dendri": 5110,
      "mng": 5111,
      "tve": 5112,
      "yln": 5113,
      "aaks": 5114,
      "lads": 5115,
      "lvde": 5116,
      "lrar": 5117,
      "lili": 5118,
      "lklv": 5119,
      "lkis": 5120,
      "ldee": 5121,
      "rere": 5122,
      "vsvs": 5123,
      "gkvk": 5124,
      "lfee": 5125,
      "akae": 5126,
      "adf": 5127,
      "adgt": 5128,
      "telo": 5129,
      "kilk": 5130,
      "lnls": 5131,
      "proton": 5132,
      "vpgg": 5133,
      "vpgs": 5134,
      "npc": 5135,
      "tfh": 5136,
      "ribonucleo": 5137,
      "mqh": 5138,
      "rgs": 5139,
      "rps": 5140,
      "leld": 5141,
      "asq": 5142,
      "asge": 5143,
      "lkgg": 5144,
      "agks": 5145,
      "lpds": 5146,
      "reco": 5147,
      "lqlv": 5148,
      "vtaa": 5149,
      "tsyn": 5150,
      "qeal": 5151,
      "fed": 5152,
      "tyh": 5153,
      "mswq": 5154,
      "mitment": 5155,
      "commitment": 5156,
      "cit": 5157,
      "wkd": 5158,
      "sses": 5159,
      "aaie": 5160,
      "lsgf": 5161,
      "dise": 5162,
      "dies": 5163,
      "vsgt": 5164,
      "peal": 5165,
      "grld": 5166,
      "rial": 5167,
      "vrll": 5168,
      "vpli": 5169,
      "qilr": 5170,
      "kpw": 5171,
      "alli": 5172,
      "rglr": 5173,
      "lees": 5174,
      "terol": 5175,
      "cation": 5176,
      "gati": 5177,
      "gaas": 5178,
      "hgq": 5179,
      "nvk": 5180,
      "tgs": 5181,
      "vals": 5182,
      "ygs": 5183,
      "lakd": 5184,
      "eevk": 5185,
      "ggge": 5186,
      "lef": 5187,
      "ledf": 5188,
      "lsar": 5189,
      "vvve": 5190,
      "ltlp": 5191,
      "deai": 5192,
      "keai": 5193,
      "keve": 5194,
      "akar": 5195,
      "adee": 5196,
      "aplv": 5197,
      "afve": 5198,
      "lnss": 5199,
      "gvat": 5200,
      "gvlf": 5201,
      "gflv": 5202,
      "gnaa": 5203,
      "ttw": 5204,
      "ktlv": 5205,
      "qrlr": 5206,
      "pvaa": 5207,
      "nyh": 5208,
      "metane": 5209,
      "plate": 5210,
      "accharide": 5211,
      "rpr": 5212,
      "rds": 5213,
      "tvt": 5214,
      "vlve": 5215,
      "yaf": 5216,
      "llgk": 5217,
      "alvk": 5218,
      "aaek": 5219,
      "ggdd": 5220,
      "lrrs": 5221,
      "lkld": 5222,
      "ltde": 5223,
      "lplr": 5224,
      "aese": 5225,
      "dear": 5226,
      "vslg": 5227,
      "gkpi": 5228,
      "lfli": 5229,
      "akve": 5230,
      "vtll": 5231,
      "niss": 5232,
      "vdls": 5233,
      "lnf": 5234,
      "qsll": 5235,
      "vglg": 5236,
      "yih": 5237,
      "cili": 5238,
      "mbry": 5239,
      "fatty": 5240,
      "vvypwtqr": 5241,
      "dqv": 5242,
      "klve": 5243,
      "mlaa": 5244,
      "rlk": 5245,
      "aast": 5246,
      "laky": 5247,
      "liks": 5248,
      "agri": 5249,
      "agrs": 5250,
      "lpvi": 5251,
      "rege": 5252,
      "deld": 5253,
      "deie": 5254,
      "vsq": 5255,
      "pelq": 5256,
      "psav": 5257,
      "gttt": 5258,
      "gdvi": 5259,
      "qqw": 5260,
      "gpvv": 5261,
      "msc": 5262,
      "ktvk": 5263,
      "ysc": 5264,
      "pine": 5265,
      "pqpq": 5266,
      "kvlq": 5267,
      "ryw": 5268,
      "kcn": 5269,
      "wsn": 5270,
      "tgaa": 5271,
      "photo": 5272,
      "afse": 5273,
      "methylation": 5274,
      "perox": 5275,
      "embry": 5276,
      "fmn": 5277,
      "gakk": 5278,
      "llkt": 5279,
      "sslv": 5280,
      "kkrk": 5281,
      "ldss": 5282,
      "aelt": 5283,
      "gslt": 5284,
      "pelv": 5285,
      "pelp": 5286,
      "pedi": 5287,
      "apag": 5288,
      "vdvt": 5289,
      "gdas": 5290,
      "gval": 5291,
      "vpag": 5292,
      "sih": 5293,
      "tdh": 5294,
      "rval": 5295,
      "rvlv": 5296,
      "etn": 5297,
      "other": 5298,
      "golgi": 5299,
      "yfs": 5300,
      "ssli": 5301,
      "lark": 5302,
      "ggll": 5303,
      "gilg": 5304,
      "prgg": 5305,
      "lkas": 5306,
      "aiav": 5307,
      "arvv": 5308,
      "vsvd": 5309,
      "lqes": 5310,
      "gekk": 5311,
      "lfgs": 5312,
      "akq": 5313,
      "adp": 5314,
      "apd": 5315,
      "kid": 5316,
      "gfav": 5317,
      "gpaa": 5318,
      "drd": 5319,
      "qrc": 5320,
      "vhw": 5321,
      "rvlr": 5322,
      "contraction": 5323,
      "endothelial": 5324,
      "iaa": 5325,
      "peee": 5326,
      "lakt": 5327,
      "tiee": 5328,
      "lens": 5329,
      "lspt": 5330,
      "aspar": 5331,
      "liaa": 5332,
      "vvat": 5333,
      "lkli": 5334,
      "aill": 5335,
      "kelg": 5336,
      "diss": 5337,
      "dilr": 5338,
      "lqei": 5339,
      "ppp": 5340,
      "gdee": 5341,
      "gvld": 5342,
      "gfis": 5343,
      "kslv": 5344,
      "krks": 5345,
      "csh": 5346,
      "vgad": 5347,
      "struct": 5348,
      "mlss": 5349,
      "tvs": 5350,
      "aldr": 5351,
      "lavt": 5352,
      "laii": 5353,
      "ggk": 5354,
      "lets": 5355,
      "lspr": 5356,
      "lsfs": 5357,
      "avaq": 5358,
      "lkrs": 5359,
      "atd": 5360,
      "gsee": 5361,
      "aiss": 5362,
      "keae": 5363,
      "dilv": 5364,
      "peq": 5365,
      "pelt": 5366,
      "akrr": 5367,
      "pppe": 5368,
      "aqgg": 5369,
      "dfgla": 5370,
      "vgss": 5371,
      "awn": 5372,
      "vlge": 5373,
      "nucleus": 5374,
      "mesenchy": 5375,
      "gale": 5376,
      "hgr": 5377,
      "ial": 5378,
      "mqy": 5379,
      "sal": 5380,
      "vlse": 5381,
      "wgq": 5382,
      "alks": 5383,
      "lamine": 5384,
      "leli": 5385,
      "levv": 5386,
      "gilv": 5387,
      "lgan": 5388,
      "lpgs": 5389,
      "relv": 5390,
      "reak": 5391,
      "vigt": 5392,
      "lqge": 5393,
      "ppgs": 5394,
      "apvt": 5395,
      "vdll": 5396,
      "vdss": 5397,
      "lyase": 5398,
      "ttaa": 5399,
      "pdlv": 5400,
      "vnd": 5401,
      "mid": 5402,
      "dfw": 5403,
      "gmh": 5404,
      "rkw": 5405,
      "pgas": 5406,
      "fvgg": 5407,
      "adei": 5408,
      "apre": 5409,
      "klrvdpvnfk": 5410,
      "uration": 5411,
      "sodium": 5412,
      "rad": 5413,
      "llrs": 5414,
      "aler": 5415,
      "tikk": 5416,
      "lekd": 5417,
      "lerq": 5418,
      "gigt": 5419,
      "agdd": 5420,
      "lpq": 5421,
      "lpst": 5422,
      "rekk": 5423,
      "gsal": 5424,
      "gsld": 5425,
      "viav": 5426,
      "vilg": 5427,
      "vslt": 5428,
      "lqgg": 5429,
      "vtld": 5430,
      "nsts": 5431,
      "apln": 5432,
      "vdgk": 5433,
      "feri": 5434,
      "piw": 5435,
      "vgds": 5436,
      "pglg": 5437,
      "pglr": 5438,
      "aalt": 5439,
      "kglv": 5440,
      "specific": 5441,
      "granule": 5442,
      "mcd": 5443,
      "nds": 5444,
      "ykk": 5445,
      "ylf": 5446,
      "lane": 5447,
      "avst": 5448,
      "liae": 5449,
      "ligr": 5450,
      "lies": 5451,
      "aglf": 5452,
      "atgs": 5453,
      "atgr": 5454,
      "kelr": 5455,
      "keki": 5456,
      "dist": 5457,
      "pslr": 5458,
      "vtal": 5459,
      "dsgs": 5460,
      "gdli": 5461,
      "lnq": 5462,
      "gfls": 5463,
      "kfw": 5464,
      "pfc": 5465,
      "allt": 5466,
      "mdh": 5467,
      "yyc": 5468,
      "gaee": 5469,
      "glpe": 5470,
      "ksss": 5471,
      "plle": 5472,
      "yge": 5473,
      "llrr": 5474,
      "lafs": 5475,
      "lsgr": 5476,
      "asgt": 5477,
      "vvse": 5478,
      "lkre": 5479,
      "lpf": 5480,
      "lpvp": 5481,
      "aiag": 5482,
      "keq": 5483,
      "peni": 5484,
      "lqaq": 5485,
      "vtgi": 5486,
      "adss": 5487,
      "grlf": 5488,
      "ppgp": 5489,
      "vdgi": 5490,
      "vfgi": 5491,
      "vrav": 5492,
      "vpee": 5493,
      "trc": 5494,
      "ith": 5495,
      "endoplasmic": 5496,
      "glke": 5497,
      "klas": 5498,
      "mfq": 5499,
      "ost": 5500,
      "wdd": 5501,
      "yar": 5502,
      "ydd": 5503,
      "lldi": 5504,
      "llqs": 5505,
      "algrll": 5506,
      "eees": 5507,
      "tif": 5508,
      "lsge": 5509,
      "kkal": 5510,
      "kkgs": 5511,
      "agle": 5512,
      "deav": 5513,
      "rrrs": 5514,
      "vkdi": 5515,
      "vdge": 5516,
      "vddh": 5517,
      "afae": 5518,
      "lnvt": 5519,
      "trw": 5520,
      "knss": 5521,
      "seh": 5522,
      "heh": 5523,
      "mod": 5524,
      "akki": 5525,
      "penfr": 5526,
      "virus": 5527,
      "dws": 5528,
      "rks": 5529,
      "tld": 5530,
      "wln": 5531,
      "alap": 5532,
      "alrq": 5533,
      "ssrs": 5534,
      "lsei": 5535,
      "kkai": 5536,
      "prll": 5537,
      "aslg": 5538,
      "liis": 5539,
      "reve": 5540,
      "rear": 5541,
      "aef": 5542,
      "vial": 5543,
      "vsai": 5544,
      "vsts": 5545,
      "peve": 5546,
      "gegm": 5547,
      "rrlq": 5548,
      "aqd": 5549,
      "tses": 5550,
      "gvfs": 5551,
      "gvpi": 5552,
      "tyro": 5553,
      "kqw": 5554,
      "qdc": 5555,
      "nfh": 5556,
      "dpc": 5557,
      "aggi": 5558,
      "gland": 5559,
      "gggggggg": 5560,
      "terial": 5561,
      "keletal": 5562,
      "activated": 5563,
      "gaps": 5564,
      "gapp": 5565,
      "mhr": 5566,
      "plgg": 5567,
      "plpe": 5568,
      "qmq": 5569,
      "yvk": 5570,
      "lltt": 5571,
      "ssfs": 5572,
      "ladd": 5573,
      "tils": 5574,
      "gglg": 5575,
      "lent": 5576,
      "lgap": 5577,
      "vvad": 5578,
      "vias": 5579,
      "geai": 5580,
      "akas": 5581,
      "vtvk": 5582,
      "grki": 5583,
      "ppas": 5584,
      "vdqs": 5585,
      "kiee": 5586,
      "kivs": 5587,
      "gvp": 5588,
      "pvll": 5589,
      "vgal": 5590,
      "vgas": 5591,
      "pgar": 5592,
      "fusion": 5593,
      "dvlv": 5594,
      "kgss": 5595,
      "rmh": 5596,
      "tvw": 5597,
      "vasc": 5598,
      "maturation": 5599,
      "inositol": 5600,
      "dermal": 5601,
      "nve": 5602,
      "vape": 5603,
      "yas": 5604,
      "alis": 5605,
      "aaay": 5606,
      "lagf": 5607,
      "lsqe": 5608,
      "lsqr": 5609,
      "lilv": 5610,
      "ligi": 5611,
      "vvgs": 5612,
      "vvke": 5613,
      "lked": 5614,
      "lpve": 5615,
      "rene": 5616,
      "atgt": 5617,
      "aevr": 5618,
      "deid": 5619,
      "pelr": 5620,
      "psrs": 5621,
      "pplr": 5622,
      "vdvs": 5623,
      "afll": 5624,
      "lyd": 5625,
      "gvri": 5626,
      "kdlv": 5627,
      "ftw": 5628,
      "lwh": 5629,
      "kgav": 5630,
      "tvee": 5631,
      "vaai": 5632,
      "gated": 5633,
      "atory": 5634,
      "cnm": 5635,
      "hag": 5636,
      "kadi": 5637,
      "lcal": 5638,
      "yve": 5639,
      "yts": 5640,
      "aatt": 5641,
      "ggtt": 5642,
      "ledd": 5643,
      "agap": 5644,
      "ldke": 5645,
      "rerr": 5646,
      "argg": 5647,
      "aklr": 5648,
      "akvv": 5649,
      "nsic": 5650,
      "vkvi": 5651,
      "apar": 5652,
      "vdf": 5653,
      "vdgd": 5654,
      "rier": 5655,
      "afas": 5656,
      "med": 5657,
      "lhah": 5658,
      "gplv": 5659,
      "kdee": 5660,
      "vqlv": 5661,
      "ghgg": 5662,
      "hyn": 5663,
      "leet": 5664,
      "tgss": 5665,
      "agii": 5666,
      "transduction": 5667,
      "avirgkk": 5668,
      "carboxylase": 5669,
      "klre": 5670,
      "klie": 5671,
      "qmk": 5672,
      "qlle": 5673,
      "rgi": 5674,
      "yag": 5675,
      "alie": 5676,
      "lakn": 5677,
      "ladt": 5678,
      "ggf": 5679,
      "kkks": 5680,
      "lklp": 5681,
      "lkds": 5682,
      "ldf": 5683,
      "lpke": 5684,
      "atgi": 5685,
      "atgk": 5686,
      "aeli": 5687,
      "delv": 5688,
      "arlg": 5689,
      "arrs": 5690,
      "gklk": 5691,
      "grgt": 5692,
      "lnli": 5693,
      "gcgg": 5694,
      "pnw": 5695,
      "vgve": 5696,
      "vgdi": 5697,
      "tdc": 5698,
      "qyn": 5699,
      "ivgg": 5700,
      "cdc": 5701,
      "gamma": 5702,
      "class": 5703,
      "bis": 5704,
      "dvc": 5705,
      "mgll": 5706,
      "nri": 5707,
      "qcc": 5708,
      "rts": 5709,
      "rfr": 5710,
      "wfs": 5711,
      "alts": 5712,
      "alkn": 5713,
      "aadi": 5714,
      "aate": 5715,
      "lagv": 5716,
      "avf": 5717,
      "vvps": 5718,
      "ldve": 5719,
      "atak": 5720,
      "keky": 5721,
      "arae": 5722,
      "peli": 5723,
      "lqet": 5724,
      "adgi": 5725,
      "ppgt": 5726,
      "nitro": 5727,
      "vklv": 5728,
      "kile": 5729,
      "kise": 5730,
      "ktee": 5731,
      "ktlr": 5732,
      "kqli": 5733,
      "pyn": 5734,
      "pvls": 5735,
      "pvps": 5736,
      "acting": 5737,
      "tvav": 5738,
      "hpni": 5739,
      "arei": 5740,
      "main": 5741,
      "pcy": 5742,
      "qlve": 5743,
      "rqr": 5744,
      "alps": 5745,
      "laps": 5746,
      "laqq": 5747,
      "ggrr": 5748,
      "lest": 5749,
      "lvgt": 5750,
      "prlv": 5751,
      "aels": 5752,
      "aekr": 5753,
      "aias": 5754,
      "lqss": 5755,
      "lqav": 5756,
      "lqke": 5757,
      "lqsi": 5758,
      "vdli": 5759,
      "ride": 5760,
      "gdls": 5761,
      "kdke": 5762,
      "hsw": 5763,
      "rpc": 5764,
      "poten": 5765,
      "rgrr": 5766,
      "nrc": 5767,
      "ltis": 5768,
      "postsyn": 5769,
      "gans": 5770,
      "myy": 5771,
      "makk": 5772,
      "npn": 5773,
      "paaaa": 5774,
      "taxis": 5775,
      "vadi": 5776,
      "vafs": 5777,
      "wdi": 5778,
      "wis": 5779,
      "llkn": 5780,
      "aait": 5781,
      "aaet": 5782,
      "till": 5783,
      "ggvs": 5784,
      "ggst": 5785,
      "kklk": 5786,
      "lgk": 5787,
      "lrlp": 5788,
      "lrri": 5789,
      "agse": 5790,
      "ldgt": 5791,
      "atvv": 5792,
      "aeld": 5793,
      "vilt": 5794,
      "arkr": 5795,
      "pspe": 5796,
      "akri": 5797,
      "gral": 5798,
      "gvae": 5799,
      "gvrr": 5800,
      "vpad": 5801,
      "kglt": 5802,
      "kcy": 5803,
      "qqqqqq": 5804,
      "flls": 5805,
      "h3": 5806,
      "mws": 5807,
      "paae": 5808,
      "rgf": 5809,
      "wrt": 5810,
      "xin": 5811,
      "yal": 5812,
      "yps": 5813,
      "lakq": 5814,
      "lsgn": 5815,
      "kklv": 5816,
      "kkae": 5817,
      "kkei": 5818,
      "asds": 5819,
      "lpge": 5820,
      "atts": 5821,
      "aerr": 5822,
      "viat": 5823,
      "gkvf": 5824,
      "gtpe": 5825,
      "tsgs": 5826,
      "gdds": 5827,
      "meth": 5828,
      "qed": 5829,
      "anav": 5830,
      "vpaa": 5831,
      "ttss": 5832,
      "vqaa": 5833,
      "vgfs": 5834,
      "qnw": 5835,
      "ctc": 5836,
      "qgll": 5837,
      "detection": 5838,
      "benzo": 5839,
      "drccfvh": 5840,
      "ble": 5841,
      "cvk": 5842,
      "fnc": 5843,
      "mqv": 5844,
      "qlal": 5845,
      "qmn": 5846,
      "qcr": 5847,
      "rgy": 5848,
      "vaps": 5849,
      "waq": 5850,
      "lllk": 5851,
      "alge": 5852,
      "sssi": 5853,
      "aaps": 5854,
      "aagr": 5855,
      "aahc": 5856,
      "laqi": 5857,
      "lele": 5858,
      "gise": 5859,
      "lgvr": 5860,
      "lgei": 5861,
      "liqe": 5862,
      "vvld": 5863,
      "ldvv": 5864,
      "lpag": 5865,
      "aegs": 5866,
      "akag": 5867,
      "nslv": 5868,
      "apav": 5869,
      "apvv": 5870,
      "vdal": 5871,
      "kiae": 5872,
      "lndr": 5873,
      "gvad": 5874,
      "gfd": 5875,
      "ptaa": 5876,
      "ptas": 5877,
      "gyis": 5878,
      "vpf": 5879,
      "vhlt": 5880,
      "pvlt": 5881,
      "kgli": 5882,
      "macro": 5883,
      "hge": 5884,
      "nkt": 5885,
      "qwi": 5886,
      "rpp": 5887,
      "rni": 5888,
      "ygt": 5889,
      "ygd": 5890,
      "llad": 5891,
      "ller": 5892,
      "latr": 5893,
      "tip": 5894,
      "tine": 5895,
      "lsri": 5896,
      "giav": 5897,
      "avre": 5898,
      "lges": 5899,
      "lras": 5900,
      "ltvv": 5901,
      "lpts": 5902,
      "lptt": 5903,
      "dekk": 5904,
      "vevs": 5905,
      "vevk": 5906,
      "dial": 5907,
      "lqek": 5908,
      "gkit": 5909,
      "lfvs": 5910,
      "akgi": 5911,
      "nsvs": 5912,
      "fsf": 5913,
      "vkvv": 5914,
      "aptt": 5915,
      "lnke": 5916,
      "rsgs": 5917,
      "ksks": 5918,
      "qeae": 5919,
      "another": 5920,
      "vrvt": 5921,
      "gnss": 5922,
      "fdw": 5923,
      "iic": 5924,
      "pvpp": 5925,
      "nyc": 5926,
      "qkc": 5927,
      "htc": 5928,
      "vlvs": 5929,
      "fsss": 5930,
      "hts": 5931,
      "qnc": 5932,
      "vkke": 5933,
      "llpr": 5934,
      "llkq": 5935,
      "lldt": 5936,
      "aakt": 5937,
      "ladr": 5938,
      "ggas": 5939,
      "lsvi": 5940,
      "lsln": 5941,
      "lsdd": 5942,
      "lvds": 5943,
      "gisi": 5944,
      "lige": 5945,
      "lite": 5946,
      "lipf": 5947,
      "lklr": 5948,
      "lded": 5949,
      "atee": 5950,
      "aigi": 5951,
      "diphosphate": 5952,
      "lfgg": 5953,
      "adlg": 5954,
      "adgr": 5955,
      "vkas": 5956,
      "afls": 5957,
      "gvps": 5958,
      "anae": 5959,
      "ptps": 5960,
      "vraa": 5961,
      "kvlr": 5962,
      "kvak": 5963,
      "qtc": 5964,
      "vgvi": 5965,
      "cic": 5966,
      "thre": 5967,
      "vags": 5968,
      "rmination": 5969,
      "metanephric": 5970,
      "mesenchymal": 5971,
      "gaae": 5972,
      "nlq": 5973,
      "non": 5974,
      "tgt": 5975,
      "ulo": 5976,
      "wtt": 5977,
      "llet": 5978,
      "llek": 5979,
      "alds": 5980,
      "ssis": 5981,
      "aars": 5982,
      "lapp": 5983,
      "lagy": 5984,
      "lavn": 5985,
      "lelk": 5986,
      "lelt": 5987,
      "lslf": 5988,
      "gist": 5989,
      "prar": 5990,
      "ldgr": 5991,
      "relt": 5992,
      "lqqe": 5993,
      "geii": 5994,
      "gkee": 5995,
      "vtas": 5996,
      "adpe": 5997,
      "dsdd": 5998,
      "ppls": 5999,
      "vdve": 6000,
      "afal": 6001,
      "gdss": 6002,
      "lngg": 6003,
      "lngs": 6004,
      "lnki": 6005,
      "gvkk": 6006,
      "gvai": 6007,
      "vpke": 6008,
      "krlv": 6009,
      "pdgr": 6010,
      "kgee": 6011,
      "glgs": 6012,
      "vacu": 6013,
      "lateral": 6014,
      "faal": 6015,
      "fcy": 6016,
      "mfh": 6017,
      "mmy": 6018,
      "nle": 6019,
      "rre": 6020,
      "tad": 6021,
      "vlti": 6022,
      "llpp": 6023,
      "llic": 6024,
      "alqs": 6025,
      "aaii": 6026,
      "lvks": 6027,
      "lrrq": 6028,
      "lils": 6029,
      "liai": 6030,
      "lket": 6031,
      "lpdd": 6032,
      "lpen": 6033,
      "atlr": 6034,
      "atvk": 6035,
      "aelg": 6036,
      "deii": 6037,
      "kevk": 6038,
      "dive": 6039,
      "pegt": 6040,
      "psds": 6041,
      "gels": 6042,
      "gkie": 6043,
      "aqq": 6044,
      "vdee": 6045,
      "lnee": 6046,
      "qelr": 6047,
      "vpve": 6048,
      "kdgs": 6049,
      "fiw": 6050,
      "vnge": 6051,
      "symp": 6052,
      "qkw": 6053,
      "lgii": 6054,
      "cyclo": 6055,
      "cap": 6056,
      "dkm": 6057,
      "dqp": 6058,
      "fwi": 6059,
      "glse": 6060,
      "glre": 6061,
      "glfe": 6062,
      "thi": 6063,
      "ydr": 6064,
      "alfs": 6065,
      "kkss": 6066,
      "kkle": 6067,
      "lips": 6068,
      "lids": 6069,
      "vvas": 6070,
      "ltei": 6071,
      "ldkd": 6072,
      "lpae": 6073,
      "devv": 6074,
      "keaa": 6075,
      "arld": 6076,
      "lfke": 6077,
      "gtgt": 6078,
      "nits": 6079,
      "fsrs": 6080,
      "apq": 6081,
      "vdvi": 6082,
      "krke": 6083,
      "kvlg": 6084,
      "pvgs": 6085,
      "modi": 6086,
      "kgvv": 6087,
      "intracellular": 6088,
      "flal": 6089,
      "iss": 6090,
      "mfv": 6091,
      "make": 6092,
      "nns": 6093,
      "ngr": 6094,
      "nni": 6095,
      "nks": 6096,
      "plee": 6097,
      "qct": 6098,
      "uvate": 6099,
      "wst": 6100,
      "yre": 6101,
      "yis": 6102,
      "alen": 6103,
      "legr": 6104,
      "lrks": 6105,
      "lkqe": 6106,
      "lkqi": 6107,
      "ltlk": 6108,
      "ltgs": 6109,
      "ldsi": 6110,
      "gsav": 6111,
      "aile": 6112,
      "vef": 6113,
      "divs": 6114,
      "arlt": 6115,
      "lqrr": 6116,
      "gksi": 6117,
      "lfas": 6118,
      "akdi": 6119,
      "dsve": 6120,
      "vpgt": 6121,
      "pqc": 6122,
      "dngs": 6123,
      "yrape": 6124,
      "embryonic": 6125,
      "potential": 6126,
      "gafs": 6127,
      "gvve": 6128,
      "kare": 6129,
      "npf": 6130,
      "plps": 6131,
      "ppre": 6132,
      "skeletal": 6133,
      "wkt": 6134,
      "wtd": 6135,
      "ygy": 6136,
      "llns": 6137,
      "alam": 6138,
      "aads": 6139,
      "avli": 6140,
      "lirr": 6141,
      "ages": 6142,
      "lpgt": 6143,
      "lpkd": 6144,
      "aeag": 6145,
      "aeaf": 6146,
      "kegk": 6147,
      "arge": 6148,
      "arak": 6149,
      "penf": 6150,
      "lfse": 6151,
      "dses": 6152,
      "fsee": 6153,
      "vkri": 6154,
      "vdag": 6155,
      "tede": 6156,
      "aflv": 6157,
      "gdlr": 6158,
      "lnvs": 6159,
      "lngt": 6160,
      "gfvs": 6161,
      "vfll": 6162,
      "gnpt": 6163,
      "gplr": 6164,
      "ktve": 6165,
      "sidase": 6166,
      "sent": 6167,
      "fdkf": 6168,
      "kch": 6169,
      "qpc": 6170,
      "ating": 6171,
      "chromo": 6172,
      "enzyme": 6173,
      "algrllvvypwtqr": 6174,
      "elong": 6175,
      "qlke": 6176,
      "vlis": 6177,
      "xi": 6178,
      "lldd": 6179,
      "aaam": 6180,
      "lady": 6181,
      "tias": 6182,
      "tied": 6183,
      "gigk": 6184,
      "kkvi": 6185,
      "lgfe": 6186,
      "lisi": 6187,
      "vvvi": 6188,
      "vvgd": 6189,
      "vvgv": 6190,
      "lkag": 6191,
      "lkaq": 6192,
      "aeie": 6193,
      "aiat": 6194,
      "argd": 6195,
      "vtvd": 6196,
      "nsks": 6197,
      "dsav": 6198,
      "gfss": 6199,
      "vrgr": 6200,
      "qslq": 6201,
      "itc": 6202,
      "gwy": 6203,
      "pglv": 6204,
      "mast": 6205,
      "integrin": 6206,
      "initiation": 6207,
      "terminal": 6208,
      "dnc": 6209,
      "flss": 6210,
      "gape": 6211,
      "hvf": 6212,
      "klgg": 6213,
      "nvf": 6214,
      "ngy": 6215,
      "raq": 6216,
      "vlne": 6217,
      "wly": 6218,
      "ypd": 6219,
      "aari": 6220,
      "lagq": 6221,
      "lagn": 6222,
      "laty": 6223,
      "tidine": 6224,
      "lelr": 6225,
      "leat": 6226,
      "lers": 6227,
      "lekt": 6228,
      "leky": 6229,
      "lslq": 6230,
      "lvla": 6231,
      "aski": 6232,
      "ltlr": 6233,
      "aeak": 6234,
      "aekf": 6235,
      "gsve": 6236,
      "dese": 6237,
      "aiaq": 6238,
      "psq": 6239,
      "lfgd": 6240,
      "dsvt": 6241,
      "nity": 6242,
      "fsps": 6243,
      "vkae": 6244,
      "tsgg": 6245,
      "aflg": 6246,
      "afld": 6247,
      "gddd": 6248,
      "gpas": 6249,
      "qslr": 6250,
      "pyc": 6251,
      "ndc": 6252,
      "dvlk": 6253,
      "nerve": 6254,
      "peptidase": 6255,
      "sulfur": 6256,
      "aminase": 6257,
      "alahkyh": 6258,
      "derived": 6259,
      "dlw": 6260,
      "dhh": 6261,
      "glvs": 6262,
      "mhi": 6263,
      "ndi": 6264,
      "qmr": 6265,
      "tgk": 6266,
      "tlf": 6267,
      "tan": 6268,
      "yke": 6269,
      "lllc": 6270,
      "algt": 6271,
      "aagf": 6272,
      "aagq": 6273,
      "laye": 6274,
      "lepe": 6275,
      "lsti": 6276,
      "lvlf": 6277,
      "kklq": 6278,
      "aves": 6279,
      "asgk": 6280,
      "lkne": 6281,
      "agte": 6282,
      "agkt": 6283,
      "ltak": 6284,
      "ldlr": 6285,
      "lppd": 6286,
      "lpei": 6287,
      "deae": 6288,
      "aiek": 6289,
      "arvr": 6290,
      "vspe": 6291,
      "lqgi": 6292,
      "geis": 6293,
      "germ": 6294,
      "gklr": 6295,
      "lfld": 6296,
      "adri": 6297,
      "grkt": 6298,
      "gdp": 6299,
      "ddlv": 6300,
      "ptpe": 6301,
      "ptgt": 6302,
      "gqlv": 6303,
      "krlr": 6304,
      "kyke": 6305,
      "kymvi": 6306,
      "yeh": 6307,
      "dvld": 6308,
      "fgad": 6309,
      "vles": 6310,
      "acetyltransferase": 6311,
      "gcycgw": 6312,
      "lipoprotein": 6313,
      "cai": 6314,
      "dmt": 6315,
      "gare": 6316,
      "gave": 6317,
      "hln": 6318,
      "klge": 6319,
      "mate": 6320,
      "pmr": 6321,
      "tvk": 6322,
      "vlpe": 6323,
      "wve": 6324,
      "llan": 6325,
      "altr": 6326,
      "alsr": 6327,
      "ssq": 6328,
      "laqr": 6329,
      "tiaa": 6330,
      "lsii": 6331,
      "kkas": 6332,
      "lklt": 6333,
      "lplg": 6334,
      "reie": 6335,
      "viti": 6336,
      "aivv": 6337,
      "psee": 6338,
      "akld": 6339,
      "grgk": 6340,
      "fsts": 6341,
      "apgv": 6342,
      "kiks": 6343,
      "lykk": 6344,
      "gdgd": 6345,
      "lnpe": 6346,
      "gvpv": 6347,
      "gngt": 6348,
      "ttgi": 6349,
      "gpgi": 6350,
      "pdll": 6351,
      "pdgk": 6352,
      "qiae": 6353,
      "vgee": 6354,
      "vgvs": 6355,
      "pgpr": 6356,
      "vlli": 6357,
      "oxygen": 6358,
      "chemotaxis": 6359,
      "tyrosine": 6360,
      "glti": 6361,
      "nti": 6362,
      "pmn": 6363,
      "pch": 6364,
      "vale": 6365,
      "algr": 6366,
      "algd": 6367,
      "alkq": 6368,
      "ggee": 6369,
      "gipi": 6370,
      "kkq": 6371,
      "avgs": 6372,
      "avte": 6373,
      "asat": 6374,
      "lgvn": 6375,
      "lilf": 6376,
      "agfs": 6377,
      "agaq": 6378,
      "ltve": 6379,
      "lpfs": 6380,
      "lper": 6381,
      "dili": 6382,
      "geld": 6383,
      "gegs": 6384,
      "vdps": 6385,
      "kild": 6386,
      "anw": 6387,
      "pdli": 6388,
      "vngg": 6389,
      "piiy": 6390,
      "vqav": 6391,
      "kvll": 6392,
      "kvlt": 6393,
      "kvai": 6394,
      "vmh": 6395,
      "enr": 6396,
      "qhr": 6397,
      "transi": 6398,
      "ssssss": 6399,
      "cgkaf": 6400,
      "junction": 6401,
      "lselhcdklhvdpenfr": 6402,
      "kymviqge": 6403,
      "dqf": 6404,
      "flkk": 6405,
      "mmv": 6406,
      "nkd": 6407,
      "sw": 6408,
      "tap": 6409,
      "yvi": 6410,
      "aavd": 6411,
      "lskn": 6412,
      "kkvk": 6413,
      "prlr": 6414,
      "asvv": 6415,
      "lres": 6416,
      "live": 6417,
      "vvit": 6418,
      "agk": 6419,
      "agvk": 6420,
      "agst": 6421,
      "lplf": 6422,
      "atvi": 6423,
      "aelq": 6424,
      "viee": 6425,
      "kek": 6426,
      "diav": 6427,
      "arq": 6428,
      "vsat": 6429,
      "lqar": 6430,
      "vtvv": 6431,
      "vtse": 6432,
      "dsld": 6433,
      "pplv": 6434,
      "aqss": 6435,
      "aqar": 6436,
      "lnai": 6437,
      "anch": 6438,
      "gqvv": 6439,
      "pdvv": 6440,
      "site": 6441,
      "gcgc": 6442,
      "rdlv": 6443,
      "vgti": 6444,
      "yic": 6445,
      "lkkh": 6446,
      "weh": 6447,
      "myr": 6448,
      "vlgs": 6449,
      "hionine": 6450,
      "anpnanpn": 6451,
      "dpg": 6452,
      "glte": 6453,
      "mqg": 6454,
      "qale": 6455,
      "tle": 6456,
      "tpp": 6457,
      "ue": 6458,
      "vade": 6459,
      "wkp": 6460,
      "yly": 6461,
      "yvr": 6462,
      "aavk": 6463,
      "aavr": 6464,
      "lset": 6465,
      "kkaa": 6466,
      "prav": 6467,
      "prgs": 6468,
      "lgrs": 6469,
      "lglu": 6470,
      "link": 6471,
      "vvts": 6472,
      "agak": 6473,
      "agaf": 6474,
      "agki": 6475,
      "lpgi": 6476,
      "lpks": 6477,
      "reae": 6478,
      "aegt": 6479,
      "aigt": 6480,
      "aits": 6481,
      "keri": 6482,
      "dile": 6483,
      "arvi": 6484,
      "vsed": 6485,
      "psgi": 6486,
      "psge": 6487,
      "gkld": 6488,
      "vtae": 6489,
      "nsgs": 6490,
      "aptic": 6491,
      "lyli": 6492,
      "ptgs": 6493,
      "tral": 6494,
      "kpee": 6495,
      "pvas": 6496,
      "vmy": 6497,
      "pgee": 6498,
      "qvae": 6499,
      "dglv": 6500,
      "adeno": 6501,
      "dou": 6502,
      "dcc": 6503,
      "dccy": 6504,
      "glve": 6505,
      "klse": 6506,
      "mht": 6507,
      "mals": 6508,
      "ory": 6509,
      "rgk": 6510,
      "vlte": 6511,
      "yks": 6512,
      "llvd": 6513,
      "aavn": 6514,
      "lati": 6515,
      "tise": 6516,
      "lsp": 6517,
      "lvsi": 6518,
      "lgdr": 6519,
      "lilg": 6520,
      "lkgd": 6521,
      "agys": 6522,
      "ltvt": 6523,
      "ltsi": 6524,
      "devk": 6525,
      "vsgi": 6526,
      "lqse": 6527,
      "lfav": 6528,
      "lfst": 6529,
      "vtlp": 6530,
      "vtsi": 6531,
      "nsis": 6532,
      "ntss": 6533,
      "vkgi": 6534,
      "vkve": 6535,
      "riw": 6536,
      "gvee": 6537,
      "gvle": 6538,
      "gvyt": 6539,
      "gpgt": 6540,
      "induction": 6541,
      "kdll": 6542,
      "msgg": 6543,
      "ktkk": 6544,
      "vnee": 6545,
      "sic": 6546,
      "kplv": 6547,
      "idc": 6548,
      "fyc": 6549,
      "rvav": 6550,
      "nglv": 6551,
      "dvw": 6552,
      "glucan": 6553,
      "osin": 6554,
      "with": 6555,
      "transition": 6556,
      "gment": 6557,
      "hve": 6558,
      "nvr": 6559,
      "wgf": 6560,
      "llve": 6561,
      "llpf": 6562,
      "alit": 6563,
      "tivc": 6564,
      "kkky": 6565,
      "lgkn": 6566,
      "lkps": 6567,
      "lkad": 6568,
      "agtt": 6569,
      "ltts": 6570,
      "lddd": 6571,
      "lpla": 6572,
      "regr": 6573,
      "atad": 6574,
      "aeaq": 6575,
      "dedi": 6576,
      "ailt": 6577,
      "ara": 6578,
      "vsps": 6579,
      "vsge": 6580,
      "pevi": 6581,
      "gegi": 6582,
      "gkss": 6583,
      "vtts": 6584,
      "aqlr": 6585,
      "aplp": 6586,
      "gvgf": 6587,
      "gvgp": 6588,
      "ksgs": 6589,
      "ptpp": 6590,
      "isll": 6591,
      "vrss": 6592,
      "vpls": 6593,
      "vpps": 6594,
      "kdde": 6595,
      "krlq": 6596,
      "qrlv": 6597,
      "khki": 6598,
      "alerm": 6599,
      "gsse": 6600,
      "orter": 6601,
      "corti": 6602,
      "postsynaptic": 6603,
      "symporter": 6604,
      "cam": 6605,
      "hfs": 6606,
      "havi": 6607,
      "paee": 6608,
      "vlps": 6609,
      "ylp": 6610,
      "llri": 6611,
      "alet": 6612,
      "lelq": 6613,
      "lskd": 6614,
      "giis": 6615,
      "kkvv": 6616,
      "avah": 6617,
      "asee": 6618,
      "aspe": 6619,
      "lgrf": 6620,
      "lidd": 6621,
      "litt": 6622,
      "lkts": 6623,
      "agkr": 6624,
      "aget": 6625,
      "ltad": 6626,
      "ltes": 6627,
      "atld": 6628,
      "aevi": 6629,
      "dest": 6630,
      "aise": 6631,
      "diie": 6632,
      "akgk": 6633,
      "vtlg": 6634,
      "vtad": 6635,
      "nstt": 6636,
      "dsvs": 6637,
      "niis": 6638,
      "aqgi": 6639,
      "apae": 6640,
      "apge": 6641,
      "vdfs": 6642,
      "tew": 6643,
      "lnal": 6644,
      "gvgs": 6645,
      "gvft": 6646,
      "gfli": 6647,
      "ddss": 6648,
      "ddgs": 6649,
      "kdly": 6650,
      "vnld": 6651,
      "ncr": 6652,
      "awh": 6653,
      "tdee": 6654,
      "rhc": 6655,
      "rgss": 6656,
      "thro": 6657,
      "lnse": 6658,
      "vlts": 6659,
      "peei": 6660,
      "hydratase": 6661,
      "elongation": 6662,
      "cgp": 6663,
      "flaa": 6664,
      "glts": 6665,
      "mmr": 6666,
      "nvp": 6667,
      "tlq": 6668,
      "wvd": 6669,
      "llgh": 6670,
      "ggvi": 6671,
      "ggts": 6672,
      "leqq": 6673,
      "avlq": 6674,
      "avrr": 6675,
      "asrr": 6676,
      "lgse": 6677,
      "vvge": 6678,
      "lkst": 6679,
      "ltrr": 6680,
      "lpgr": 6681,
      "lpii": 6682,
      "reqi": 6683,
      "neal": 6684,
      "gele": 6685,
      "lfal": 6686,
      "akss": 6687,
      "gtst": 6688,
      "tsld": 6689,
      "rsrr": 6690,
      "krk": 6691,
      "ktle": 6692,
      "knkk": 6693,
      "dtee": 6694,
      "pqw": 6695,
      "pot": 6696,
      "cth": 6697,
      "tkee": 6698,
      "press": 6699,
      "cytosis": 6700,
      "hie": 6701,
      "maaaa": 6702,
      "nae": 6703,
      "tlg": 6704,
      "yai": 6705,
      "yrr": 6706,
      "yad": 6707,
      "llin": 6708,
      "lldr": 6709,
      "algf": 6710,
      "algp": 6711,
      "lagp": 6712,
      "titt": 6713,
      "lsgy": 6714,
      "avis": 6715,
      "avie": 6716,
      "prss": 6717,
      "lgki": 6718,
      "liei": 6719,
      "agke": 6720,
      "ltst": 6721,
      "lpsp": 6722,
      "atge": 6723,
      "ates": 6724,
      "deqs": 6725,
      "aive": 6726,
      "diee": 6727,
      "dide": 6728,
      "disc": 6729,
      "vsrr": 6730,
      "vsie": 6731,
      "lqlq": 6732,
      "psgg": 6733,
      "akgg": 6734,
      "akvs": 6735,
      "grls": 6736,
      "fsgg": 6737,
      "aqee": 6738,
      "gvly": 6739,
      "ttke": 6740,
      "ferr": 6741,
      "gcsc": 6742,
      "vgae": 6743,
      "pkss": 6744,
      "rvld": 6745,
      "rvar": 6746,
      "kglg": 6747,
      "chr": 6748,
      "dqc": 6749,
      "lprs": 6750,
      "ltskyr": 6751,
      "lnts": 6752,
      "eeeeeeee": 6753,
      "homo": 6754,
      "flas": 6755,
      "hri": 6756,
      "nne": 6757,
      "naf": 6758,
      "qagg": 6759,
      "rtr": 6760,
      "tvi": 6761,
      "yrs": 6762,
      "llvf": 6763,
      "llvp": 6764,
      "llqr": 6765,
      "alti": 6766,
      "alki": 6767,
      "lagh": 6768,
      "laen": 6769,
      "legs": 6770,
      "leam": 6771,
      "lekf": 6772,
      "giaa": 6773,
      "gigr": 6774,
      "gigf": 6775,
      "kkek": 6776,
      "avsi": 6777,
      "asld": 6778,
      "asaf": 6779,
      "lrds": 6780,
      "vvdi": 6781,
      "lkte": 6782,
      "agan": 6783,
      "reai": 6784,
      "reke": 6785,
      "atse": 6786,
      "gkgt": 6787,
      "vtln": 6788,
      "gtp": 6789,
      "fslv": 6790,
      "vdde": 6791,
      "gdge": 6792,
      "gdki": 6793,
      "lnni": 6794,
      "ksve": 6795,
      "ksrs": 6796,
      "ptts": 6797,
      "gygy": 6798,
      "gnkc": 6799,
      "kdss": 6800,
      "ktke": 6801,
      "knvv": 6802,
      "ncc": 6803,
      "rtw": 6804,
      "gww": 6805,
      "kmc": 6806,
      "matri": 6807,
      "expo": 6808,
      "behavi": 6809,
      "dqk": 6810,
      "dht": 6811,
      "fall": 6812,
      "gaaaa": 6813,
      "gani": 6814,
      "ngn": 6815,
      "yak": 6816,
      "ylh": 6817,
      "llgq": 6818,
      "llqq": 6819,
      "alri": 6820,
      "aakr": 6821,
      "aavq": 6822,
      "lean": 6823,
      "lgks": 6824,
      "lrqr": 6825,
      "likn": 6826,
      "lkp": 6827,
      "lkls": 6828,
      "lkvs": 6829,
      "lkvt": 6830,
      "lkgr": 6831,
      "ltlf": 6832,
      "ltfs": 6833,
      "reki": 6834,
      "atds": 6835,
      "aess": 6836,
      "vigi": 6837,
      "visi": 6838,
      "aiet": 6839,
      "vegg": 6840,
      "keqi": 6841,
      "dilt": 6842,
      "vsti": 6843,
      "vsis": 6844,
      "lfds": 6845,
      "lfgp": 6846,
      "vdds": 6847,
      "vdki": 6848,
      "tslv": 6849,
      "kilg": 6850,
      "gfgs": 6851,
      "ksis": 6852,
      "qelq": 6853,
      "angs": 6854,
      "ptlp": 6855,
      "gqsi": 6856,
      "gnlv": 6857,
      "gpap": 6858,
      "kree": 6859,
      "msee": 6860,
      "pdss": 6861,
      "dfne": 6862,
      "kvgs": 6863,
      "star": 6864,
      "pgpt": 6865,
      "rvls": 6866,
      "qfc": 6867,
      "ccc": 6868,
      "assss": 6869,
      "dgee": 6870,
      "akks": 6871,
      "glge": 6872,
      "veei": 6873,
      "lnis": 6874,
      "exo": 6875,
      "strand": 6876,
      "tissue": 6877,
      "dhy": 6878,
      "dwi": 6879,
      "hki": 6880,
      "hlh": 6881,
      "mmp": 6882,
      "nkn": 6883,
      "pale": 6884,
      "qlss": 6885,
      "rky": 6886,
      "eemn": 6887,
      "lsaf": 6888,
      "aslf": 6889,
      "asrs": 6890,
      "lrdr": 6891,
      "vvar": 6892,
      "vvis": 6893,
      "lkln": 6894,
      "lkdd": 6895,
      "agq": 6896,
      "ldki": 6897,
      "lpgf": 6898,
      "repair": 6899,
      "viis": 6900,
      "aiar": 6901,
      "aine": 6902,
      "diis": 6903,
      "vsli": 6904,
      "cere": 6905,
      "lqld": 6906,
      "gelr": 6907,
      "vtf": 6908,
      "vtag": 6909,
      "ppgg": 6910,
      "teke": 6911,
      "lnps": 6912,
      "meost": 6913,
      "vpav": 6914,
      "ayw": 6915,
      "aylv": 6916,
      "kdli": 6917,
      "krti": 6918,
      "dtvs": 6919,
      "kvcy": 6920,
      "rdvk": 6921,
      "pyw": 6922,
      "pvld": 6923,
      "pkee": 6924,
      "qdw": 6925,
      "ngkk": 6926,
      "circ": 6927,
      "dgld": 6928,
      "qglv": 6929,
      "atis": 6930,
      "ipc": 6931,
      "vaas": 6932,
      "plast": 6933,
      "homeost": 6934,
      "hasldkf": 6935,
      "determination": 6936,
      "modulation": 6937,
      "dcf": 6938,
      "je": 6939,
      "paas": 6940,
      "rkt": 6941,
      "llgf": 6942,
      "alsi": 6943,
      "aade": 6944,
      "aagd": 6945,
      "aavp": 6946,
      "laqs": 6947,
      "gigs": 6948,
      "avge": 6949,
      "asae": 6950,
      "asar": 6951,
      "asgp": 6952,
      "lgfs": 6953,
      "lrgt": 6954,
      "lifs": 6955,
      "vvls": 6956,
      "agti": 6957,
      "ltlq": 6958,
      "ldds": 6959,
      "retin": 6960,
      "atpe": 6961,
      "aeii": 6962,
      "def": 6963,
      "dege": 6964,
      "very": 6965,
      "pene": 6966,
      "psis": 6967,
      "vtle": 6968,
      "nsls": 6969,
      "dsf": 6970,
      "ppq": 6971,
      "lym": 6972,
      "gdf": 6973,
      "lnri": 6974,
      "rslv": 6975,
      "ptee": 6976,
      "vfgg": 6977,
      "ftpav": 6978,
      "kqee": 6979,
      "gcw": 6980,
      "rvaa": 6981,
      "npw": 6982,
      "tpss": 6983,
      "llshc": 6984,
      "hrdi": 6985,
      "gaai": 6986,
      "pgqcnm": 6987,
      "tubule": 6988,
      "cfr": 6989,
      "gade": 6990,
      "hpf": 6991,
      "magg": 6992,
      "nvn": 6993,
      "plae": 6994,
      "rve": 6995,
      "tkk": 6996,
      "ypq": 6997,
      "alvp": 6998,
      "alqq": 6999,
      "alrt": 7000,
      "aled": 7001,
      "aagy": 7002,
      "aard": 7003,
      "lary": 7004,
      "lsed": 7005,
      "aslt": 7006,
      "lgaf": 7007,
      "lgys": 7008,
      "lgft": 7009,
      "lilq": 7010,
      "vvtt": 7011,
      "agni": 7012,
      "ltaf": 7013,
      "deis": 7014,
      "keld": 7015,
      "vsvr": 7016,
      "lqri": 7017,
      "gevk": 7018,
      "gkai": 7019,
      "lff": 7020,
      "vtai": 7021,
      "vttt": 7022,
      "nsns": 7023,
      "adre": 7024,
      "tsd": 7025,
      "tekk": 7026,
      "gvke": 7027,
      "ksav": 7028,
      "ptlv": 7029,
      "prost": 7030,
      "few": 7031,
      "kdvk": 7032,
      "pdlp": 7033,
      "pdpe": 7034,
      "kpll": 7035,
      "mih": 7036,
      "mission": 7037,
      "vgvd": 7038,
      "pgds": 7039,
      "nfcn": 7040,
      "dpss": 7041,
      "fvss": 7042,
      "dgss": 7043,
      "qgss": 7044,
      "transmission": 7045,
      "gavs": 7046,
      "pppppppp": 7047,
      "bud": 7048,
      "domain": 7049,
      "purine": 7050,
      "hni": 7051,
      "hvd": 7052,
      "mce": 7053,
      "mhh": 7054,
      "oci": 7055,
      "plse": 7056,
      "qa": 7057,
      "qaee": 7058,
      "rdr": 7059,
      "yqq": 7060,
      "aatc": 7061,
      "lavp": 7062,
      "latk": 7063,
      "lsve": 7064,
      "lvln": 7065,
      "giti": 7066,
      "asgf": 7067,
      "asgq": 7068,
      "lgni": 7069,
      "lgaq": 7070,
      "lrki": 7071,
      "lkgs": 7072,
      "lkay": 7073,
      "lkdr": 7074,
      "aged": 7075,
      "ltgr": 7076,
      "lpsi": 7077,
      "lpet": 7078,
      "atf": 7079,
      "ataq": 7080,
      "vild": 7081,
      "vevv": 7082,
      "veie": 7083,
      "diai": 7084,
      "vsdt": 7085,
      "pevv": 7086,
      "gkaf": 7087,
      "gkvy": 7088,
      "akrv": 7089,
      "vtgt": 7090,
      "vklr": 7091,
      "aqdf": 7092,
      "gdll": 7093,
      "gdvt": 7094,
      "gvq": 7095,
      "gvar": 7096,
      "ddll": 7097,
      "ptll": 7098,
      "acn": 7099,
      "lmw": 7100,
      "dfve": 7101,
      "pvpe": 7102,
      "pgvv": 7103,
      "pgvi": 7104,
      "pgrr": 7105,
      "qyc": 7106,
      "ngss": 7107,
      "kglp": 7108,
      "nklv": 7109,
      "myosin": 7110,
      "glli": 7111,
      "sgag": 7112,
      "ltie": 7113,
      "lnsi": 7114,
      "lnei": 7115,
      "lnie": 7116,
      "teroid": 7117,
      "dwe": 7118,
      "hae": 7119,
      "hrr": 7120,
      "qsss": 7121,
      "rfs": 7122,
      "rln": 7123,
      "rqq": 7124,
      "tae": 7125,
      "tvr": 7126,
      "kksk": 7127,
      "avgi": 7128,
      "avkr": 7129,
      "prvr": 7130,
      "lrag": 7131,
      "lrtr": 7132,
      "ligt": 7133,
      "vvsi": 7134,
      "lkvd": 7135,
      "lkdf": 7136,
      "lker": 7137,
      "lksk": 7138,
      "agyt": 7139,
      "lpvd": 7140,
      "gsgp": 7141,
      "viag": 7142,
      "vige": 7143,
      "arf": 7144,
      "argr": 7145,
      "vsae": 7146,
      "pspr": 7147,
      "psrr": 7148,
      "gkri": 7149,
      "adgq": 7150,
      "pppq": 7151,
      "gvgi": 7152,
      "gvak": 7153,
      "gvrs": 7154,
      "ksgk": 7155,
      "ddli": 7156,
      "vpld": 7157,
      "qqc": 7158,
      "qqss": 7159,
      "qsd": 7160,
      "amid": 7161,
      "kvne": 7162,
      "fflg": 7163,
      "rkys": 7164,
      "pkw": 7165,
      "dvkk": 7166,
      "tvlv": 7167,
      "vali": 7168,
      "assium": 7169,
      "potassium": 7170,
      "matrix": 7171,
      "cve": 7172,
      "hfd": 7173,
      "olig": 7174,
      "pmm": 7175,
      "qmf": 7176,
      "rgt": 7177,
      "vgks": 7178,
      "ytr": 7179,
      "alvr": 7180,
      "alay": 7181,
      "algn": 7182,
      "lavy": 7183,
      "lard": 7184,
      "ggli": 7185,
      "avlf": 7186,
      "avgd": 7187,
      "avit": 7188,
      "lkf": 7189,
      "ldes": 7190,
      "reli": 7191,
      "atke": 7192,
      "gsge": 7193,
      "gsit": 7194,
      "delf": 7195,
      "kekt": 7196,
      "pspt": 7197,
      "vtkp": 7198,
      "dslr": 7199,
      "fslp": 7200,
      "vkat": 7201,
      "vkrr": 7202,
      "kilv": 7203,
      "qele": 7204,
      "inone": 7205,
      "qslv": 7206,
      "lcll": 7207,
      "vgrr": 7208,
      "pgll": 7209,
      "dvss": 7210,
      "rglp": 7211,
      "lsst": 7212,
      "fvlv": 7213,
      "qgl": 7214,
      "lgit": 7215,
      "oxide": 7216,
      "endosome": 7217,
      "cytoplasmic": 7218,
      "vverlgdy": 7219,
      "chromosome": 7220,
      "flgg": 7221,
      "gate": 7222,
      "hti": 7223,
      "mlal": 7224,
      "mhp": 7225,
      "maae": 7226,
      "nre": 7227,
      "rvk": 7228,
      "tgr": 7229,
      "wtr": 7230,
      "alp": 7231,
      "sslf": 7232,
      "lakh": 7233,
      "tite": 7234,
      "levs": 7235,
      "lete": 7236,
      "ledt": 7237,
      "lsvp": 7238,
      "lstt": 7239,
      "kkf": 7240,
      "asla": 7241,
      "lgns": 7242,
      "lrli": 7243,
      "lrvv": 7244,
      "lrsi": 7245,
      "ldie": 7246,
      "gsai": 7247,
      "vits": 7248,
      "ailn": 7249,
      "aisi": 7250,
      "vsld": 7251,
      "pess": 7252,
      "gklf": 7253,
      "lfde": 7254,
      "akaf": 7255,
      "adar": 7256,
      "dslv": 7257,
      "dsli": 7258,
      "dsis": 7259,
      "grie": 7260,
      "ppvt": 7261,
      "tsaa": 7262,
      "afar": 7263,
      "kske": 7264,
      "ptli": 7265,
      "qsrr": 7266,
      "low": 7267,
      "amc": 7268,
      "dtas": 7269,
      "pfgg": 7270,
      "pvlq": 7271,
      "vgni": 7272,
      "qkvvag": 7273,
      "kgvk": 7274,
      "hhr": 7275,
      "eral": 7276,
      "gage": 7277,
      "carbon": 7278,
      "polarity": 7279,
      "hvs": 7280,
      "kase": 7281,
      "npr": 7282,
      "nqr": 7283,
      "wps": 7284,
      "yvs": 7285,
      "ygn": 7286,
      "llei": 7287,
      "alvd": 7288,
      "aafs": 7289,
      "aaki": 7290,
      "kkis": 7291,
      "kkii": 7292,
      "lgst": 7293,
      "lrly": 7294,
      "vvli": 7295,
      "lkat": 7296,
      "ltar": 7297,
      "ltps": 7298,
      "ldet": 7299,
      "decarboxylase": 7300,
      "vise": 7301,
      "vies": 7302,
      "airs": 7303,
      "vsla": 7304,
      "neie": 7305,
      "geni": 7306,
      "akle": 7307,
      "adst": 7308,
      "dskk": 7309,
      "dsvk": 7310,
      "ppee": 7311,
      "vdvd": 7312,
      "lylq": 7313,
      "gvlq": 7314,
      "qelv": 7315,
      "ddpe": 7316,
      "vflv": 7317,
      "vfgs": 7318,
      "vpts": 7319,
      "vpis": 7320,
      "lhgg": 7321,
      "kdgd": 7322,
      "vnw": 7323,
      "vngt": 7324,
      "lwd": 7325,
      "qtw": 7326,
      "qtav": 7327,
      "pvee": 7328,
      "rvla": 7329,
      "ngal": 7330,
      "kcr": 7331,
      "ivav": 7332,
      "synapse": 7333,
      "division": 7334,
      "modification": 7335,
      "homeostasis": 7336,
      "cad": 7337,
      "gake": 7338,
      "kaie": 7339,
      "mase": 7340,
      "nvq": 7341,
      "pakk": 7342,
      "qmy": 7343,
      "vase": 7344,
      "ydi": 7345,
      "ype": 7346,
      "ydy": 7347,
      "lapr": 7348,
      "lapi": 7349,
      "tivk": 7350,
      "lelp": 7351,
      "girr": 7352,
      "lgds": 7353,
      "lied": 7354,
      "vved": 7355,
      "lkti": 7356,
      "lklq": 7357,
      "lkns": 7358,
      "agps": 7359,
      "agfd": 7360,
      "ltdee": 7361,
      "ldlp": 7362,
      "rekr": 7363,
      "atps": 7364,
      "atap": 7365,
      "aedi": 7366,
      "gsfs": 7367,
      "gsgf": 7368,
      "gsgn": 7369,
      "vess": 7370,
      "vedi": 7371,
      "lqls": 7372,
      "lqer": 7373,
      "gese": 7374,
      "aksi": 7375,
      "advs": 7376,
      "gtvk": 7377,
      "dsde": 7378,
      "dske": 7379,
      "grkk": 7380,
      "gris": 7381,
      "ppw": 7382,
      "aqst": 7383,
      "gdgt": 7384,
      "gvre": 7385,
      "gvaq": 7386,
      "qeaa": 7387,
      "gygf": 7388,
      "vplt": 7389,
      "ktd": 7390,
      "pdnf": 7391,
      "vyw": 7392,
      "qiee": 7393,
      "fdas": 7394,
      "kqrr": 7395,
      "kvgd": 7396,
      "vgla": 7397,
      "nyl": 7398,
      "dvls": 7399,
      "qplp": 7400,
      "qvll": 7401,
      "hhc": 7402,
      "mkll": 7403,
      "aggt": 7404,
      "fgvv": 7405,
      "atie": 7406,
      "hfgkc": 7407,
      "vlvc": 7408,
      "disassembly": 7409,
      "particle": 7410,
      "neural": 7411,
      "vstvltskyr": 7412,
      "cte": 7413,
      "cgf": 7414,
      "hgf": 7415,
      "hse": 7416,
      "hpn": 7417,
      "kass": 7418,
      "nfd": 7419,
      "nrt": 7420,
      "qlgg": 7421,
      "ygp": 7422,
      "ykd": 7423,
      "llah": 7424,
      "alky": 7425,
      "lafi": 7426,
      "ggis": 7427,
      "lsvk": 7428,
      "lvag": 7429,
      "avet": 7430,
      "aslq": 7431,
      "lrpe": 7432,
      "lrgr": 7433,
      "lrrt": 7434,
      "lknt": 7435,
      "lktr": 7436,
      "ldge": 7437,
      "atlg": 7438,
      "gsf": 7439,
      "gses": 7440,
      "vegi": 7441,
      "vege": 7442,
      "veri": 7443,
      "diws": 7444,
      "gess": 7445,
      "lfrr": 7446,
      "akly": 7447,
      "dste": 7448,
      "grli": 7449,
      "apvy": 7450,
      "tene": 7451,
      "afvv": 7452,
      "afkd": 7453,
      "kste": 7454,
      "vrfs": 7455,
      "gnlt": 7456,
      "trd": 7457,
      "ulating": 7458,
      "iddi": 7459,
      "rkll": 7460,
      "hine": 7461,
      "rpss": 7462,
      "dvee": 7463,
      "dpw": 7464,
      "fvlg": 7465,
      "yrc": 7466,
      "ading": 7467,
      "lumen": 7468,
      "gkei": 7469,
      "extracellular": 7470,
      "export": 7471,
      "crd": 7472,
      "kals": 7473,
      "naq": 7474,
      "plti": 7475,
      "plte": 7476,
      "qlkk": 7477,
      "qwe": 7478,
      "qlae": 7479,
      "rlh": 7480,
      "yap": 7481,
      "yay": 7482,
      "alpe": 7483,
      "alsk": 7484,
      "aagn": 7485,
      "ggti": 7486,
      "lste": 7487,
      "lser": 7488,
      "lvad": 7489,
      "kkki": 7490,
      "avan": 7491,
      "asks": 7492,
      "lrer": 7493,
      "lrek": 7494,
      "lits": 7495,
      "lidr": 7496,
      "lkm": 7497,
      "lkvv": 7498,
      "lkaf": 7499,
      "lkdk": 7500,
      "agnt": 7501,
      "ltki": 7502,
      "ldli": 7503,
      "revv": 7504,
      "atvy": 7505,
      "arai": 7506,
      "araf": 7507,
      "neki": 7508,
      "gkdi": 7509,
      "vtgk": 7510,
      "vtfs": 7511,
      "nsvv": 7512,
      "ppav": 7513,
      "apaq": 7514,
      "apts": 7515,
      "afvk": 7516,
      "gdks": 7517,
      "lnge": 7518,
      "gvge": 7519,
      "dddi": 7520,
      "vfss": 7521,
      "aygg": 7522,
      "gplp": 7523,
      "infla": 7524,
      "krll": 7525,
      "vnav": 7526,
      "sequ": 7527,
      "kpvv": 7528,
      "kvpe": 7529,
      "kvln": 7530,
      "pvgt": 7531,
      "ffw": 7532,
      "vglf": 7533,
      "kgas": 7534,
      "rglv": 7535,
      "glsi": 7536,
      "mesone": 7537,
      "sulfate": 7538,
      "auto": 7539,
      "chromatin": 7540,
      "phosphorylation": 7541,
      "dendritic": 7542,
      "flee": 7543,
      "gase": 7544,
      "haa": 7545,
      "htd": 7546,
      "nft": 7547,
      "rly": 7548,
      "vggs": 7549,
      "yvd": 7550,
      "ykr": 7551,
      "lavd": 7552,
      "lavq": 7553,
      "lagm": 7554,
      "latv": 7555,
      "eedi": 7556,
      "tilt": 7557,
      "gggf": 7558,
      "gggy": 7559,
      "lels": 7560,
      "legt": 7561,
      "lvts": 7562,
      "kkgk": 7563,
      "avgk": 7564,
      "lkqr": 7565,
      "agln": 7566,
      "agsg": 7567,
      "ldat": 7568,
      "ldfs": 7569,
      "deaa": 7570,
      "vigr": 7571,
      "velp": 7572,
      "vsrs": 7573,
      "lqre": 7574,
      "akgr": 7575,
      "nslt": 7576,
      "apvi": 7577,
      "tsgt": 7578,
      "afag": 7579,
      "gdvs": 7580,
      "gvpd": 7581,
      "ptvf": 7582,
      "kdgi": 7583,
      "kdvv": 7584,
      "knai": 7585,
      "kvad": 7586,
      "qtlq": 7587,
      "rnw": 7588,
      "vgke": 7589,
      "pkvkahgkk": 7590,
      "rplv": 7591,
      "vwaqs": 7592,
      "fgss": 7593,
      "12": 7594,
      "clus": 7595,
      "glpr": 7596,
      "klks": 7597,
      "mlls": 7598,
      "pl": 7599,
      "qmm": 7600,
      "lltd": 7601,
      "alsy": 7602,
      "ssns": 7603,
      "lavk": 7604,
      "eeet": 7605,
      "lely": 7606,
      "leis": 7607,
      "leny": 7608,
      "lsvf": 7609,
      "lsqi": 7610,
      "kkve": 7611,
      "kkge": 7612,
      "prei": 7613,
      "lgte": 7614,
      "vvah": 7615,
      "lkqq": 7616,
      "lkii": 7617,
      "agvr": 7618,
      "lpsn": 7619,
      "regg": 7620,
      "aegg": 7621,
      "gslr": 7622,
      "gsps": 7623,
      "ails": 7624,
      "peav": 7625,
      "pekr": 7626,
      "ceh": 7627,
      "psvs": 7628,
      "gegt": 7629,
      "gkge": 7630,
      "gkte": 7631,
      "lfgi": 7632,
      "lfre": 7633,
      "lfii": 7634,
      "vtaf": 7635,
      "nsf": 7636,
      "dsgi": 7637,
      "vkie": 7638,
      "vdts": 7639,
      "gdal": 7640,
      "gdat": 7641,
      "gdve": 7642,
      "gvpr": 7643,
      "ksls": 7644,
      "qelf": 7645,
      "anll": 7646,
      "ptgf": 7647,
      "acw": 7648,
      "vpii": 7649,
      "ttas": 7650,
      "ttts": 7651,
      "ktlt": 7652,
      "dyw": 7653,
      "dtlr": 7654,
      "pqvq": 7655,
      "kval": 7656,
      "kvgi": 7657,
      "pvlr": 7658,
      "pvae": 7659,
      "vglp": 7660,
      "ndh": 7661,
      "pgls": 7662,
      "core": 7663,
      "kglr": 7664,
      "wsh": 7665,
      "sssr": 7666,
      "qvlv": 7667,
      "fpc": 7668,
      "fgkeft": 7669,
      "vavs": 7670,
      "mbin": 7671,
      "wfqnrr": 7672,
      "lino": 7673,
      "osis": 7674,
      "ldnlkgt": 7675,
      "acetyl": 7676,
      "micro": 7677,
      "vacuole": 7678,
      "pgqcnmvverlgdy": 7679,
      "chi": 7680,
      "glps": 7681,
      "npt": 7682,
      "nhs": 7683,
      "pggs": 7684,
      "plpr": 7685,
      "qlas": 7686,
      "ray": 7687,
      "rpd": 7688,
      "yte": 7689,
      "llgv": 7690,
      "llii": 7691,
      "aafe": 7692,
      "aavaa": 7693,
      "lait": 7694,
      "eeer": 7695,
      "tilv": 7696,
      "lert": 7697,
      "kkld": 7698,
      "prim": 7699,
      "asti": 7700,
      "lgar": 7701,
      "livi": 7702,
      "liaq": 7703,
      "agpr": 7704,
      "agsi": 7705,
      "ltq": 7706,
      "ltrs": 7707,
      "ldad": 7708,
      "atsi": 7709,
      "vilv": 7710,
      "vids": 7711,
      "diae": 7712,
      "diei": 7713,
      "arly": 7714,
      "peae": 7715,
      "vtat": 7716,
      "nsd": 7717,
      "dsas": 7718,
      "nilr": 7719,
      "vkvk": 7720,
      "aqk": 7721,
      "afie": 7722,
      "kiis": 7723,
      "gdps": 7724,
      "gnvv": 7725,
      "gpps": 7726,
      "krss": 7727,
      "pdlt": 7728,
      "piis": 7729,
      "amee": 7730,
      "ahc": 7731,
      "fdlv": 7732,
      "kvgg": 7733,
      "ffds": 7734,
      "tfw": 7735,
      "dkw": 7736,
      "lssr": 7737,
      "associ": 7738,
      "kwt": 7739,
      "methionine": 7740,
      "present": 7741,
      "isomerase": 7742,
      "brain": 7743,
      "pyrimidine": 7744,
      "presentation": 7745,
      "dsss": 7746,
      "fvkt": 7747,
      "hdi": 7748,
      "nys": 7749,
      "oint": 7750,
      "pant": 7751,
      "rap": 7752,
      "vlks": 7753,
      "aaed": 7754,
      "ggar": 7755,
      "ggse": 7756,
      "lvkr": 7757,
      "lgpe": 7758,
      "lkan": 7759,
      "lkdt": 7760,
      "lkdn": 7761,
      "ltle": 7762,
      "ldle": 7763,
      "ldgs": 7764,
      "ldse": 7765,
      "ldry": 7766,
      "kevi": 7767,
      "kene": 7768,
      "diii": 7769,
      "psf": 7770,
      "gets": 7771,
      "grar": 7772,
      "grvs": 7773,
      "pppt": 7774,
      "vkgk": 7775,
      "vkis": 7776,
      "lyll": 7777,
      "gdlt": 7778,
      "lnas": 7779,
      "gqln": 7780,
      "vnll": 7781,
      "pipe": 7782,
      "lmal": 7783,
      "fdee": 7784,
      "kvss": 7785,
      "rdav": 7786,
      "dnw": 7787,
      "vgns": 7788,
      "rkri": 7789,
      "high": 7790,
      "nvee": 7791,
      "glrs": 7792,
      "vkki": 7793,
      "neration": 7794,
      "aldehyde": 7795,
      "sensory": 7796,
      "vascular": 7797,
      "ftpavhasldkf": 7798,
      "inflamm": 7799,
      "mlkk": 7800,
      "nrs": 7801,
      "qmd": 7802,
      "rat": 7803,
      "rde": 7804,
      "rkf": 7805,
      "aaqs": 7806,
      "aaah": 7807,
      "ladq": 7808,
      "eeis": 7809,
      "lelg": 7810,
      "lsvh": 7811,
      "gimt": 7812,
      "kkls": 7813,
      "lgkd": 7814,
      "lrni": 7815,
      "list": 7816,
      "light": 7817,
      "lkdy": 7818,
      "agkd": 7819,
      "agkp": 7820,
      "agei": 7821,
      "ldpr": 7822,
      "ldas": 7823,
      "lppr": 7824,
      "req": 7825,
      "dess": 7826,
      "devd": 7827,
      "aif": 7828,
      "kef": 7829,
      "dils": 7830,
      "diad": 7831,
      "arat": 7832,
      "vsad": 7833,
      "peat": 7834,
      "pevh": 7835,
      "pscc": 7836,
      "neii": 7837,
      "geie": 7838,
      "lfge": 7839,
      "lfsi": 7840,
      "akps": 7841,
      "akaq": 7842,
      "adle": 7843,
      "dspe": 7844,
      "grvi": 7845,
      "aqai": 7846,
      "lnve": 7847,
      "gvpy": 7848,
      "ptvi": 7849,
      "ptvs": 7850,
      "vfge": 7851,
      "gyss": 7852,
      "vpgp": 7853,
      "qqll": 7854,
      "vqee": 7855,
      "ghw": 7856,
      "frgr": 7857,
      "kvli": 7858,
      "kvlp": 7859,
      "pvli": 7860,
      "nkw": 7861,
      "yvai": 7862,
      "adii": 7863,
      "kavt": 7864,
      "fpttktyfphfd": 7865,
      "klrvdpvnfkllshc": 7866,
      "cpr": 7867,
      "cii": 7868,
      "fcd": 7869,
      "kagi": 7870,
      "mhy": 7871,
      "rgd": 7872,
      "ran": 7873,
      "tti": 7874,
      "yid": 7875,
      "aaer": 7876,
      "lagc": 7877,
      "larf": 7878,
      "eevv": 7879,
      "legf": 7880,
      "left": 7881,
      "lsni": 7882,
      "lvvd": 7883,
      "kkgg": 7884,
      "avvf": 7885,
      "lkgh": 7886,
      "lkrk": 7887,
      "ldgf": 7888,
      "lpgp": 7889,
      "retr": 7890,
      "atan": 7891,
      "aeks": 7892,
      "gsgy": 7893,
      "vine": 7894,
      "aiaf": 7895,
      "aitr": 7896,
      "keqe": 7897,
      "keis": 7898,
      "diar": 7899,
      "lqaa": 7900,
      "psvv": 7901,
      "gekr": 7902,
      "gktf": 7903,
      "akvd": 7904,
      "adad": 7905,
      "gtlg": 7906,
      "gram": 7907,
      "pplt": 7908,
      "apkk": 7909,
      "apgr": 7910,
      "apgq": 7911,
      "rilr": 7912,
      "gvaf": 7913,
      "vfgf": 7914,
      "fied": 7915,
      "ahw": 7916,
      "phag": 7917,
      "qrle": 7918,
      "pfll": 7919,
      "pvad": 7920,
      "rvrr": 7921,
      "kcc": 7922,
      "dpee": 7923,
      "tvls": 7924,
      "ggsgg": 7925,
      "gkke": 7926,
      "vaes": 7927,
      "vkei": 7928,
      "pghlapt": 7929,
      "glucoside": 7930,
      "chemokine": 7931,
      "drccfvhdccy": 7932,
      "daw": 7933,
      "gapr": 7934,
      "hlf": 7935,
      "hvt": 7936,
      "klad": 7937,
      "mnc": 7938,
      "qmv": 7939,
      "tgf": 7940,
      "tase": 7941,
      "llgp": 7942,
      "aldd": 7943,
      "lace": 7944,
      "ledy": 7945,
      "lvvi": 7946,
      "lvar": 7947,
      "gidf": 7948,
      "kkrs": 7949,
      "avle": 7950,
      "asvt": 7951,
      "vvrr": 7952,
      "vvvk": 7953,
      "lkrq": 7954,
      "lkny": 7955,
      "agm": 7956,
      "ldti": 7957,
      "aegi": 7958,
      "aeqq": 7959,
      "gsvd": 7960,
      "gsrs": 7961,
      "gsis": 7962,
      "deds": 7963,
      "devf": 7964,
      "aian": 7965,
      "vedd": 7966,
      "kelt": 7967,
      "kege": 7968,
      "diet": 7969,
      "vsf": 7970,
      "pert": 7971,
      "lqlr": 7972,
      "lqdi": 7973,
      "gkvs": 7974,
      "lfrn": 7975,
      "advd": 7976,
      "gtat": 7977,
      "vkgh": 7978,
      "aqqq": 7979,
      "tete": 7980,
      "afee": 7981,
      "affi": 7982,
      "gvqr": 7983,
      "gfgp": 7984,
      "vpap": 7985,
      "gnki": 7986,
      "gpd": 7987,
      "pdge": 7988,
      "kngg": 7989,
      "kpgq": 7990,
      "rqw": 7991,
      "rklp": 7992,
      "pgli": 7993,
      "rvlg": 7994,
      "kgvi": 7995,
      "qvee": 7996,
      "tvae": 7997,
      "fvgt": 7998,
      "ccin": 7999,
      "fpw": 8000,
      "sgss": 8001,
      "vlai": 8002,
      "gvis": 8003,
      "gvts": 8004,
      "grrs": 8005,
      "cgkafs": 8006,
      "leuk": 8007,
      "ribonuclease": 8008,
      "dci": 8009,
      "glde": 8010,
      "kafs": 8011,
      "mlgg": 8012,
      "mhn": 8013,
      "nky": 8014,
      "oyl": 8015,
      "qeee": 8016,
      "qlqe": 8017,
      "tpt": 8018,
      "vlqe": 8019,
      "vlpr": 8020,
      "vtis": 8021,
      "yvt": 8022,
      "yit": 8023,
      "lami": 8024,
      "leps": 8025,
      "lead": 8026,
      "lslc": 8027,
      "lvgd": 8028,
      "asfs": 8029,
      "lgkt": 8030,
      "lgfi": 8031,
      "lget": 8032,
      "lgsp": 8033,
      "lrde": 8034,
      "lif": 8035,
      "litr": 8036,
      "vvpt": 8037,
      "lkvn": 8038,
      "ldar": 8039,
      "lpvt": 8040,
      "lpqe": 8041,
      "lpsd": 8042,
      "aesn": 8043,
      "deks": 8044,
      "vire": 8045,
      "aitt": 8046,
      "aist": 8047,
      "aied": 8048,
      "vekk": 8049,
      "vskk": 8050,
      "pskk": 8051,
      "geae": 8052,
      "geik": 8053,
      "rrfs": 8054,
      "lffs": 8055,
      "lfts": 8056,
      "akls": 8057,
      "nskk": 8058,
      "gtal": 8059,
      "dslt": 8060,
      "pptt": 8061,
      "nill": 8062,
      "fsgf": 8063,
      "vkgg": 8064,
      "vksi": 8065,
      "aqki": 8066,
      "lygg": 8067,
      "lyke": 8068,
      "gdgi": 8069,
      "gdlg": 8070,
      "anlt": 8071,
      "ddds": 8072,
      "ptlt": 8073,
      "vras": 8074,
      "vpvf": 8075,
      "feal": 8076,
      "fies": 8077,
      "vqal": 8078,
      "ftts": 8079,
      "kpgk": 8080,
      "dfgf": 8081,
      "kfee": 8082,
      "kvla": 8083,
      "pvdi": 8084,
      "pgaf": 8085,
      "rvee": 8086,
      "kmh": 8087,
      "rpgg": 8088,
      "dvll": 8089,
      "porter": 8090,
      "vwt": 8091,
      "fpll": 8092,
      "nvss": 8093,
      "acetate": 8094,
      "acetylglu": 8095,
      "phil": 8096,
      "lggtkymviqge": 8097,
      "recombin": 8098,
      "behavior": 8099,
      "base": 8100,
      "dall": 8101,
      "mkki": 8102,
      "onine": 8103,
      "pcr": 8104,
      "stem": 8105,
      "taq": 8106,
      "tvf": 8107,
      "yfe": 8108,
      "alns": 8109,
      "ssgi": 8110,
      "aaqq": 8111,
      "lant": 8112,
      "latd": 8113,
      "tikkt": 8114,
      "givv": 8115,
      "avrd": 8116,
      "prls": 8117,
      "asad": 8118,
      "asvf": 8119,
      "astt": 8120,
      "lglal": 8121,
      "lrls": 8122,
      "lred": 8123,
      "liar": 8124,
      "lidt": 8125,
      "lifag": 8126,
      "vvlr": 8127,
      "vvaf": 8128,
      "lkgf": 8129,
      "lkgy": 8130,
      "lkrf": 8131,
      "lpki": 8132,
      "lpkt": 8133,
      "gspe": 8134,
      "gsdd": 8135,
      "diln": 8136,
      "diys": 8137,
      "arsi": 8138,
      "vske": 8139,
      "vstr": 8140,
      "gkii": 8141,
      "lfis": 8142,
      "akad": 8143,
      "akvk": 8144,
      "akie": 8145,
      "grk": 8146,
      "grks": 8147,
      "ntts": 8148,
      "apis": 8149,
      "lyrr": 8150,
      "gdvr": 8151,
      "rsd": 8152,
      "qeki": 8153,
      "anai": 8154,
      "ddf": 8155,
      "gqgq": 8156,
      "lhll": 8157,
      "kdls": 8158,
      "kdlk": 8159,
      "kdlq": 8160,
      "piss": 8161,
      "amav": 8162,
      "knlv": 8163,
      "ghlv": 8164,
      "phase": 8165,
      "qrlq": 8166,
      "ftss": 8167,
      "kpkt": 8168,
      "heli": 8169,
      "dtll": 8170,
      "kvlh": 8171,
      "vgaq": 8172,
      "awc": 8173,
      "rqc": 8174,
      "pgdi": 8175,
      "rvle": 8176,
      "rvlq": 8177,
      "rgld": 8178,
      "tvll": 8179,
      "dklv": 8180,
      "dgti": 8181,
      "crag": 8182,
      "myo": 8183,
      "ifc": 8184,
      "yfc": 8185,
      "akes": 8186,
      "ygae": 8187,
      "pgse": 8188,
      "nadp": 8189,
      "bulin": 8190,
      "ylgly": 8191,
      "vggealgrllvvypwtqr": 8192,
      "10": 8193,
      "fmy": 8194,
      "iav": 8195,
      "rqe": 8196,
      "tke": 8197,
      "tps": 8198,
      "trr": 8199,
      "wnd": 8200,
      "aart": 8201,
      "eese": 8202,
      "tiav": 8203,
      "tist": 8204,
      "lgtt": 8205,
      "vvlf": 8206,
      "ltag": 8207,
      "ldqi": 8208,
      "lpli": 8209,
      "rerd": 8210,
      "aeat": 8211,
      "gstt": 8212,
      "dene": 8213,
      "deki": 8214,
      "arle": 8215,
      "arlq": 8216,
      "vslr": 8217,
      "lqkq": 8218,
      "pslq": 8219,
      "gek": 8220,
      "rrav": 8221,
      "lfgt": 8222,
      "akf": 8223,
      "akvi": 8224,
      "nsgg": 8225,
      "nsin": 8226,
      "grss": 8227,
      "grve": 8228,
      "ppvp": 8229,
      "tess": 8230,
      "rilg": 8231,
      "rild": 8232,
      "gdgn": 8233,
      "lngi": 8234,
      "lnre": 8235,
      "gvgv": 8236,
      "angg": 8237,
      "anpe": 8238,
      "gqki": 8239,
      "gnvt": 8240,
      "fell": 8241,
      "feke": 8242,
      "msw": 8243,
      "vnss": 8244,
      "hetero": 8245,
      "gmgg": 8246,
      "pfw": 8247,
      "pvly": 8248,
      "vcn": 8249,
      "rvlp": 8250,
      "ydh": 8251,
      "tgav": 8252,
      "carboxy": 8253,
      "klrvdpvnfkllshcllvt": 8254,
      "+)": 8255,
      "cki": 8256,
      "ckt": 8257,
      "ndd": 8258,
      "nlm": 8259,
      "pati": 8260,
      "pcd": 8261,
      "rvy": 8262,
      "tre": 8263,
      "yat": 8264,
      "yfi": 8265,
      "llys": 8266,
      "altd": 8267,
      "aatr": 8268,
      "eeen": 8269,
      "tile": 8270,
      "tilr": 8271,
      "tity": 8272,
      "lsie": 8273,
      "gigi": 8274,
      "prts": 8275,
      "lgps": 8276,
      "lghe": 8277,
      "lged": 8278,
      "linn": 8279,
      "vvek": 8280,
      "ltre": 8281,
      "lpsy": 8282,
      "aem": 8283,
      "deq": 8284,
      "deas": 8285,
      "aite": 8286,
      "veld": 8287,
      "veni": 8288,
      "arie": 8289,
      "vslp": 8290,
      "vsvi": 8291,
      "peii": 8292,
      "pstt": 8293,
      "gesc": 8294,
      "gkty": 8295,
      "akat": 8296,
      "dsls": 8297,
      "dsdi": 8298,
      "dsgf": 8299,
      "vktt": 8300,
      "vkse": 8301,
      "vdrs": 8302,
      "tslr": 8303,
      "aflr": 8304,
      "lylv": 8305,
      "gvry": 8306,
      "gfvv": 8307,
      "qeav": 8308,
      "ptav": 8309,
      "vpgf": 8310,
      "lhlp": 8311,
      "gnqi": 8312,
      "ttvv": 8313,
      "gplg": 8314,
      "kdge": 8315,
      "krgg": 8316,
      "krls": 8317,
      "krki": 8318,
      "qsii": 8319,
      "pdri": 8320,
      "drlv": 8321,
      "fruct": 8322,
      "dfls": 8323,
      "dfpe": 8324,
      "pvai": 8325,
      "pvpt": 8326,
      "rqrr": 8327,
      "ndle": 8328,
      "kgls": 8329,
      "tpap": 8330,
      "qvlr": 8331,
      "tgat": 8332,
      "apppp": 8333,
      "terase": 8334,
      "glye": 8335,
      "glycan": 8336,
      "acetylation": 8337,
      "fpqfkp": 8338,
      "dmn": 8339,
      "fch": 8340,
      "ngh": 8341,
      "pmk": 8342,
      "qmp": 8343,
      "rle": 8344,
      "tvv": 8345,
      "ykt": 8346,
      "ygh": 8347,
      "alii": 8348,
      "alsv": 8349,
      "legd": 8350,
      "kkag": 8351,
      "kkit": 8352,
      "avvp": 8353,
      "avkn": 8354,
      "avgh": 8355,
      "lkvi": 8356,
      "lkit": 8357,
      "agly": 8358,
      "atla": 8359,
      "athi": 8360,
      "deke": 8361,
      "dekt": 8362,
      "aiks": 8363,
      "ark": 8364,
      "vsaf": 8365,
      "gent": 8366,
      "lfls": 8367,
      "lfks": 8368,
      "akrs": 8369,
      "vtvi": 8370,
      "adps": 8371,
      "gtld": 8372,
      "gtve": 8373,
      "gtge": 8374,
      "dslp": 8375,
      "grlq": 8376,
      "grvt": 8377,
      "grkr": 8378,
      "ntlt": 8379,
      "aqld": 8380,
      "tsat": 8381,
      "telv": 8382,
      "lnaa": 8383,
      "lnrs": 8384,
      "lnkp": 8385,
      "onucle": 8386,
      "anss": 8387,
      "ptgg": 8388,
      "gypp": 8389,
      "vrq": 8390,
      "vpfs": 8391,
      "gngs": 8392,
      "qqlv": 8393,
      "kdps": 8394,
      "vqar": 8395,
      "vygg": 8396,
      "phc": 8397,
      "fdss": 8398,
      "dtss": 8399,
      "yelp": 8400,
      "rtlv": 8401,
      "pvag": 8402,
      "qklr": 8403,
      "dvti": 8404,
      "tvss": 8405,
      "yyh": 8406,
      "fglv": 8407,
      "fgag": 8408,
      "wey": 8409,
      "hcgw": 8410,
      "pyruvate": 8411,
      "nucleoside": 8412,
      "inhibitor": 8413,
      "acetylglucos": 8414,
      "eye": 8415,
      "pmf": 8416,
      "wgi": 8417,
      "wad": 8418,
      "wqe": 8419,
      "wqq": 8420,
      "win": 8421,
      "yqe": 8422,
      "alqr": 8423,
      "alrk": 8424,
      "larh": 8425,
      "eedd": 8426,
      "eeii": 8427,
      "ggai": 8428,
      "levk": 8429,
      "lekp": 8430,
      "lvie": 8431,
      "gild": 8432,
      "avrs": 8433,
      "lgah": 8434,
      "lted": 8435,
      "regn": 8436,
      "aek": 8437,
      "aivf": 8438,
      "aies": 8439,
      "veas": 8440,
      "dim": 8441,
      "dill": 8442,
      "arse": 8443,
      "pege": 8444,
      "perf": 8445,
      "cey": 8446,
      "lqen": 8447,
      "psat": 8448,
      "gevd": 8449,
      "gesi": 8450,
      "gkgi": 8451,
      "gkas": 8452,
      "lflq": 8453,
      "lfad": 8454,
      "akgf": 8455,
      "adkk": 8456,
      "advf": 8457,
      "grle": 8458,
      "grlp": 8459,
      "grni": 8460,
      "grvh": 8461,
      "grii": 8462,
      "grit": 8463,
      "nite": 8464,
      "apds": 8465,
      "vdri": 8466,
      "lnpd": 8467,
      "rsar": 8468,
      "gvni": 8469,
      "vrlr": 8470,
      "vrgt": 8471,
      "vplr": 8472,
      "aygi": 8473,
      "lhld": 8474,
      "krd": 8475,
      "qslf": 8476,
      "qsrs": 8477,
      "vnvt": 8478,
      "knki": 8479,
      "qiqe": 8480,
      "phage": 8481,
      "lcho": 8482,
      "kpaa": 8483,
      "dfld": 8484,
      "gmc": 8485,
      "kvag": 8486,
      "vmc": 8487,
      "pkan": 8488,
      "dvlr": 8489,
      "rgls": 8490,
      "tpvs": 8491,
      "tfc": 8492,
      "mnh": 8493,
      "fgvs": 8494,
      "dhc": 8495,
      "tgag": 8496,
      "glial": 8497,
      "vlrs": 8498,
      "gaei": 8499,
      "nsity": 8500,
      "mktlllt": 8501,
      "mswqay": 8502,
      "cay": 8503,
      "flae": 8504,
      "hgp": 8505,
      "hpi": 8506,
      "mci": 8507,
      "nqe": 8508,
      "nfe": 8509,
      "ndt": 8510,
      "plvs": 8511,
      "tde": 8512,
      "ydt": 8513,
      "alid": 8514,
      "sslq": 8515,
      "aafi": 8516,
      "aasv": 8517,
      "eete": 8518,
      "eeki": 8519,
      "ggvt": 8520,
      "lesq": 8521,
      "lvvf": 8522,
      "gits": 8523,
      "avvi": 8524,
      "avps": 8525,
      "likt": 8526,
      "vvlp": 8527,
      "ltai": 8528,
      "ltgd": 8529,
      "rese": 8530,
      "aegk": 8531,
      "aevf": 8532,
      "deme": 8533,
      "vede": 8534,
      "keii": 8535,
      "dits": 8536,
      "diks": 8537,
      "dihydro": 8538,
      "neae": 8539,
      "rrkk": 8540,
      "rrld": 8541,
      "rrki": 8542,
      "lfps": 8543,
      "nsri": 8544,
      "dset": 8545,
      "grgq": 8546,
      "fsld": 8547,
      "aqei": 8548,
      "aplr": 8549,
      "apve": 8550,
      "gdri": 8551,
      "lnyi": 8552,
      "rslq": 8553,
      "gvfe": 8554,
      "anlr": 8555,
      "anki": 8556,
      "ptpr": 8557,
      "gqav": 8558,
      "lhff": 8559,
      "gnll": 8560,
      "gppr": 8561,
      "kdle": 8562,
      "kdgy": 8563,
      "ktll": 8564,
      "figg": 8565,
      "trlv": 8566,
      "pqd": 8567,
      "rdgk": 8568,
      "cscc": 8569,
      "pvde": 8570,
      "gwc": 8571,
      "fnw": 8572,
      "rvll": 8573,
      "rvad": 8574,
      "ngll": 8575,
      "htve": 8576,
      "dvys": 8577,
      "kglk": 8578,
      "qpqq": 8579,
      "dpkk": 8580,
      "qvld": 8581,
      "mvls": 8582,
      "hfc": 8583,
      "vlvi": 8584,
      "nlli": 8585,
      "ylate": 8586,
      "sulfo": 8587,
      "cecdr": 8588,
      "threonine": 8589,
      "associated": 8590,
      "cfs": 8591,
      "dmf": 8592,
      "hgv": 8593,
      "rte": 8594,
      "rqi": 8595,
      "alqt": 8596,
      "aati": 8597,
      "aagp": 8598,
      "aarq": 8599,
      "laie": 8600,
      "lann": 8601,
      "tike": 8602,
      "gggd": 8603,
      "gggp": 8604,
      "lefs": 8605,
      "lvaf": 8606,
      "lvis": 8607,
      "askt": 8608,
      "lgrt": 8609,
      "lirs": 8610,
      "ltvp": 8611,
      "rek": 8612,
      "revi": 8613,
      "revr": 8614,
      "derr": 8615,
      "dedee": 8616,
      "aige": 8617,
      "veid": 8618,
      "dips": 8619,
      "dien": 8620,
      "vses": 8621,
      "peld": 8622,
      "lqgf": 8623,
      "lqqi": 8624,
      "rrf": 8625,
      "vtlq": 8626,
      "nslr": 8627,
      "nsat": 8628,
      "dsts": 8629,
      "nitri": 8630,
      "vkss": 8631,
      "vkly": 8632,
      "affs": 8633,
      "lnlr": 8634,
      "gflp": 8635,
      "ddge": 8636,
      "vfed": 8637,
      "vrls": 8638,
      "vpgy": 8639,
      "kygi": 8640,
      "kqlq": 8641,
      "mire": 8642,
      "dfgs": 8643,
      "aww": 8644,
      "rpll": 8645,
      "dpat": 8646,
      "tpc": 8647,
      "tpgs": 8648,
      "qvle": 8649,
      "fgat": 8650,
      "toll": 8651,
      "nqc": 8652,
      "cpc": 8653,
      "vsse": 8654,
      "aprs": 8655,
      "kaai": 8656,
      "gats": 8657,
      "outer": 8658,
      "arginine": 8659,
      "translational": 8660,
      "linositol": 8661,
      "11": 8662,
      "deee": 8663,
      "gled": 8664,
      "gpre": 8665,
      "ils": 8666,
      "klqe": 8667,
      "plkk": 8668,
      "qass": 8669,
      "vlhs": 8670,
      "yti": 8671,
      "ygf": 8672,
      "ytt": 8673,
      "alrn": 8674,
      "aaiv": 8675,
      "aask": 8676,
      "eefe": 8677,
      "tild": 8678,
      "lsat": 8679,
      "lspd": 8680,
      "lvps": 8681,
      "kkgt": 8682,
      "avgt": 8683,
      "avts": 8684,
      "aske": 8685,
      "asap": 8686,
      "asii": 8687,
      "lgdn": 8688,
      "liad": 8689,
      "agff": 8690,
      "ltf": 8691,
      "ltqe": 8692,
      "gsvi": 8693,
      "gste": 8694,
      "dedt": 8695,
      "vivv": 8696,
      "aidr": 8697,
      "veq": 8698,
      "vesv": 8699,
      "arri": 8700,
      "vsfs": 8701,
      "rrrk": 8702,
      "gklp": 8703,
      "gkid": 8704,
      "aklq": 8705,
      "dsvv": 8706,
      "dsge": 8707,
      "ppar": 8708,
      "fsis": 8709,
      "vkvd": 8710,
      "aqae": 8711,
      "aqlq": 8712,
      "aqge": 8713,
      "rior": 8714,
      "aflk": 8715,
      "lyss": 8716,
      "lysi": 8717,
      "lnle": 8718,
      "gfgd": 8719,
      "kslp": 8720,
      "ksts": 8721,
      "mec": 8722,
      "ddvv": 8723,
      "ddve": 8724,
      "ddlf": 8725,
      "vfdr": 8726,
      "gnvn": 8727,
      "gnhe": 8728,
      "indu": 8729,
      "qsle": 8730,
      "qspe": 8731,
      "ysll": 8732,
      "ysis": 8733,
      "amw": 8734,
      "kqle": 8735,
      "yegy": 8736,
      "dflk": 8737,
      "kvde": 8738,
      "kvni": 8739,
      "pngt": 8740,
      "rdgr": 8741,
      "csw": 8742,
      "pkll": 8743,
      "active": 8744,
      "rpgt": 8745,
      "dvav": 8746,
      "rgll": 8747,
      "llsh": 8748,
      "dgvv": 8749,
      "vltaahc": 8750,
      "pkdat": 8751,
      "anterior": 8752,
      "lselhcdklhvdpenfrllgn": 8753,
      "lcholine": 8754,
      "don": 8755,
      "gles": 8756,
      "gais": 8757,
      "omal": 8758,
      "rpi": 8759,
      "vati": 8760,
      "vani": 8761,
      "yns": 8762,
      "ypp": 8763,
      "aasp": 8764,
      "larn": 8765,
      "laqn": 8766,
      "eeqr": 8767,
      "tilp": 8768,
      "lrgg": 8769,
      "liat": 8770,
      "liit": 8771,
      "lksf": 8772,
      "ltte": 8773,
      "ldis": 8774,
      "aeni": 8775,
      "gsti": 8776,
      "gsad": 8777,
      "vivt": 8778,
      "viad": 8779,
      "vek": 8780,
      "keak": 8781,
      "digg": 8782,
      "divv": 8783,
      "diin": 8784,
      "arlp": 8785,
      "arii": 8786,
      "vsdi": 8787,
      "vsgf": 8788,
      "lqps": 8789,
      "nelv": 8790,
      "rrri": 8791,
      "rrir": 8792,
      "lffi": 8793,
      "akse": 8794,
      "vtpd": 8795,
      "adlf": 8796,
      "advt": 8797,
      "niqke": 8798,
      "aqrr": 8799,
      "apld": 8800,
      "vdlp": 8801,
      "vdpe": 8802,
      "vdvr": 8803,
      "vdcs": 8804,
      "gdag": 8805,
      "lnk": 8806,
      "lnkt": 8807,
      "rsgg": 8808,
      "anas": 8809,
      "gysf": 8810,
      "gqss": 8811,
      "vrag": 8812,
      "vrvs": 8813,
      "vpgk": 8814,
      "vpds": 8815,
      "ayss": 8816,
      "gnd": 8817,
      "fets": 8818,
      "gpls": 8819,
      "gpts": 8820,
      "kdks": 8821,
      "krf": 8822,
      "qsgr": 8823,
      "ktvv": 8824,
      "knvi": 8825,
      "dygi": 8826,
      "heal": 8827,
      "kqlv": 8828,
      "kqled": 8829,
      "kfld": 8830,
      "kvge": 8831,
      "pvrr": 8832,
      "vgkk": 8833,
      "pgld": 8834,
      "pgae": 8835,
      "aalaa": 8836,
      "rvli": 8837,
      "npss": 8838,
      "nplg": 8839,
      "pole": 8840,
      "tvld": 8841,
      "ctn": 8842,
      "dglr": 8843,
      "vssi": 8844,
      "pattern": 8845,
      "gvte": 8846,
      "vgse": 8847,
      "glycine": 8848,
      "histidine": 8849,
      "fibro": 8850,
      "ribonucleoside": 8851,
      "structural": 8852,
      "fagg": 8853,
      "hfi": 8854,
      "made": 8855,
      "ngv": 8856,
      "nry": 8857,
      "tgq": 8858,
      "wpe": 8859,
      "wrd": 8860,
      "yri": 8861,
      "alne": 8862,
      "alrd": 8863,
      "aasr": 8864,
      "laqd": 8865,
      "tivs": 8866,
      "tips": 8867,
      "lsns": 8868,
      "gipe": 8869,
      "kkay": 8870,
      "avaf": 8871,
      "avpt": 8872,
      "avtt": 8873,
      "prrs": 8874,
      "lins": 8875,
      "liqs": 8876,
      "ligan": 8877,
      "lkam": 8878,
      "ltlg": 8879,
      "ltli": 8880,
      "ltvn": 8881,
      "ldq": 8882,
      "ldgn": 8883,
      "lpvf": 8884,
      "deni": 8885,
      "aiis": 8886,
      "aiie": 8887,
      "dite": 8888,
      "vsar": 8889,
      "ceie": 8890,
      "lqki": 8891,
      "geat": 8892,
      "gkly": 8893,
      "gksv": 8894,
      "gktc": 8895,
      "aklf": 8896,
      "adgy": 8897,
      "dslk": 8898,
      "grgs": 8899,
      "ppkp": 8900,
      "ntlv": 8901,
      "nise": 8902,
      "fsag": 8903,
      "vkvt": 8904,
      "vkts": 8905,
      "vkvn": 8906,
      "apny": 8907,
      "gdts": 8908,
      "lnpr": 8909,
      "lnak": 8910,
      "ksie": 8911,
      "vfag": 8912,
      "aygs": 8913,
      "gpav": 8914,
      "gpvt": 8915,
      "kdf": 8916,
      "kdlt": 8917,
      "trae": 8918,
      "knee": 8919,
      "kplp": 8920,
      "kvrs": 8921,
      "pvlp": 8922,
      "ffge": 8923,
      "rqlr": 8924,
      "rqkr": 8925,
      "rkav": 8926,
      "pkav": 8927,
      "qkll": 8928,
      "rvae": 8929,
      "dvli": 8930,
      "qpss": 8931,
      "rgvv": 8932,
      "vwh": 8933,
      "tnh": 8934,
      "fpgg": 8935,
      "qglp": 8936,
      "qgdsgg": 8937,
      "cfc": 8938,
      "amse": 8939,
      "ltlshfgkc": 8940,
      "double": 8941,
      "17": 8942,
      "had": 8943,
      "ill": 8944,
      "kagg": 8945,
      "kaas": 8946,
      "mcr": 8947,
      "meee": 8948,
      "nkf": 8949,
      "pags": 8950,
      "rvn": 8951,
      "vlnt": 8952,
      "wvi": 8953,
      "wet": 8954,
      "yvp": 8955,
      "ypi": 8956,
      "llpd": 8957,
      "alvn": 8958,
      "alsp": 8959,
      "aavf": 8960,
      "aaqi": 8961,
      "gggh": 8962,
      "ldvi": 8963,
      "atpt": 8964,
      "aeis": 8965,
      "aett": 8966,
      "aekt": 8967,
      "gsed": 8968,
      "dens": 8969,
      "viri": 8970,
      "veag": 8971,
      "vevp": 8972,
      "vekn": 8973,
      "diit": 8974,
      "disr": 8975,
      "vsei": 8976,
      "pekk": 8977,
      "lqqr": 8978,
      "rraa": 8979,
      "gkni": 8980,
      "gkpt": 8981,
      "akay": 8982,
      "nslp": 8983,
      "gtai": 8984,
      "dsvi": 8985,
      "grgi": 8986,
      "grlg": 8987,
      "grvd": 8988,
      "ppll": 8989,
      "ppqp": 8990,
      "fsvs": 8991,
      "fslf": 8992,
      "vkld": 8993,
      "tslp": 8994,
      "tsrs": 8995,
      "rilv": 8996,
      "rsf": 8997,
      "gvlh": 8998,
      "gvpf": 8999,
      "gfid": 9000,
      "ksps": 9001,
      "kses": 9002,
      "anvv": 9003,
      "vrvv": 9004,
      "vrat": 9005,
      "vpvd": 9006,
      "gpvr": 9007,
      "kdal": 9008,
      "kdgt": 9009,
      "drgg": 9010,
      "kpis": 9011,
      "kqll": 9012,
      "pvkk": 9013,
      "stlhlv": 9014,
      "qdkegi": 9015,
      "dpak": 9016,
      "vwr": 9017,
      "fvll": 9018,
      "nkrs": 9019,
      "cyn": 9020,
      "gali": 9021,
      "gvvs": 9022,
      "meso": 9023,
      "qqrlifag": 9024,
      "fibroblast": 9025,
      "stlhlvlrlr": 9026,
      "abi": 9027,
      "glqe": 9028,
      "glni": 9029,
      "mwi": 9030,
      "mlle": 9031,
      "npq": 9032,
      "plgi": 9033,
      "qlre": 9034,
      "rah": 9035,
      "tvq": 9036,
      "wte": 9037,
      "wii": 9038,
      "wen": 9039,
      "yds": 9040,
      "yqs": 9041,
      "aapt": 9042,
      "aasg": 9043,
      "laff": 9044,
      "lavm": 9045,
      "tiae": 9046,
      "tifs": 9047,
      "gglp": 9048,
      "gggw": 9049,
      "lerd": 9050,
      "avgv": 9051,
      "avvr": 9052,
      "pree": 9053,
      "asf": 9054,
      "asve": 9055,
      "lgfd": 9056,
      "lgdt": 9057,
      "lign": 9058,
      "vvkk": 9059,
      "lkla": 9060,
      "lkty": 9061,
      "agrt": 9062,
      "ltvk": 9063,
      "ltgf": 9064,
      "ltks": 9065,
      "ltsp": 9066,
      "ldts": 9067,
      "gsle": 9068,
      "dek": 9069,
      "viai": 9070,
      "kevt": 9071,
      "diag": 9072,
      "diaq": 9073,
      "arre": 9074,
      "arki": 9075,
      "arate": 9076,
      "vsni": 9077,
      "pegg": 9078,
      "peap": 9079,
      "ception": 9080,
      "psvi": 9081,
      "psni": 9082,
      "psfs": 9083,
      "nell": 9084,
      "nene": 9085,
      "gkf": 9086,
      "akit": 9087,
      "adki": 9088,
      "adgd": 9089,
      "gtps": 9090,
      "gtvn": 9091,
      "dsle": 9092,
      "dsgd": 9093,
      "pppd": 9094,
      "vkgt": 9095,
      "vkdr": 9096,
      "tein": 9097,
      "riss": 9098,
      "aflt": 9099,
      "kils": 9100,
      "lnav": 9101,
      "lnqs": 9102,
      "rsis": 9103,
      "ksf": 9104,
      "ksq": 9105,
      "qeis": 9106,
      "qese": 9107,
      "angd": 9108,
      "gyd": 9109,
      "vrve": 9110,
      "gnlp": 9111,
      "ttvt": 9112,
      "kdkr": 9113,
      "msts": 9114,
      "ktgg": 9115,
      "pdvp": 9116,
      "vnvv": 9117,
      "vngk": 9118,
      "trate": 9119,
      "fdls": 9120,
      "dylv": 9121,
      "fral": 9122,
      "dfee": 9123,
      "rtlr": 9124,
      "pnss": 9125,
      "hsc": 9126,
      "pvap": 9127,
      "vgaf": 9128,
      "hic": 9129,
      "dvdi": 9130,
      "kglf": 9131,
      "qpll": 9132,
      "dklr": 9133,
      "dgll": 9134,
      "qgli": 9135,
      "iyn": 9136,
      "iyr": 9137,
      "agit": 9138,
      "adis": 9139,
      "lnes": 9140,
      "vldi": 9141,
      "lfide": 9142,
      "antiporter": 9143,
      "llagen": 9144,
      "ppdqqrlifag": 9145,
      "mesonephric": 9146,
      "niqkestlhlvlrlr": 9147,
      "qdkegippdqqrlifag": 9148,
      "fcf": 9149,
      "gdse": 9150,
      "hqs": 9151,
      "hii": 9152,
      "hrf": 9153,
      "plve": 9154,
      "wdr": 9155,
      "alni": 9156,
      "aakn": 9157,
      "aaky": 9158,
      "aaqr": 9159,
      "eeaq": 9160,
      "lelf": 9161,
      "leqs": 9162,
      "ledr": 9163,
      "lspi": 9164,
      "lvpe": 9165,
      "gias": 9166,
      "avky": 9167,
      "prlq": 9168,
      "asie": 9169,
      "lrdt": 9170,
      "livs": 9171,
      "agsr": 9172,
      "ldgi": 9173,
      "atri": 9174,
      "vegd": 9175,
      "keas": 9176,
      "kese": 9177,
      "aris": 9178,
      "arkm": 9179,
      "pelf": 9180,
      "lqas": 9181,
      "lqat": 9182,
      "geq": 9183,
      "rrgg": 9184,
      "gkgn": 9185,
      "lfly": 9186,
      "akqi": 9187,
      "nsrs": 9188,
      "nses": 9189,
      "addi": 9190,
      "adaf": 9191,
      "adfe": 9192,
      "gtlf": 9193,
      "dski": 9194,
      "dsed": 9195,
      "grpi": 9196,
      "ppaq": 9197,
      "lnrr": 9198,
      "meric": 9199,
      "qeai": 9200,
      "vrki": 9201,
      "ayll": 9202,
      "qqqr": 9203,
      "gplq": 9204,
      "kdpe": 9205,
      "kdvf": 9206,
      "ktlp": 9207,
      "trss": 9208,
      "vqis": 9209,
      "vyss": 9210,
      "dro": 9211,
      "drlt": 9212,
      "lmee": 9213,
      "ftee": 9214,
      "ftve": 9215,
      "vhc": 9216,
      "pqgg": 9217,
      "kvri": 9218,
      "pvgg": 9219,
      "gwh": 9220,
      "syr": 9221,
      "pgpe": 9222,
      "pgvt": 9223,
      "collagen": 9224,
      "rgaa": 9225,
      "rgag": 9226,
      "mkw": 9227,
      "sngt": 9228,
      "apei": 9229,
      "lshgsaq": 9230,
      "ltgktit": 9231,
      "kqledgrt": 9232,
      "qdkegippdqqrlifagkqledgrt": 9233,
      "chs": 9234,
      "hid": 9235,
      "klpe": 9236,
      "klek": 9237,
      "klfe": 9238,
      "nfi": 9239,
      "tly": 9240,
      "alvf": 9241,
      "algh": 9242,
      "aaen": 9243,
      "latg": 9244,
      "eere": 9245,
      "ggkk": 9246,
      "ggke": 9247,
      "lem": 9248,
      "lsdn": 9249,
      "lsek": 9250,
      "avap": 9251,
      "prgt": 9252,
      "liek": 9253,
      "lknk": 9254,
      "lksr": 9255,
      "agvf": 9256,
      "ltds": 9257,
      "ltri": 9258,
      "ltage": 9259,
      "lpsg": 9260,
      "resi": 9261,
      "aene": 9262,
      "gspr": 9263,
      "gsat": 9264,
      "gsys": 9265,
      "gsii": 9266,
      "deat": 9267,
      "keks": 9268,
      "kegn": 9269,
      "arss": 9270,
      "peai": 9271,
      "psae": 9272,
      "gef": 9273,
      "gevs": 9274,
      "gegv": 9275,
      "rrlt": 9276,
      "lfed": 9277,
      "akti": 9278,
      "akgq": 9279,
      "akrq": 9280,
      "vtti": 9281,
      "nsii": 9282,
      "adlt": 9283,
      "ppts": 9284,
      "ntln": 9285,
      "vkll": 9286,
      "vksf": 9287,
      "apai": 9288,
      "vdgr": 9289,
      "vdgq": 9290,
      "test": 9291,
      "lype": 9292,
      "gdkk": 9293,
      "gdlf": 9294,
      "gdgq": 9295,
      "lnde": 9296,
      "qeii": 9297,
      "angt": 9298,
      "vpkt": 9299,
      "gnav": 9300,
      "ttd": 9301,
      "ttav": 9302,
      "feaf": 9303,
      "ktld": 9304,
      "ktvt": 9305,
      "ysas": 9306,
      "knni": 9307,
      "dtts": 9308,
      "kvas": 9309,
      "dnkty": 9310,
      "itd": 9311,
      "kglq": 9312,
      "rgav": 9313,
      "rglt": 9314,
      "qvav": 9315,
      "ero": 9316,
      "dgkk": 9317,
      "dgvs": 9318,
      "fglf": 9319,
      "fqc": 9320,
      "mfc": 9321,
      "igag": 9322,
      "lting": 9323,
      "vavi": 9324,
      "vlat": 9325,
      "deei": 9326,
      "vanalahkyh": 9327,
      "checkp": 9328,
      "cyclase": 9329,
      "tube": 9330,
      "mqifvkt": 9331,
      "atomic": 9332,
      "adaptor": 9333,
      "checkpoint": 9334,
      "maps": 9335,
      "nnt": 9336,
      "npy": 9337,
      "plke": 9338,
      "page": 9339,
      "sing": 9340,
      "wvf": 9341,
      "wdn": 9342,
      "ygq": 9343,
      "yys": 9344,
      "yvn": 9345,
      "yrd": 9346,
      "alei": 9347,
      "altn": 9348,
      "aain": 9349,
      "lap": 9350,
      "lame": 9351,
      "ggii": 9352,
      "levt": 9353,
      "lsqs": 9354,
      "giks": 9355,
      "prd": 9356,
      "asaq": 9357,
      "asgy": 9358,
      "asqs": 9359,
      "lgpi": 9360,
      "lrai": 9361,
      "lice": 9362,
      "ligk": 9363,
      "lint": 9364,
      "liay": 9365,
      "vvei": 9366,
      "lkle": 9367,
      "lkpi": 9368,
      "agah": 9369,
      "agdt": 9370,
      "ltpt": 9371,
      "ltet": 9372,
      "rers": 9373,
      "aevt": 9374,
      "gsggi": 9375,
      "vied": 9376,
      "vese": 9377,
      "diek": 9378,
      "arvq": 9379,
      "vsag": 9380,
      "vsvt": 9381,
      "vsri": 9382,
      "lqis": 9383,
      "pset": 9384,
      "nekk": 9385,
      "geks": 9386,
      "gkal": 9387,
      "lfgf": 9388,
      "akii": 9389,
      "vtvn": 9390,
      "fskk": 9391,
      "fsli": 9392,
      "fsgt": 9393,
      "vkii": 9394,
      "vdgs": 9395,
      "vdln": 9396,
      "vddd": 9397,
      "tspt": 9398,
      "afav": 9399,
      "gdti": 9400,
      "gdpe": 9401,
      "gvds": 9402,
      "gfaf": 9403,
      "ksee": 9404,
      "ksld": 9405,
      "qeve": 9406,
      "anq": 9407,
      "anlp": 9408,
      "acylgly": 9409,
      "vpd": 9410,
      "vpgi": 9411,
      "lhse": 9412,
      "gnnn": 9413,
      "fevi": 9414,
      "fese": 9415,
      "gpvi": 9416,
      "kdav": 9417,
      "ysys": 9418,
      "drar": 9419,
      "phyt": 9420,
      "fdps": 9421,
      "ftgg": 9422,
      "ftge": 9423,
      "dyve": 9424,
      "kqss": 9425,
      "kvat": 9426,
      "kvps": 9427,
      "lwc": 9428,
      "cstd": 9429,
      "vmlv": 9430,
      "dvlg": 9431,
      "polys": 9432,
      "tpaa": 9433,
      "dglt": 9434,
      "nkli": 9435,
      "cro": 9436,
      "ipss": 9437,
      "irc": 9438,
      "gllt": 9439,
      "glvi": 9440,
      "gvvi": 9441,
      "glis": 9442,
      "renal": 9443,
      "organ": 9444,
      "monoatomic": 9445,
      "ligand": 9446,
      "mqifvktltgktit": 9447,
      "caf": 9448,
      "glnt": 9449,
      "hke": 9450,
      "iat": 9451,
      "ndf": 9452,
      "pmq": 9453,
      "tgd": 9454,
      "trs": 9455,
      "wgd": 9456,
      "ygk": 9457,
      "llgy": 9458,
      "lans": 9459,
      "lahy": 9460,
      "laiv": 9461,
      "tidd": 9462,
      "tinn": 9463,
      "lskr": 9464,
      "lsrt": 9465,
      "lvrd": 9466,
      "giag": 9467,
      "prgr": 9468,
      "prgp": 9469,
      "lgvf": 9470,
      "lkie": 9471,
      "agsp": 9472,
      "ltap": 9473,
      "lpkp": 9474,
      "aeti": 9475,
      "gskk": 9476,
      "gsgq": 9477,
      "vikk": 9478,
      "vist": 9479,
      "vekr": 9480,
      "dias": 9481,
      "didi": 9482,
      "pese": 9483,
      "lqai": 9484,
      "lqni": 9485,
      "getr": 9486,
      "rrae": 9487,
      "lfkk": 9488,
      "lfdt": 9489,
      "akvt": 9490,
      "vtrs": 9491,
      "adpr": 9492,
      "adni": 9493,
      "grsi": 9494,
      "ppae": 9495,
      "ppvs": 9496,
      "vklt": 9497,
      "aqse": 9498,
      "teis": 9499,
      "ridine": 9500,
      "gdld": 9501,
      "lnlg": 9502,
      "lnvv": 9503,
      "lnvi": 9504,
      "ksgg": 9505,
      "ange": 9506,
      "gyse": 9507,
      "fekk": 9508,
      "kdld": 9509,
      "kdvi": 9510,
      "ktai": 9511,
      "ysd": 9512,
      "pdls": 9513,
      "fiee": 9514,
      "amaa": 9515,
      "qikk": 9516,
      "lcgg": 9517,
      "sept": 9518,
      "fdvv": 9519,
      "fdvs": 9520,
      "gmaf": 9521,
      "ffas": 9522,
      "mdc": 9523,
      "htfy": 9524,
      "yipgt": 9525,
      "rplp": 9526,
      "rham": 9527,
      "kgai": 9528,
      "fgprl": 9529,
      "thr": 9530,
      "tgll": 9531,
      "tgke": 9532,
      "nwdd": 9533,
      "apes": 9534,
      "gavi": 9535,
      "dees": 9536,
      "gvie": 9537,
      "xxxxxxxx": 9538,
      "18": 9539,
      "gdie": 9540,
      "kage": 9541,
      "nfr": 9542,
      "ndn": 9543,
      "qare": 9544,
      "rgq": 9545,
      "tte": 9546,
      "tgy": 9547,
      "wvp": 9548,
      "wvn": 9549,
      "yvf": 9550,
      "ypy": 9551,
      "llaf": 9552,
      "algv": 9553,
      "alqk": 9554,
      "aasd": 9555,
      "ggsr": 9556,
      "lsfi": 9557,
      "lgkp": 9558,
      "lrq": 9559,
      "lrse": 9560,
      "ligq": 9561,
      "vvvp": 9562,
      "lkve": 9563,
      "lkly": 9564,
      "lkrn": 9565,
      "agft": 9566,
      "ltdt": 9567,
      "ldde": 9568,
      "aeds": 9569,
      "aevk": 9570,
      "gslk": 9571,
      "devs": 9572,
      "density": 9573,
      "aikr": 9574,
      "veis": 9575,
      "keti": 9576,
      "kevs": 9577,
      "keaf": 9578,
      "kegy": 9579,
      "kekd": 9580,
      "divn": 9581,
      "pegi": 9582,
      "lqqs": 9583,
      "nevi": 9584,
      "geri": 9585,
      "gkls": 9586,
      "gtfs": 9587,
      "grag": 9588,
      "grai": 9589,
      "grly": 9590,
      "grgf": 9591,
      "ppat": 9592,
      "ppvq": 9593,
      "vkaf": 9594,
      "aqkk": 9595,
      "apkp": 9596,
      "vdpr": 9597,
      "vdly": 9598,
      "vdgv": 9599,
      "tsis": 9600,
      "riee": 9601,
      "lyni": 9602,
      "lngk": 9603,
      "lnds": 9604,
      "rsas": 9605,
      "gvmv": 9606,
      "ddlp": 9607,
      "ptvr": 9608,
      "gqll": 9609,
      "vrgg": 9610,
      "vrks": 9611,
      "vpvh": 9612,
      "lhaq": 9613,
      "gpf": 9614,
      "gpal": 9615,
      "kdgn": 9616,
      "pdgg": 9617,
      "fitt": 9618,
      "pive": 9619,
      "vqd": 9620,
      "ahlv": 9621,
      "drdr": 9622,
      "fdai": 9623,
      "qree": 9624,
      "iec": 9625,
      "hsd": 9626,
      "qtss": 9627,
      "ffss": 9628,
      "ffpd": 9629,
      "idal": 9630,
      "ndlv": 9631,
      "rklv": 9632,
      "allll": 9633,
      "rvss": 9634,
      "rvgg": 9635,
      "rppr": 9636,
      "dvar": 9637,
      "qpad": 9638,
      "qvls": 9639,
      "qvar": 9640,
      "qgpp": 9641,
      "mvli": 9642,
      "eeeeee": 9643,
      "mart": 9644,
      "atpase": 9645,
      "acyltransferase": 9646,
      "phosphatidylinositol": 9647,
      "bacterial": 9648,
      "vddhlmc": 9649,
      "recombination": 9650,
      "dvg": 9651,
      "glie": 9652,
      "haf": 9653,
      "hfe": 9654,
      "hfr": 9655,
      "kvie": 9656,
      "npi": 9657,
      "nvy": 9658,
      "plge": 9659,
      "vaie": 9660,
      "vtie": 9661,
      "wki": 9662,
      "wfi": 9663,
      "wnn": 9664,
      "ylm": 9665,
      "aatv": 9666,
      "titi": 9667,
      "tily": 9668,
      "lvne": 9669,
      "lvnn": 9670,
      "kkte": 9671,
      "avlp": 9672,
      "avrt": 9673,
      "asfe": 9674,
      "lrdd": 9675,
      "lrkn": 9676,
      "lien": 9677,
      "vvte": 9678,
      "lklg": 9679,
      "lkrd": 9680,
      "ltla": 9681,
      "ltkk": 9682,
      "relp": 9683,
      "redi": 9684,
      "aerd": 9685,
      "kevv": 9686,
      "keni": 9687,
      "dihydroxy": 9688,
      "aray": 9689,
      "pela": 9690,
      "psap": 9691,
      "neks": 9692,
      "gede": 9693,
      "rrls": 9694,
      "rris": 9695,
      "akni": 9696,
      "akqe": 9697,
      "aktt": 9698,
      "akam": 9699,
      "vtlf": 9700,
      "vtds": 9701,
      "adti": 9702,
      "adse": 9703,
      "dsly": 9704,
      "grge": 9705,
      "fsas": 9706,
      "fsde": 9707,
      "vdlg": 9708,
      "vdar": 9709,
      "vdvk": 9710,
      "vdvf": 9711,
      "lnks": 9712,
      "gvlm": 9713,
      "ksvv": 9714,
      "kslt": 9715,
      "ptf": 9716,
      "ptvv": 9717,
      "proline": 9718,
      "vfgt": 9719,
      "acss": 9720,
      "vraq": 9721,
      "vppr": 9722,
      "gnvi": 9723,
      "qqq": 9724,
      "ktts": 9725,
      "pdee": 9726,
      "pdlr": 9727,
      "pdte": 9728,
      "amae": 9729,
      "drvv": 9730,
      "kvaa": 9731,
      "kvqe": 9732,
      "vgld": 9733,
      "vgay": 9734,
      "qkav": 9735,
      "kgni": 9736,
      "city": 9737,
      "enve": 9738,
      "cto": 9739,
      "ydc": 9740,
      "qgld": 9741,
      "tglp": 9742,
      "spss": 9743,
      "tqc": 9744,
      "vlsi": 9745,
      "voltage": 9746,
      "gluc": 9747,
      "ipr": 9748,
      "klde": 9749,
      "nay": 9750,
      "ngp": 9751,
      "oni": 9752,
      "paks": 9753,
      "rlm": 9754,
      "tlm": 9755,
      "ulf": 9756,
      "wfe": 9757,
      "alkt": 9758,
      "aadd": 9759,
      "eepe": 9760,
      "leqi": 9761,
      "lekm": 9762,
      "lesv": 9763,
      "lsdf": 9764,
      "lvns": 9765,
      "lgre": 9766,
      "lgqt": 9767,
      "lik": 9768,
      "lkqs": 9769,
      "lktf": 9770,
      "lktv": 9771,
      "agay": 9772,
      "ltrd": 9773,
      "atly": 9774,
      "atgq": 9775,
      "aesi": 9776,
      "gsar": 9777,
      "vigk": 9778,
      "aiei": 9779,
      "dirs": 9780,
      "artr": 9781,
      "pevk": 9782,
      "lqrq": 9783,
      "pses": 9784,
      "neph": 9785,
      "rrrt": 9786,
      "lfgr": 9787,
      "akgd": 9788,
      "adgk": 9789,
      "adln": 9790,
      "adsi": 9791,
      "pppy": 9792,
      "apla": 9793,
      "tsee": 9794,
      "teas": 9795,
      "riar": 9796,
      "afde": 9797,
      "kikd": 9798,
      "lndd": 9799,
      "gvgy": 9800,
      "anlv": 9801,
      "anlg": 9802,
      "anvt": 9803,
      "ddle": 9804,
      "ddvi": 9805,
      "gqgg": 9806,
      "gnvs": 9807,
      "kdkd": 9808,
      "krav": 9809,
      "krlg": 9810,
      "ktgi": 9811,
      "fikn": 9812,
      "pils": 9813,
      "knd": 9814,
      "knll": 9815,
      "kngk": 9816,
      "ahll": 9817,
      "drll": 9818,
      "qrlp": 9819,
      "kpf": 9820,
      "dylm": 9821,
      "hept": 9822,
      "kvti": 9823,
      "kvrr": 9824,
      "pflr": 9825,
      "vgar": 9826,
      "pkdi": 9827,
      "pkrs": 9828,
      "pgve": 9829,
      "fnvp": 9830,
      "dvlq": 9831,
      "rgli": 9832,
      "qvss": 9833,
      "tvas": 9834,
      "fvlf": 9835,
      "tgvi": 9836,
      "nvav": 9837,
      "glai": 9838,
      "gkks": 9839,
      "suppre": 9840,
      "htgekpy": 9841,
      "npkkyipgt": 9842,
      "arabin": 9843,
      "mqifvktltgktitleve": 9844,
      "suppression": 9845,
      "elec": 9846,
      "glek": 9847,
      "hit": 9848,
      "kapp": 9849,
      "klvs": 9850,
      "mhf": 9851,
      "pmg": 9852,
      "qcp": 9853,
      "rtt": 9854,
      "ulting": 9855,
      "vans": 9856,
      "vlie": 9857,
      "vlni": 9858,
      "wlh": 9859,
      "ygr": 9860,
      "yaq": 9861,
      "yqi": 9862,
      "algq": 9863,
      "alanine": 9864,
      "lair": 9865,
      "eeln": 9866,
      "lesy": 9867,
      "lesf": 9868,
      "gif": 9869,
      "avq": 9870,
      "asri": 9871,
      "lgti": 9872,
      "lgdi": 9873,
      "lrsv": 9874,
      "liak": 9875,
      "lity": 9876,
      "lisd": 9877,
      "lkpt": 9878,
      "lkgn": 9879,
      "lktq": 9880,
      "agavirgkk": 9881,
      "ltpd": 9882,
      "ltsd": 9883,
      "ldgg": 9884,
      "ldvt": 9885,
      "lpde": 9886,
      "lpys": 9887,
      "aelp": 9888,
      "aeit": 9889,
      "gsla": 9890,
      "gsvr": 9891,
      "aide": 9892,
      "kels": 9893,
      "keid": 9894,
      "araq": 9895,
      "vsqe": 9896,
      "pede": 9897,
      "pepp": 9898,
      "pets": 9899,
      "pevr": 9900,
      "pett": 9901,
      "pesi": 9902,
      "lqle": 9903,
      "lqli": 9904,
      "psaa": 9905,
      "pslf": 9906,
      "rrkr": 9907,
      "gkrr": 9908,
      "gktv": 9909,
      "vtgd": 9910,
      "gtsi": 9911,
      "grsr": 9912,
      "ppvv": 9913,
      "niks": 9914,
      "vklq": 9915,
      "apgd": 9916,
      "ried": 9917,
      "afne": 9918,
      "afad": 9919,
      "afaq": 9920,
      "gddi": 9921,
      "rsqs": 9922,
      "angk": 9923,
      "acst": 9924,
      "ayls": 9925,
      "lhq": 9926,
      "gnld": 9927,
      "gpld": 9928,
      "krgr": 9929,
      "mski": 9930,
      "fiav": 9931,
      "fiai": 9932,
      "trtr": 9933,
      "vqll": 9934,
      "drvi": 9935,
      "secon": 9936,
      "ftke": 9937,
      "dtav": 9938,
      "pqaq": 9939,
      "dfss": 9940,
      "kvre": 9941,
      "kvaq": 9942,
      "rdlr": 9943,
      "lww": 9944,
      "rkgt": 9945,
      "rkaq": 9946,
      "pkgs": 9947,
      "pglq": 9948,
      "asei": 9949,
      "kgve": 9950,
      "qpap": 9951,
      "npts": 9952,
[...]
